#version: 0.2
Ġ t
Ġ a
e r
e n
i n
o n
Ġt h
e s
a t
Ġ s
r e
i t
Ġ d
o u
Ġ w
Ġth e
i s
o r
Ġ c
i on
Ġ b
Ġa n
in g
Ġ p
e d
Ġt o
c h
Ġ m
l e
a n
Ġ f
Ġ u
a l
Ġ in
r o
Ġ I
t e
Ġ h
Ġan d
a r
a s
Ġ o
en t
es t
e t
Ġ y
i c
Ġy ou
Ġ S
Ġ re
i e
i l
Ġ is
Ġ n
Ġb e
u n
o m
s t
q u
Ġ e
at ion
v e
c t
Ġp ro
l y
Ġo f
u r
Ġu n
Ġ g
i g
l d
o t
o w
i d
Ġf or
i m
Ġ l
v er
Ġ on
qu est
t er
ou ld
c e
i ch
o l
Ġ T
a g
un g
u t
Ġa s
quest ion
Ġ W
b le
u s
Ġ question
Ġth at
Ġ A
es s
Ġ it
i f
Ġ z
f or
a m
Ã ¼
er e
m ent
at e
e l
p p
Ġc on
Ġh a
Ġu s
Ġ P
Ġ D
it h
Ġ r
Ġun d
s u
i r
e c
a il
for m
Ġw h
Ġw ith
Ġyou r
Ã ¶
ou t
Ġ Ġ
Ġz u
ĠT h
er s
y s
p t
Ġa re
Ġw e
k e
Ġd ie
is t
Ġth is
it y
o s
t h
as e
Ġc om
s w
Ġ k
a re
Ġ v
u l
Ġs u
Ġha ve
Ġs o
h r
a d
Ġ or
ble m
Ġs t
Ġn ot
g r
id e
e ct
Ġa t
Ġis su
Ġan sw
Ġw ould
te m
Ġa l
Ã ¤
ĠW e
Ġm o
t en
le ase
Ġn e
Ġe x
a c
al l
Ġc an
Ġpro v
u m
il l
ou r
et ail
Ġ en
Ġa b
or t
i z
a y
an ce
u st
Ġm e
f t
Ġr es
at a
Ġ C
a ch
Ġd is
Ġ U
' s
Ġ M
ĠS ie
an d
w are
Ġ ver
ar d
ag e
i er
in d
Ġs e
form ation
en d
g e
Ġprov ide
Ġd ata
Ġu p
Ġd o
o o
Ġ im
Ġa pp
ys tem
ĠI n
Ġ B
p er
Ġquestion s
ion s
Ġ E
in e
al ly
' t
Ġab out
i es
Ġd er
Ġ er
Ġ <
Ġd etail
te l
Ġ F
Ġa c
h e
Ġa d
o p
i ve
i en
Ġissu e
Ġs h
Ġd e
Ġansw er
te gr
o st
Ġ (
u f
Ġs p
Ġb ut
a ct
Ġan y
Ġdis c
ĠP ro
Ġ K
k t
l ich
it e
ft ware
h t
Ġu m
ĠA n
f f
th er
ou n
Ġ V
s ist
Ġ le
ung en
Ġ O
us s
Ġw ill
am e
v est
ar t
k ing
ĠTh e
i al
v en
Ġim p
Ã¼ r
an k
Ġs om
i ke
Ġt im
a us
Ġin c
Ġh el
Ġg e
Ġpro blem
Ġin formation
a ble
s er
Ġdisc uss
Ġcon t
Ġt r
at ed
Ġ if
v ic
Ġ "
n ow
Ġs ystem
Ġas sist
b er
Ġd as
Ġl ike
u d
Ġc l
p l
Ġw as
Ġt e
n um
n en
a in
if ic
an t
Ġmo re
c ess
Ġre c
it te
u e
d er
i v
Ġ our
Ġ R
Ġin tegr
ac k
ation s
pp ort
Ġ out
it s
Ġs er
ĠP lease
Ġ H
Ã¶ n
Ġtim e
a b
l en
ig ht
ĠI h
ro m
Ġin vest
ar k
Ġs ec
i re
d en
it al
Ġc h
Ġne ed
Ġp ost
f er
e ar
Ġk now
Ġ L
b en
Ġso ftware
t z
Ġup d
ĠS u
Ġhel p
at en
Ġc all
Ġres ol
l ow
or k
Ġp lease
Ġp l
Ġcom p
i ate
Ġdetail s
Ġc ould
Ġh as
Ġ N
t s
p s
Ġse e
Ġm y
Ġs ol
Ġs ch
Ġb et
i b
Ġsom e
d u
Ġth ere
r ate
t o
ig n
Ġb y
ic al
Ġa m
Ġm ed
in k
Ġ Z
ol s
s o
ic s
Ġf Ã¼r
ĠPro blem
Ġf rom
Ġsp ec
Ġad d
Ġun s
re c
ment s
Ġre p
Ġsec ur
Ġt ag
Ġ j
Ġd en
Ġe in
Ġthe y
Ġsh ould
os e
er n
et ing
Ġbe en
Ġm an
Ġan al
Ġw ir
Ġ G
s e
ch en
e hr
o g
Ġo pt
i ent
ur ther
on e
rate g
Ġre g
age ment
ou g
ĠĠ ĠĠ
at es
Ġwh ich
ie w
Ġd ig
Ġf e
ĠD aten
Ġk Ã¶n
it ion
Ġd es
Ġsecur ity
h er
es e
Ġf urther
ul t
u re
Ġspec ific
at ing
ĠI f
Ġg et
Ġsol ut
Ġapp rec
ĠT o
d e
o re
j ect
el l
Ġund er
Ġh ow
Ġe ine
ĠTh is
Ġin ter
ust om
am p
Ġ [
Ġwh at
es p
Ġdig ital
ĠV er
Ġz ur
c oun
ark eting
ĠU n
oo k
om m
i ble
b e
Ġp er
Ġs te
Ġa uf
os s
Ġp r
h o
Ġansw ers
aus e
v iew
Ġs ite
Ġg u
ff ect
oug h
Ġcom m
. .
a ke
ĠW ir
en s
Ġ ed
ĠW h
Ġapprec iate
ien ce
e h
Ġissu es
Ġas k
r u
as t
f ul
l ic
g lich
ou s
st and
ow n
o te
ur r
Ġbet ter
c om
l ud
ĠS t
du ct
t ing
v ing
Ġon e
Ġp re
Ġm Ã¶
vic e
Ġth ese
Ġal l
ich er
y t
Ġcon f
Ġ -
Ġwe it
Ġcon ven
Ġm ay
Ġj ust
Ġintegr ation
ĠS o
an ge
vic es
Ġreg ard
Ġm at
ustom er
r or
ĠI t
Ġa ct
Ġ qu
Ġinc lud
ĠIh re
id ent
Ġp oss
c k
Ġunder stand
on g
Ġd on
a k
ur es
urr ent
Ġre view
Ġ 1
yt ics
Ġer ror
il ity
Ġassist ance
g en
Ã Ł
Ġopt im
Ġus er
v ed
Ġto ols
i le
s ch
Ã¼ ber
Ġus e
n ame
formation en
Ġo ther
un ity
Ġp ers
Ã¶ s
Ġ 2
p r
Ġm ight
Ġh ere
Ġthe m
Ġst rateg
an g
ĠIn formationen
Ġresol ve
i ed
Ġus ers
Ġregard ing
Ġn o
Ġw ork
Ġf re
ier en
u al
Ġle t
Ġsu pport
a S
Ġm it
Ġmat ter
Ġrec ent
m en
Ġd ue
at form
Ġe m
Ġanal ytics
r it
Ġac cess
Ġp e
e it
qu ire
ĠB itte
Ġinvest ment
a aS
Ġ Y
Ġwh en
iz e
Ġc urrent
Ġa r
t ig
ĠI ch
Ġdo es
an c
os ed
â Ģ
n ten
Ġpl atform
Ġpro duct
Ġste ps
Ġb r
Ġmed ical
i ous
Ġl ook
Ġed it
at or
Ġex per
m e
ĠS aaS
s te
Ġs c
Ġgu id
p ro
Ġa v
ag es
ch n
Ġm arketing
ĠA d
op le
Ġo ver
Ġal so
Ġimp ro
Ġsolut ion
ĠSu per
ĠIh nen
Ġinvest ig
f en
ung s
Ġposs ible
ot ing
Ġg o
h ing
Ã¼ tz
ĠUn ter
ĠC ould
Ġthe ir
re at
as s
ĠkÃ¶n nen
Ġun ter
Ġbe i
Ġpro ject
Ġne w
Ġd ur
Ġof f
Ġv on
oo d
Ġth ink
ĠSu pport
Ġr est
is e
is ch
l ag
Ġm ess
et w
Ġd own
on t
icher he
a ys
Ġpe ople
Ġc le
re ad
Ġ ich
Ġsch ed
in t
Ġ Ã¼ber
or d
Ġsu ch
ar y
u le
tel len
> ,
Ġupd ates
i p
iz ation
b l
Ġha pp
Ġcomm unity
r a
ow s
Ġs et
Ġcont act
ro w
Ġm et
Ġser ver
' m
Ġman agement
f Ã¼
Ġre quire
Ġpro cess
Ġg en
w ard
Ġin to
Ġon ly
Ġp ot
m s
as on
Ġre quest
Ġav ail
Ġen h
ĠS er
le ment
tem pt
Ġf ind
eh l
Ġbe c
Ġte am
ic k
st Ã¼tz
Ġstrateg ies
Ġd if
i k
Ġge ehr
Ġa ffect
if y
ĠTh ank
h en
Ġre ason
Ġsched ule
Ġbec ause
Ġb ere
s s
ent ial
w e
l l
Ġw er
Ġsystem s
ig ur
Ġp art
p ect
Ġme hr
Ġto p
Ġw ant
Ġguid ance
Ġs it
re chen
x t
Ġh e
ind ows
Ġdetail ed
b ar
ĠD etail
ĠS icherhe
g g
a h
Ġre ach
b o
ĠT e
a ce
Ġg reat
Ġn etw
es ho
Ġb est
ke it
Ġd ec
Ġac coun
' ve
omm end
Ġm ich
) .
ĠS ch
Ġm ake
T he
ĠL Ã¶s
Ġmo der
Ġcom ment
ĠH ow
ien c
Ġw ur
ier ung
Ġcl osed
Ġweit ere
Ġimpro ve
Ġre m
Ġp o
id er
Ġth en
ĠDetail s
hr en
Ġg ood
Ġf lag
t ed
Ġb itte
u p
Ġre l
Ġwh o
ĠIn tegr
read y
Ġrep ort
Ġw ay
Ġst ill
Ġper form
' re
Ġha ben
Ġrec ommend
Ġre ce
r ess
Ġat tempt
Ġbr and
Ġge ben
an s
Ġavail able
Ġb en
Ġal ready
oun d
un d
Ġsom et
Ġl ink
Ġpro m
a ign
amp aign
Ġus ing
Ġimp lement
c r
Ġwer den
Ġa g
Ġnetw ork
Ġem ail
0 0
Ġb esp
ess er
Ġinter est
ĠU ser
v ent
ce pt
su re
Ġbesp rechen
ou bl
Ã¤ tz
Ġth ing
Ġdas s
ĠAd d
b s
a p
Ġein en
f r
Ġser vices
Ġrest art
gg est
oubl esho
i a
Ġth an
il it
Ġde le
Ġc ampaign
l ine
Ġcle ar
an n
ĠSo ftware
Ġso on
Ġapp ro
Ġaccoun t
Ġex pl
ĠR e
Ġbe ing
Ġb re
al ys
stÃ¼tz ung
ĠSer ver
Ġadd ition
Ġ ro
g es
ot es
T h
u ch
n ect
Ġenh ance
ĠUnter stÃ¼tzung
Ġcl ose
ul ar
l ie
ut z
ach e
f low
f ter
Ġ Q
h al
ct ion
Ġp at
l o
Ġtr oublesho
Ġb ack
ĠAdd ition
pt ion
Ġinclud ing
Ġmoder ator
ĠmÃ¶ glich
Ġver y
ĠSicherhe its
un den
c es
y n
Ġc aus
ut h
Ġe ven
Ġh ard
Ġsu ggest
> .
m in
iz ed
ĠmÃ¶ ch
a ult
Ġconven ient
Ġpot ential
Ġs im
Ġapp lic
Ġ ke
ĠAddition ally
Ġof fer
on d
Ġupd ate
Ġpers ist
Ġo b
op ic
] ,
Ġproblem s
Ġf ir
iz in
ar n
Ġte chn
Ġconven ience
.. .
ec ess
Ġd id
Ġn um
Ġdif fer
ĠA s
as ed
ĠS ystem
Ġ ent
l ed
Ġun ser
ad e
ie len
Ġin st
ĠY ou
Ġwh ere
u ter
ĠSt ack
Ġsomet hing
f for
Ġin form
coun ter
ehl er
ĠZ eit
Ġw ere
Ġadd ress
en ce
ib ility
Ġexper ienc
Ġaddition al
le v
a kt
os p
g ed
Ġmed izin
Ġgreat ly
Ġcon nect
Ġis t
Ġn ecess
ff ic
Ġat t
Ġsolut ions
Ġmess ages
t opic
ent ion
Ġperform ance
Ġ ident
Ġfor ward
Ġtag s
osp ital
Ġfe at
Ġhapp y
u ment
us er
Ġcon c
ĠWh at
ver y
all s
u ally
e in
Ġw or
Ġdur ch
Ġcom ments
Ġs ind
ch ange
Ġen counter
Ġwh y
Ġf ol
Ġre ally
Ġres p
ol og
Ġit s
ĠD ank
Ġen g
Ġus ed
Ġrel ated
Ġb es
Ġh ospital
ĠIn vest
Ġgen er
Ġbre ach
Ġen sure
Ġs ens
Ġcon s
ĠW indows
Ġsu it
Ġme as
ĠK unden
g et
Ġresol ving
ĠLÃ¶s ung
or re
ier t
Ġc ase
ĠĠĠĠ ĠĠĠĠ
Ġproduct s
Ġt ak
Ġo p
tel l
ig h
su ch
Ġd ies
Ġw ell
Ġl og
Ġch ang
/ /
u g
y p
n ah
w end
ter n
e ver
Ġc re
Ġrece iv
Ġmo d
Ġin v
ĠU m
Ġth r
Ġs ame
t t
ĠE x
Ġbere its
Ġ es
a ÃŁ
: //
Ġre lev
Ġnum ber
Ġinvestig ate
oun t
Ġto o
er k
Ã¤ ch
i x
Ġas king
Ã¼ ck
w o
Ġnecess ary
Ġl o
ac c
me ld
e kt
igur ation
Ġimp act
f ore
Ġreach ing
le f
as h
om e
Ġn ow
Ġal low
ual is
Ġe ffor
lef on
Ġg row
Ġtr y
Ġsuit able
et z
is chen
Ġ 3
Ġtop ic
gr if
Ġre ad
Ġsp e
Ġcomp uter
Ġth ank
ĠF ehler
Ġanal ys
ĠkÃ¶n nten
nah men
Ġth ose
Ġfol low
Ġmo st
ive ly
b r
w h
Ġa ud
Ġask ed
Ġsh are
ich t
Ġconc ern
u est
Ġcont ent
Ġver s
at t
aÃŁ nahmen
alys e
Ġc ause
c y
Ġmeas ures
ot her
Ġneed ed
orre ct
le ist
Ã¶n nten
on f
Ġsu b
Ġdoes n
Ġresp on
Ġtak en
ĠF or
ru ct
ro ss
Ġa kt
Ġs a
Ã¶ tig
re e
Ġhel fen
C ustomer
uth or
Ġpers on
Ġweit er
ut ation
ĠTh ere
Ġd ar
ĠC ustomer
o d
N ame
Ġdiffer ent
in u
Ġoptim ization
Ġprom pt
Ġtroublesho oting
Ġe ffect
fÃ¼ g
r uf
Ġaffect ed
Ġch ec
it ive
un kt
Ġde vices
Ġd r
oo king
ĠIntegr ation
w n
ank en
er t
iv ity
a v
Ġprov id
lich e
ic e
Ġcons ider
Ġh igh
z e
n e
Ġthr ough
m ed
Ġpart ic
ument ation
hal ten
u ation
for der
al ity
ier te
is s
Ġman y
ab ly
Ġe very
Ġb it
bar en
ĠI T
Ġgrow th
en n
Ġv ote
Ġv ar
Ġac cept
ind ly
in ce
Ġm ult
Ġsome one
Ġres our
ĠD o
Ġanalys is
Ġw ie
pl ic
Ġha d
) ,
Ġm uch
pt im
e p
Ġrelev ant
Ġc o
Ġfeat ures
ot h
grif f
Ġpre vent
ien st
a king
Ġ âĢ
Ġt ake
Ġben Ã¶tig
Ġsit es
ern e
ve l
Ġbes te
Ġmedizin isch
amp le
Ġrep utation
Ġpost s
Ġdown v
Ġo wn
Ġpersist s
il en
a uf
' d
Ġne xt
Ġreceiv ed
Ġthing s
ĠVer b
per user
Ġhard ware
Ġhelp ful
Ġb ad
Ġa fter
te ct
ot ed
ip le
Ġt wo
Ġt yp
ĠA l
Ġsee ms
ro l
Ġs yn
Ġex ist
Ġ2 0
pr Ã¼
Ġf ac
Ã¶ r
ill ing
ie l
ĠS ehr
Ġ J
Ġexperienc ing
Ġgeehr te
Ġpo int
m p
ĠI s
Ġfir st
ĠZ u
Ġac ross
Ġwur den
ĠE s
ĠI hr
m it
Ġset ting
Ġrestart ing
att form
Ġunser er
D ear
ont akt
ĠTe am
i ally
Ġdo c
Ġv al
ĠB e
ĠK Ã¶nnten
Ġm ade
ab ility
Ġf in
l ess
ĠV or
c c
et en
r y
Ġw r
om p
g le
Ġw rit
ent ly
Ġw Ã¤
Ġle arn
at ibility
Ġneed s
Ġl ong
re ich
el f
th ing
ĠO ur
ion al
Ġv is
Ġt ar
m an
u en
Ġb illing
Ġwith in
rateg ien
c ial
gen cy
Ġfe el
ĠZu griff
m er
ic ally
Ġver ein
Ġs ay
ru pt
Ġm ig
Ġs ign
ig en
Ġh and
Ġst art
ar ch
Ġbe fore
Ġfe w
Ġp age
Ġdele ted
ĠmÃ¶ch te
Ġin s
Ġdec is
Ġmult iple
Ġin d
ĠE r
oo gle
Ġrespon se
ĠB ut
Ġl ist
Ġdiscuss ion
f e
Ġintegr ating
is h
Ġgeehr ter
Ġr ight
Ġer halten
j ekt
to c
ĠD ear
u plic
Ġm ain
. \
ĠE n
Ġspe z
ĠS U
Ġs ow
Ġinterest ed
Ġex ample
S ehr
Ġchang es
u b
he it
p d
Ġs ich
Ġpro toc
ut ion
Ġinc ident
Ġeffor ts
Ġb l
esp ite
Ġopt ions
Ġe l
Ġd el
ĠM arketing
I n
an alyse
Ġde m
Ġpat ient
Ġfre ue
r itte
iz ing
ĠAn d
ilit ies
Ġl ot
Ġdur ing
Ġsow ie
Ġcampaign s
ic ro
Ġo per
al th
pect ed
Ġeng agement
lo ad
Ġan other
Ġbe lie
Ġcomp atibility
Ġf ar
Ġun a
ĠD espite
ff en
end en
Ġinv ol
Ġverein baren
Ġm in
Ġis n
Ġpro f
Ġpl ace
c cess
ĠĠ Ġ
f ol
Ġver b
u el
Ġse arch
Ġupd ating
re p
Ġo cc
l attform
Ã¤ t
A n
Ġb esser
Ġinc on
Ġen ough
Ġbereits tellen
Ġc r
Ġdetail l
Ġuse ful
Ġfor m
ĠO n
Ġprotoc ols
Ġser vice
Ġo der
Ġwur de
or y
Ġf ut
Ġwith out
gr am
Ġsens itive
Ġcaus ed
Ġex act
ĠD ie
Ġa ut
P I
ĠAn ruf
ser vice
ĠE in
Ġfut ure
Ġvar ious
Ġh tt
Ġr un
Ġinc re
pr iate
Ã¶ glich
pro blem
Ġh ear
keit en
ĠK r
S ystem
le it
Ġpartic ular
bs ite
end e
v ious
Ġbe h
ver s
i ven
' ll
ĠS E
b ably
Ġrem o
Ġspez if
Ġa p
f a
Ġatt ention
Ġf ail
so ft
Ġp h
Ã¤ hr
ic es
it ions
Ġresour ces
at her
Ġd uplic
Ġv otes
le gen
ĠSch ritte
Ġm ir
Ġpr act
fÃ¼ hr
Ġl ooking
ver flow
Ġinclud e
Ġg erne
Ġapplic ations
icro soft
Ġc orrect
Ġrequire ments
Ġwh ile
d ated
ĠU r
Ġse ver
anken h
le ct
Ġhe alth
ptim ierung
te t
Ġrecommend ations
Ġo ld
ĠKr ankenh
ord s
ĠKunden service
- -
ĠA PI
Ġde f
Ġac c
Ġver ste
Ġs us
bo ard
Ġsu re
be it
Ġag ain
ire w
Ġsetting s
op e
Ġencounter ed
us Ã¤tz
r on
ĠAn ge
a ve
Ġbelie ve
re d
ĠS h
Ġto ol
Ġ 5
Ã¼ hren
Ġout dated
ear s
i pt
ĠM ark
ĠWh y
Ġdoc umentation
Ġconf iguration
Ġpro bably
W h
ur n
Ġsit uation
en z
le te
e x
legen heit
Ġm on
Ġf r
" .
Ġdis rupt
k s
ig e
Ġident ify
l Ã¤
Ġact ually
Ġcont rol
now led
ĠVer fÃ¼g
Ġw Ã¼r
Ġappro priate
c are
Ġfollow ing
he b
Ġdigital en
ho d
ĠQ uest
qu ir
Ġse in
Ġmet a
r Ã¤ch
n er
et er
Ġre al
uthor ized
ĠAnge legenheit
Ġmet hod
Ġ i
Ġap olog
i ated
ĠUr s
Ġvers ion
sw er
Ġrem ain
Ġsim p
W e
in es
he ben
Ġmig r
Ġtr ied
Ġsch n
e f
Ġs ince
ĠV ielen
Ġaffect ing
Ġcurrent ly
Ġpost ed
Ġf ix
Ġtim es
ith er
Ġ Ã
Ġbe heben
Ġu r
Ġgo ing
Ġh at
ĠD as
ĠPro jekt
Ġhealth care
ĠM et
Ġcr ash
an y
ore d
Ġel se
Ġen d
in ess
il ar
o y
ab ilities
Ġweiter h
anc ial
e m
Ġbet we
ig in
Ġl at
ens ive
Ġp ay
Ġbetwe en
ĠO P
Ġed its
Ġa gency
Ġc ap
Ġuna uthorized
Ġwrit ing
Ġge w
Ġs m
g ing
amp ag
o c
ĠPro du
it or
Ġke ep
ass en
ĠEx change
e int
Ġst and
Ġdetaill ierte
al d
im e
Ġimp ort
ĠHow ever
Ġplatform s
Ġsever al
ĠProblem e
ess ional
Ġlike ly
Ġapolog ize
r ib
ĠG oogle
ĠbenÃ¶tig en
ĠY our
Ġsch Ã¤tz
Ġup v
man agement
w ach
cr y
Ġl im
Ġop in
y m
Ġerror s
Ġmess age
ĠInvest itions
Ġb ount
ĠVerb esser
Ġfin ancial
ĠwÃ¤ re
Ġb us
Ġp ass
Ġsign ific
Ġbere it
Ġ ide
Ġanswer ed
ion en
Ġwr ong
Ġb oth
Ġg r
ĠK indly
oug ht
in s
ĠMark en
Ġf un
Ġv or
Ġchec k
b ase
ĠTh at
i eten
Ġ 4
ĠS p
Ġor igin
Ġ '
ch e
Ġ X
Ġre t
Ġpro tect
Ã¤ n
med iate
ĠKrankenh aus
l i
z Ã¼
Ġaut om
w ay
Ġany thing
g an
Ġen cry
zÃ¼ glich
Ġc ert
Ġwe bsite
ear ch
Ġle ast
Ġ 8
Ġc ol
Ġk ontakt
Ġg ot
Ġstrateg y
Ġwir d
Ġqu ality
Ġar r
Ġsim ilar
ĠM aÃŁnahmen
ĠProblem s
at ive
Ġme an
Ġsh ow
i o
Ġch ange
Ġe ar
il y
ĠM icrosoft
j ust
ic t
Ġne u
Ġuns ere
Ġpr es
Ġweiterh in
Ġsignific ant
Ġz usÃ¤tz
g er
w ays
n ot
Ġrequire d
k ol
Ġw enn
Ġte ilen
M ail
Ġc rit
Ġf act
Ġtry ing
ul ts
ĠTh ese
ĠM y
Ġ1 0
t il
Ġm ark
Ġ et
o b
i or
z us
ow er
Ġst r
ste ad
Ġd one
Ġoptim ize
Ġbus iness
Ġin it
Ġad v
Ġb as
su chen
Ġakt uel
z eit
to kol
Th is
Ġlim it
Ġattempt ed
et her
Ġmed ia
Ġpro gram
if ied
ain ing
Ġc ustomer
rep anc
Ġben ef
Ġex p
ĠDaten analyse
U ser
a u
Ġbe zÃ¼glich
su peruser
Ġl Ã¶s
z uf
Ġp ut
ess ern
ĠN e
A Q
Ġres ults
Ġqu ick
Ġdisc repanc
Ġverb essern
Ġre fer
Ġmedizinisch er
Ġgener al
Ġwork flow
n et
st en
h a
Ġon line
ire ct
ĠS F
Ġinst all
vel op
Ġpract ices
Ġwor king
Ġop en
inu x
Ġduplic ate
Ġresol ution
Ġte lefon
ĠL e
Ġ 6
Ġtechn ical
ĠVerfÃ¼g ung
Ġc ustom
Ġwe b
iv es
Ġencry ption
ĠA kt
Ġpre fer
Ġfre uen
Ġapplic ation
Ġe as
re h
as sw
ĠO r
Q L
it t
c ed
th ers
ĠmÃ¶ch ten
Ġverste hen
Ġhtt ps
n is
w erk
ad ing
ĠzusÃ¤tz liche
ĠAn leit
ĠThe y
Ġa ble
Ġimpact ing
ĠD ies
os ing
Ġattempt s
fa hren
Ġset up
Ġp ol
omm en
v es
Ġcomp reh
question s
ĠlÃ¶s en
Ġf ound
Ġconf lic
Ã¼ ss
ĠF alls
op en
in st
Ġdar auf
Ġclear ing
Ġge e
âĢ Ļ
such t
Ġsu ccess
a le
Ġtar get
Ġexper ience
Ġlearn ing
Ġbount y
g or
Ġopin ion
ĠF AQ
Ġexist ing
, \
a pp
Ġc ache
e e
Ã¤ l
Ġarr ange
Ġw on
we ise
v ir
Ġs tellen
u te
ch ron
Ġe ither
ĠA t
ĠP at
Ġth ough
Ġdo ing
Ġgee ign
it Ã¤t
Ġal ways
Ġaud ience
Ġo thers
Ġappro ach
Ġp ur
Ġcompreh ensive
Ġcom e
Ġro ot
Ġmoderator s
Ġdid n
pd ates
Ġof ten
Ġsp am
Ġfre e
ĠZugriff s
f ic
ĠG es
Ġcert ain
b ack
Ã¼ n
irew all
is k
Ġv iew
ate ly
Ġk ind
zuf Ã¼hren
k nowled
Ġinvestig ation
P ro
Ġad just
Ġde velop
Ġwh ether
ĠV ers
l in
il f
fr ast
ĠC omm
Ġha ving
" ,
Ġoptim izing
1 0
ĠSh ould
I T
r es
Ġcom pl
Ġac knowled
Ġet c
ag en
Ġreport ing
Ġer forder
ĠR Ã¼ck
un t
lic k
ro ffen
Ġg ive
Ġso cial
meld ung
Ġad min
ak es
ĠwÃ¼r de
Ġzur Ã¼ck
ampag nen
ĠD ata
Ġd eter
ur s
Ġbit ten
fic ult
Ġdisrupt ions
an swer
Ġget ting
Ġunter suchen
Ġdies e
Ġtelefon isch
Ġdecis ions
p h
Ġd am
Ġreview ing
Ġdif ficult
Ġmethod s
n ing
ist r
Ġhapp en
Ġm ust
ell o
Ġdef in
m Ã¶glich
Ġdel ays
ĠO ptimierung
Ġmin im
Ġlog s
omp at
Ġr ather
Ġsee m
Ġorigin al
pl oy
f all
as es
Ġb ased
ienst leist
Ġeffect ively
Th ere
Ġgo al
Ġact ion
Ġupd ated
m aÃŁnahmen
Ġch at
igur ations
Ġsec ure
t ra
rit t
isch e
b y
x change
Ġzu m
vir on
tokol le
Ġhear ing
Ġin stead
Ġind ic
lich en
ĠSt rategien
Ġreason s
ĠÃ¼ber prÃ¼
Ġb o
Ġw el
ĠTe lefon
ar beit
Ġ 7
is c
Ġpay ment
Ġim mediate
anc ed
Ġb ro
Ġex am
ĠA pp
ffic ient
ĠMet a
ĠC l
ik en
Ã¤hr leist
ĠPat ient
Ġmet r
I f
p ose
ul es
Ġstand ard
Ġbl og
ĠAkt ualis
l Ã¼ss
Ġdiscrepanc ies
ab l
rÃ¤ch tig
ge fÃ¼hr
ĠS m
Ġunderstand ing
Ġencounter ing
st um
Ġ- -
ze u
fol g
eint rÃ¤chtig
o ve
Ġide a
p unkt
Ġsecur ing
ĠN ot
Ġfac ing
ec ific
Ġv ielen
Ġen viron
ĠÃ ľ
Ġth ought
s p
Ġbet roffen
ver t
Ġfun ction
ach t
ienstleist ungen
â Ķ
Ġqu e
ĠO S
Ġcomp lete
fr age
Ġmetr ics
inst all
ul ner
Ġy et
k te
ou d
ir m
Ġme m
Ġsc al
ight s
Ġcaus ing
b ers
Ġaccept ed
ĠB ed
Ġsee king
Ġsimp ly
es ond
Ġor gan
com e
lÃ¼ss el
2 0
Ġf il
ut or
Ġte xt
ĠUrs ache
ht t
Ġprof essional
Ġag ree
Ġl ess
Ġme et
o ch
z ess
Ġco de
Ġk ann
ib ly
ĠZeit punkt
onf iguration
Ġaktuel len
Ġocc ur
Ġdes cr
ĠF ault
ĠSuper User
Ġt er
Ġbe eintrÃ¤chtig
Ġpo in
forder ungen
g u
Ġs low
if iz
itt le
utz er
Ġconnect ivity
Ġspezif ischen
Ġh is
Ġm aking
ĠC h
Ġcont in
eh men
Ġkontakt ieren
Ġv ia
Ġinst ruct
Ġcomp any
Ġprovid ed
ĠN etz
lie ÃŁ
gor ith
ĠA b
Ġover load
end s
li est
Ġl ittle
Ġcl ar
Ġear liest
problem e
Ġse hr
ĠSm art
er weise
en se
f ault
n te
Ġintegr ity
Ġinvestig ating
ĠschÃ¤tz en
d ay
Ġb ald
Ġconflic ts
Ġexpl ain
Ġinstruct ions
Ġremain s
ch es
ent ially
ĠP lattform
Ġprompt ly
Ġb u
ĠW ould
Ġcont inu
tell t
Ã¤hrleist en
d own
Ġm er
Ġm ention
ig keiten
unt u
iss en
Ġur g
Ġt ell
Ġse en
Ġgew Ã¤hrleisten
m ine
Ġconf ident
Ġl ast
ĠÃľ ber
I t
ĠmÃ¶glich e
Ġsh ort
i ance
r en
Ġc our
Ġsub ject
S o
w ar
H ow
Ġcontin ue
Ġre bo
Ġl ow
Ġdam it
Ġsa id
Ġincon ven
Ġres ult
ar ge
Ġapprec iated
Ġt ail
ĠA fter
ĠVerbesser ung
Ġum f
i qu
Ġcontrol s
t ime
ag ing
Ġne ver
sch lieÃŁ
Ġcre ate
i ag
is ed
Ġinconven ience
Ġd irect
T o
ompat ib
Ġschn ell
ĠS O
ik i
Ġfir m
Ġtyp e
Ġdeter mine
Ġste p
Ġdurch gefÃ¼hr
Ġins ights
Ġ20 1
Ġver sucht
Ġl a
Ġimplement ing
Ġexpl ore
Ġnot wend
Ġer fahren
Ġad vice
meld ungen
Ġakt ualis
ĠAn frage
ĠRÃ¼ck meldung
Ġh o
Ġn Ã¤ch
Ġst at
Ġcon duct
Ġr ules
Ġj ed
ĠWh en
ruct ure
Ġperson al
Ġv ulner
ĠProjekt management
w it
Ġm akes
Ġinter ess
th e
zus tellen
Ġpol ic
Ġconfident ial
Ġdes ign
Ġein schlieÃŁ
Wh at
Ġintegr ations
Ġf ile
it ies
ĠeinschlieÃŁ lich
Ġbr ing
ĠIhr er
Ġt est
sch ied
ir us
Ġcle an
Ġcont rib
ĠLÃ¶s ungen
Ġbeste hen
Ġtroublesho ot
Ġprovid ing
Ġmedizinisch e
Ġin quir
ĠC an
ĠnÃ¤ch sten
Ġform at
z u
ĠComm unity
k en
ch ie
Ġf ul
ir t
en ces
ĠIntegr ations
heb ung
Ġpl an
Ġcrash es
Ġprocess ing
im es
Ġke y
Ġh ome
Ġe ach
Ġar ound
ce ed
ĠFehler meldungen
on s
t ent
Ġas s
pro tokolle
c l
Ġd ay
pp ing
Ġh our
end aten
Ġbeste ht
m ost
Ġs our
Ġsu pp
Ġcour se
Ġerforder lich
Ġser ious
Ġinvol ved
ing le
ĠG er
Ġstart ed
ĠNetz werk
Ġlo ad
ĠN o
p ut
Ġan ge
Ġunter stÃ¼tz
Ġde al
Ġh ilf
ĠO verflow
Ġhilf reich
t r
Ġany one
unkt ionen
Ġacc ur
Ġl ie
Ġa chie
ĠA us
Ġdele te
ĠDaten s
Ġv oting
f ehl
âĢ Ŀ
Ġcap abilities
Ġtail ored
on ym
Ġqu ite
Ġd ays
Ġb row
Ġe vent
ic ed
Ġjed och
g eting
Ġf est
Ġn or
Ġincre ase
i ption
re ch
is ter
Ġver urs
ĠP ost
Ġab ove
Ġincon sist
Ġsu peruser
Ġde vice
Ġcl ient
ĠLe ist
Ġque ue
n I
ĠPatient endaten
am men
Ġposs ibly
ĠTo ols
Â ł
Ġph one
Ġimport ant
s h
Ġget s
P lattform
for t
m ing
Ġsyn chron
ach en
Ġcl ick
Ġfe ed
Ġn ame
Ġs ingle
Ġmod el
e k
le tz
ĠL inux
ĠmÃ¶glich erweise
g re
Ġnot hing
ser ver
T e
Ġl assen
ĠQuest ions
âĶ Ģ
f o
ĠâĢ ľ
ha ps
c en
Ġu til
p ar
ific ation
Ġconfidential ity
Ġlink s
Ġpoin ts
o be
ĠkÃ¶n nte
Ġdecis ion
Ġy ear
ĠzurÃ¼ck zufÃ¼hren
Ġc ases
ch lÃ¼ssel
Ġpro per
pl es
Ġg l
ges tellt
erk zeu
kt op
Ġval id
b untu
all en
Ġcrit ical
Ġre ject
Ã¼r z
Ġob vious
Ġdownv ote
Ġtag ged
Ġtar geting
A s
re am
Ġreg ular
Ġvers ions
t iv
our cen
Ġpost ing
Ġimplement ed
O S
Ġgu ide
ĠSicherhe it
c al
l ight
s ers
us ammen
Ġres earch
ĠR ec
Ġapp ears
Ġ /
Ġautom at
Ġc are
Ġconcern s
Ġcompl iance
. )
ig ure
b esond
ic ing
besond ere
2 1
Ġa uthor
S QL
Ġp assw
ĠZ iel
d y
et r
tt y
an z
Ġin quire
te ction
Ġquick ly
Ġmigr ated
ĠS ome
ach es
Ġim age
l er
Ġm a
Ġres et
Ġt as
st rategien
ĠSer vice
Ġparticular ly
Ġme ld
Ġfind en
Ġenviron ment
âĶĢ âĶĢ
Ġa us
Ġme ans
lo ck
a ir
Ġre open
Ġn on
Ġexperienc ed
oc us
I s
Ġ 0
ou ter
Ġinform ed
Ġex pect
Ġnot iced
Ġrun ning
Ġmon th
Ġk indly
ĠK on
Ġresol ved
ic ation
de m
Ġout ages
Ġmedizin ischen
ecific ally
ĠGer Ã¤
Ġp ort
Ġserver s
ĠGes und
Ġbro ad
Ġf irewall
ĠK ampagnen
Ġfre qu
anc ing
Ġadmin istr
d it
is ing
Ġchec king
Ġact ual
Ġinclud ed
Ġar en
Ġm al
ĠN um
ompatib ilit
Ġal gorith
Ġremo ved
Ġy ears
Ġdata base
bo dy
Ġbreach es
Ġl ine
Ġst ate
Ġlat est
Ġedit ed
Ġinit ial
Ġ ess
el ines
Ġpre tty
Ġallow ed
Ġw issen
Ġg iven
C ould
ĠAnleit ungen
Ġle ave
Ġein er
Ġver al
ify ing
nis se
Ġrecent ly
R e
Ġtr a
ĠL et
Ġoper ations
f l
P A
he its
Ġacknowled ge
Ġde p
Ġun ex
ĠE mp
Ġedit ing
ess ourcen
Ġal ong
ĠT r
Ġtr ans
ook s
prÃ¼ f
Ġa uch
ĠB en
ol ved
Ġch allen
ĠW erkzeu
Ġver fÃ¼g
ib e
ĠSicherheits maÃŁnahmen
Ġlink ed
su pport
ten d
ĠQuest ion
Ġw iki
ust art
Ġwork s
ĠVers chlÃ¼ssel
Ġl arge
Ġhour s
Ġunex pected
Ġf alls
frast ructure
ĠAktualis ierung
Ġorgan ization
ĠĠĠĠĠĠĠĠ ĠĠĠĠĠĠĠĠ
Ġoccur red
Ġt re
wh ere
Ġem p
ah l
olog y
ĠA r
Ġad vert
Ġon ce
el p
ĠC ont
Ġflag ged
Ġf it
ĠVerb ind
iag n
Ġad s
Ġf ocus
ĠDaten ver
Ġwor th
l ast
Ġpot entially
ĠD ienstleistungen
Ġch ar
Ġp ower
Ġgen a
Ġob ser
Ġsa fe
Ġdifficult ies
Ġimplement ation
wach stum
Ġpur pose
r agen
Ġin frastructure
Ġw ord
il d
ĠGesund heits
or s
Ġfeat ure
r icht
h Ã¶
ec ially
n ehmen
v al
Ġre f
reich en
Ġc op
Ġcontact ing
Ġpres ence
ĠR essourcen
Ġmay be
Ġreview ed
S E
Ġpre vious
Ġsc ope
Ġdr ive
Ġh in
ĠAn forderungen
ial s
Ġcontinu es
tiv irus
Ġb ieten
uf f
Ġeffect ive
Ġtra ffic
ier ungen
ing s
c le
Ġb is
Ġus age
Ġknow led
ou p
ro tz
ar ten
Ġveral te
ĠEmp fehl
Ġs end
Ġs ense
uf en
Ġre install
Ġe ff
ĠC lick
ĠOn line
ĠSp ecifically
i ver
Ġs ort
Ġh ope
Ġn ach
Ġsuccess ful
Ġpro ceed
Ã¤ h
oo st
Ġconf igurations
E s
Ġp ast
Ġf l
Ġv oted
Ġknowled ge
Ġsec ond
f Ã¤l
rateg ie
ĠA re
Ġanal y
pro zess
chn ungs
Ġeffor t
? "
gr und
Ġen c
F ault
Ġp ar
schied en
te xt
res olved
it ale
ĠD e
Ġclear ly
uth ent
Ġsus pect
Ġn icht
Ġl ang
ific ations
Ġer le
Ġspecific ally
Ġact ions
Ġw indows
ĠT er
are d
v is
Ġun resolved
Ġzu k
o id
ĠIn ter
Ġs icher
ur ing
ot ion
ab or
ĠunterstÃ¼tz en
Ġsynchron ization
. "
Ġ &
th ough
Ġsub mit
htt ps
Ġfil es
Ġimprove ment
ĠI hren
ad min
Ġag o
Ġro b
* *
Ġconnect ion
ste p
tell ungen
Ġb oost
Ġrec ords
Ġsc re
Ġflag s
ĠAl so
ĠEmpfehl ungen
or ry
ĠI m
Ġpro p
Ġcl osing
Ġpolic y
Ġanswer ing
Ġshould n
m a
r act
Ġ @
Ġver schieden
Ġverurs acht
st er
Ġpr iv
tra ul
Ġexam ples
Ġb in
Ġdig itale
Ġt it
er en
u ld
ier ungs
Ġapp ly
Ġadd ed
Ġcomm on
Ġcomm un
ĠUnter such
Ġqu er
Ġover all
Ġbetroffen en
ĠP l
Ġsee ing
Ġfeed back
Ġproduct ivity
ier ten
pl ay
Ġfest gestellt
er ing
el n
ĠG r
Ġagain st
Ġsuggest ed
Ġsu bs
5 0
Ġcan not
Ġver wend
Ġer reichen
Ġinc orrect
Ġmon itor
Ġsol ve
Ġst ud
Ġout age
Ġreport s
or g
ĠWh ile
Ġconf irm
le ction
Ġwel che
R M
Ġon es
ward s
Ġdas h
Ġinform ieren
S er
Ġ x
at ively
esp ecially
k umentation
ar ily
il fe
n ess
we is
Ġha be
Ġd a
Ã¤ tig
Ġmeld en
ac ing
Ġt al
at ch
Ġopt ion
ator s
ĠM Ã¶glich
icher ung
wh at
Ġbis her
Ġa im
ir d
Ġab ility
Ġval ue
Ġwr ite
ĠÃ¼berprÃ¼ fen
d id
t ain
Ġpr ior
Ġtyp es
Ġenc our
M M
l ing
Ġauf grund
Ġsc r
Ġprov ider
Ġval u
ĠA ll
ĠSystem e
ĠMarken wachstum
Ġas su
Ġcon st
Ġits elf
ĠCl oud
Ġaud it
Ġchallen ges
c ing
f ace
l ike
Ġbas ic
ent ur
Ġpr Ã¼
ĠAd obe
Ġb ug
el le
U p
ich tig
ĠP re
g in
Ġavail ability
Ġent ire
Ġspezif ische
Ġprocess es
Ġident ifiz
Ġvulner abilities
Ġan z
ĠAn wend
e te
ge b
ĠAs sist
traul ich
Ġm iss
Ġcont ain
Ġinquir y
Ġa way
Ġm is
Ġdevelop ment
Ġimprove ments
Ġhand le
o int
ĠK ontakt
ĠD isk
Ġst or
ĠN utz
> <
Ġc y
Ġapp ear
tell ung
Ġcomplete ly
Ġd ate
num mer
z Ã¶
ĠInvest ment
-- --
Ġconsider ed
al t
Ġinter mit
ĠN ow
Ġwe ek
ac ke
ĠM ac
Ġde tect
Ġpl ans
Ġhow ever
Ġdash board
Ġle vel
Ġsm all
ĠbeeintrÃ¤chtig t
Ġbeh av
ĠprÃ¼ fen
ĠServer Fault
Ġinteress iert
Ġemp f
Ġpr icing
ĠR at
ĠSch utz
Ġh ost
ĠAn y
Ġ :
tegr ation
ĠH ere
Ġconcern ing
answer ed
t on
l ong
Ġgener ally
wh ich
ĠNe ustart
Ġf ine
Ġex cept
Ġor der
Ġcan did
Ġav oid
w ier
ĠS it
Ġex pected
ĠZ usammen
Ġeine m
Ġlong er
Ġst uff
ĠWe b
Ġguid elines
Ġconnect ions
ĠProdu kte
h ind
Ġachie ve
zÃ¶ ger
Ġab er
o ver
fort un
Ġth ree
ĠAt tempt
Ġk Ã¼rz
Ġle ft
eh m
Ġscr ipt
acke xchange
Ġch o
ĠSicherheits protokolle
gu ard
k ten
ĠP C
Ġsens ib
Ġrecommend ation
Ġeng ine
I PA
u pp
Ġle ading
com es
Ġins besondere
Ġsafe guard
Ġsomet imes
ĠKunden support
h ow
Ġm ind
Ġbenef it
ĠAssist ance
Ġintegr ate
Ġlie fer
IPA A
ĠI mp
bar keit
Ġoper ating
i od
l abor
Ġs ays
ĠB ere
ĠH ello
ĠEn ts
Ġg est
Ġreg ul
Ġrece ive
Ġp op
ib t
Ġupv otes
Ġ especially
Ġs k
ĠU pdates
ĠH IPAA
Ġexpl an
ĠDies e
Ġd iagn
ĠU buntu
en g
Ġbe come
Ġsh o
Ġsuggest ions
Ġdies er
Ġsubs cr
Ġal most
Ġapp l
d r
o der
Ġt urn
Ġobser ved
w ise
Ġ ign
Ġse lect
I ch
Ġs ide
ys admin
ĠProdu kt
Ġgoal s
Ġinvest ments
such e
ĠDo kumentation
ĠâĢ ĵ
Ġprof ile
Ġh ist
Ġer k
Ġpe ak
ĠEn g
p ass
Ġent sch
Ġb ig
h ot
ic ial
Ġnor m
d aten
i vers
ĠH ilfe
Ġserious ly
wier igkeiten
l es
Ġ #
Ġw a
ent er
so c
ĠdurchgefÃ¼hr t
ĠBen utzer
b ased
sw ers
Ġle g
Ġob ject
Ġto day
id ungen
Ġfac ilit
ag ed
ĠPro m
Ġtechn iqu
Ġdownv otes
Ġyour s
Ġact ive
sch lÃ¤
Ġenh ancing
Ġcop y
Ġe ing
Ġen able
Ġper iod
Ġexper t
U pdates
Ġwould n
der ungen
ĠK ompatibilit
Ġliefer n
Ġ ...
an te
ĠKrankenhaus es
h l
Ġer hÃ¶
Ġempf eh
ĠSit uation
Ġcomp rom
Ġreport ed
m et
Ġsc ore
lin ed
ĠClick Up
fÃ¤l le
Ġv ide
un ter
Ġpartic ip
Ġurg ently
re ten
Ġb lock
Ġ +
Ġup gr
U n
ĠAn alyse
pd ate
j or
s am
t ag
ac king
Ġcomm and
urrent ly
etz en
Ġvis ibility
Ġstandard s
Ġtit le
Ġtechniqu es
O ur
ĠM ar
ĠF in
ĠQ u
Ġremo ve
al ytics
te il
iv id
ĠAttempt s
ffic ienc
Ġdr ing
] .
m ber
Ġb ed
Ġun er
Ġcon text
Ġal tern
ach ine
Ġprom ote
Ġchang ed
Ġret urn
Ġst ream
Ġbe long
ĠA uf
Ġrebo oting
b t
Ġd ro
am es
um p
Ġpo or
Ġimport ance
r ing
ru cial
schlÃ¤ ge
Ġc ount
ĠImp lement
m ore
ys elf
Ġdes ktop
ĠGerÃ¤ te
Ġpro ced
Ġsignificant ly
ĠM e
Ġle ad
00 0
Ġlog in
Ġcol labor
Ġass ess
Ġaccur ate
Ġbrow ser
ĠT rotz
end er
Ġsh own
ord ing
Ġresour ce
Ġimpro ved
f ect
Ġlook s
Ġsyn onym
Ġma jor
prÃ¼f ung
at ure
Ġc aches
Ġpro tection
ĠKon to
Ġto wards
Ġin t
Ġhigh ly
get her
ĠTer min
Ġidentifiz ieren
m m
Ġmention ed
Ġcre ated
A P
Ġer folg
Ġrob ust
Ġto t
us e
Ġinv o
ĠDisk uss
H ello
w ick
Ġfor um
ich ten
Ã¤ ts
Ġrestart ed
Ġw ann
as ter
Ġre quir
ce l
Ġas soc
ĠW enn
kt ur
Ġadv anced
Ġstud ies
Ġsus p
Ġlat er
Ġworkflow s
Ġwon der
fortun ately
o de
or king
Ġtop ics
ĠInter ess
es ch
Ġm yself
as st
Ġn ote
ĠG e
ard ware
oun ts
Y ou
m iss
Ġf av
Ġsimp le
Ġaccoun ts
Ġne uest
Ġin e
System en
Ġful l
or ing
Ġre du
Ġbest en
Ġc ost
end ing
s ystem
Ġreceiv ing
Ġautomat ically
ay be
iv ed
Ġgu ess
Ġident ified
Ġbest Ã¤tig
n ommen
it es
ĠC RM
Ġspec ify
Ġus ually
Ġst arten
Ġcheck ed
ĠNutz ung
Ġret ag
Ġs ect
ĠS c
Ġunter nommen
ĠWerkzeu ge
Ġneuest en
Ġre pl
ie ld
esp rÃ¤ch
Ġper haps
ĠFehler be
Ġk on
Ġevery one
Ġwrit ten
So ftware
in c
Ġd ist
ĠD er
ĠO ne
Ġact ivity
Ã¼n ft
i ps
el ine
Ġv ol
Ġem ploy
Ġf o
Ġfacilit ate
Ġl ack
Ġer heb
o verflow
Ġa ware
ur ch
ĠB er
ied er
Ġan n
ab e
oss ible
ĠR ed
Ġwant ed
Ġinvol ving
Ġbenef its
ĠVerschlÃ¼ssel ung
pt op
Ġhtt p
in ter
ro ll
Ġ1 9
Th ank
1 2
Ġ 9
S ee
Ġw ays
Ġver hind
ru ption
Ġrespon s
Ġexact ly
ĠUntersuch ung
S O
o sure
Ġc ra
ro id
c ies
ition en
Ġdes p
c er
letz ung
Ġess ential
ĠInteress e
b ook
Ġf air
ĠF Ã¼r
ĠAd s
Ġpass enden
Ġs ysadmin
ur ity
Ġg ather
Ġr a
Ġfail ures
Ġmigr ation
g o
Ġth read
ĠIn it
ĠZ ahl
Ġnotwend ig
Ġe ver
utor ials
Ġzuk Ã¼nft
ĠG esprÃ¤ch
zÃ¶ger ungen
it ed
ed ia
ĠS icherung
Ã¶r en
Ġdetect ed
ĠProm otion
D ie
Ġth or
Ġp os
ĠS ince
Ġun less
Ġwas n
Ġinter net
ĠIntegr itÃ¤t
f un
re ibe
ĠS te
Ġdesp ite
ec urity
Ġver m
Ġschn elle
Ġscal ability
fficienc y
1 3
E xchange
Ġc rucial
Ġintermit tent
Ġexplan ation
Ġthor ough
as ing
Ġbe low
ire d
ont rol
Ġtechn ology
traulich keit
es h
st o
ĠF all
Ġstat us
Ġverhind ern
ĠD es
Ġam ount
Ġalgorith m
6 5
Ġdownv oted
Ġ20 21
Ġind ivid
th is
ien ste
Ġeff ekt
m Ã¼
ĠG erne
Ġmehr ere
ĠF unktionen
Ġfunction ality
Ġmem bers
Te am
Ġer mÃ¶glich
Ġsho pping
m Ã¤
t ion
ĠT ag
Ġcom es
Ġdis play
Ġbut ton
esho ld
Ġfail ure
Ġupv ote
ho den
Ġdiffer ence
o oth
Ġe qu
ig keit
Ġreject ed
Ġgen au
Ġinconsist en
ru ktur
Ġro om
Ġincre ased
Ġeas y
Ġwho le
Ġmark et
Ġreinstall ing
he et
act ion
irt ual
Ġin put
Ġe fficiency
ut es
Ã¤ ten
iel le
ĠAnleit ung
Ġho ld
Ġs l
le ased
ĠU S
ĠVer traulichkeit
L A
Ġimpact ed
Ġ est
al es
Ġsch reibe
Ġsay ing
mÃ¤ ÃŁ
an ke
ig er
Ġst ack
ĠL ooking
Ġper fect
C an
Ġth ird
gr upp
Ġse par
mp or
o f
. <
n ich
ĠSch wierigkeiten
ĠBe hebung
Ġc ame
Ġn ice
Ġsched ul
ffic e
Ġgeeign ete
f Ã¼r
on ical
Ġhapp ens
ĠAl tern
Ġrequir es
ĠP r
Ġver ifying
Ġhappen ed
M y
Ġw ar
Ġspec ial
Ġhigh light
Ã¼ ÃŁ
Ġme eting
ĠF ire
itte ilen
Ġconf us
Ġpot enz
Ġfr ont
in king
ten s
ac le
ĠB etr
ĠSt Ã¶r
Ġro ll
Ġaktualis iert
p art
w ork
Ġm itteilen
ie le
fen ster
F acing
Ġoptim ieren
ra ph
Ġlo cal
Ġur gency
S t
id en
Ġde ploy
Ã¼tz en
ĠInvest itionen
Ġme ant
ud em
Ġpl ay
ĠZ udem
Ġimmediate ly
Ġsensib ler
re l
le g
iv ing
Ġimpro ving
is m
Ġn utz
om ent
Ġread ing
ĠschÃ¤tz e
Ġin de
Ġj ob
ĠZiel grupp
Ġt aking
Ġb ot
Ġsch Ã¼tzen
Ġrefer ence
Ġbehav ior
W ir
Ġmo ve
og n
v or
re g
le x
ag er
gr ess
ck er
Ġdown time
server fault
A T
Ġp ack
Ġse am
Ġrest r
Ġdar an
ym pt
tend ed
Ġto gether
ch ritt
anc es
ption en
Ġbo x
To ols
ĠwÃ¼r den
Ġstr ong
p or
s ere
irew alls
Ġha ven
Ġincident s
Ġseam less
a ff
Ġh im
uld igen
Ġr ange
ffor ts
ub lic
n o
o ptimierung
ir st
und end
ĠZeit fenster
Ġmig rate
Ã¤n d
eng th
Ġr isk
Ġdescr iption
Ġhist ory
un ch
ĠAn alytics
Ġadjust ments
Ġdirect ly
Y our
Ġd ra
ard s
Ã¤l t
b in
f ehler
p re
Ġpriv ile
ruf en
itor s
Ġbe gin
ut ing
Ã¤ s
ĠVer zÃ¶gerungen
ÃŁ er
Ġenhance ments
ĠInit ial
f essional
le ted
ĠS QL
ĠE fforts
pr ess
Ã¶r der
x x
Ġa ward
Ġh Ã¶ren
ar tet
ĠâĢ Ķ
Ġproced ures
w indows
Ġe lect
ĠJ ust
Ġsus pected
ĠÃľber prÃ¼fung
Ġsour ces
Ġstor age
ers on
Ġmat er
Ġveralte te
Ġlang u
a ving
Ġinclud es
ĠTe chn
Ġbre ak
Ġvide o
Ġs orry
Ġw ords
Ġte mpor
Ġinter face
Ġmain tain
Ġyours elf
Ġr outer
ac y
], \
Ġco ver
undend ienst
Ġdis ag
Ã¼r f
Ġsm ooth
uthent ication
Ġun su
Ġun til
wit ch
p en
Ġcre ation
b ind
f alls
s el
is hing
am ing
Ġne g
Ġaccess ing
Ġmoder ation
ĠFin anz
t ic
Ġan b
Ġp rec
Ġre d
Ġsour ce
om et
im in
Ġdis k
ĠF e
Ġ1 00
ĠDo es
I D
ce ived
Ġevery thing
Ġ ir
Ġsol l
Ġdec line
Ġinterest ing
Ġge meld
ĠAs k
Ġmod s
ĠS k
ĠF urther
Ġaud its
Ġpres ent
Ġs ent
ĠS S
Ġsc ans
Ġconcern ed
Ġvar i
ĠVor fall
ĠVerbesser ungen
Ġh ind
ccess ful
ĠPlattform en
T T
or ad
Ġm isc
ĠP ra
Ġtr ack
Ġenh anced
k ontrol
ĠE ven
ĠÃ¼berprÃ¼ ft
Ġempfeh len
u ck
at is
Ġsp orad
r if
Ħ n
or por
on es
it ing
st ackexchange
ud e
ĠStack Exchange
Ġverste he
h ang
ĠK onf
Ġcomm it
ens hot
Pro jekt
ĠEnts che
z ug
Ġan rufen
Ġindic ate
Ġurg ent
Ġpassw ord
an agement
Ġbe w
ĠThe ma
Ġcaus es
ĠEr folg
ĠUrs achen
Ġa uthentication
Ġsh ows
kt iken
ĠN ach
Ġpat ches
T el
et s
ĠC on
Ġresp ond
weis ungen
Ġm ist
ust r
ĠC om
ĠRe chnungs
Ġla ptop
el s
Ġare a
Ġlimit ations
Ġbu ild
Ġmal fun
w w
ĠmÃ¶glich en
ĠOr acle
frast ruktur
ĠF ragen
Ġadd ing
Ġpre d
ruct ive
ĠLeist ung
sel ves
l ik
ly ing
Ġhelp s
me mber
Ġt ab
Ġattempt ing
Ġatt ract
Ġlimit ed
gre SQL
Ġsicher zustellen
Ġvalu able
ac ity
ĠN ame
Ġlo ck
ĠPost greSQL
ag entur
ĠP er
ĠD ar
Ġinconsisten cies
s uring
ite ly
Ġclient s
Ġtre ffen
am m
Ġgo es
Ġocc as
Ġminim ize
Ġtas k
im p
Ġder zeit
ĠSt rategie
hal t
ĠbenÃ¶tig e
fol io
Ġunsu ccessful
Ġumf ass
h ungen
Ġp ublic
ĠK undendienst
ck nowled
ĠOn ce
Ġmark ed
Ġaktualis ieren
Ġm achine
Ġh al
ab en
Ġdesign ed
ĠPra ktiken
Ġbe im
Ġg ain
ĠE dit
rom e
Ġaccept able
1 1
k ungen
o in
w ir
an alys
ĠS AP
ĠA cknowled
Ġcertain ly
i ere
m erk
ĠAnd roid
Ġassoc iated
rel ated
d o
Ġt end
Ġfav or
b ald
l og
ar ing
Ġcomputer s
Ġbad ge
ol ute
d ienst
e ff
h men
st ack
ig ate
ĠP assw
ĠC omp
Ġsch eint
Ġcollabor ation
Ġsect ion
Ġnutz en
ĠF ehl
lag en
Ġfind ing
Ġadvert ise
n st
B ooks
Ġd ou
Ġpost er
Ġmean ing
ĠQu ick
ĠApp le
Ġanb ieten
l us
m aking
ĠO b
Ġhin aus
oup le
ĠAn alys
sch e
Ġpass ende
s heet
Ġflag ging
Ġrece ipt
ĠImplement ierung
l t
Ġin su
re i
ge h
Ġm oment
Ġquer ies
Ġdro p
u er
Ġan tivirus
ĠAPI s
Ġcap acity
Ġcandid ates
Ġgest artet
go ing
ĠZahl ungs
Ħn derungen
Q uest
i ar
ation al
ĠSuper user
Ġpassw ords
Ġm ac
ful ly
Ġsuggest ion
war te
Ġs w
ĠD ienste
Ġacc ording
Ġbring ing
R P
Ġc ouple
Ġe fficient
Ġtr aining
ĠUn ser
Ġ2 00
Ġcan onical
ĠM oder
com p
ĠQuick Books
at z
System e
ĠverfÃ¼g bar
cle ar
ĠZusammen hang
en ess
ĠDar Ã¼ber
_ _
h elp
ĠW ith
ĠF irewall
Ġrec ogn
etz t
Ġmonitor ing
ĠBere ich
ympt om
Projekt management
F or
ec k
ĠAn s
Ġhe ad
Ġappl ied
T C
Ġa u
Ġany way
Ġsens ible
Ġidentify ing
s tellen
ĠM aybe
Ġer nst
ĠUn sere
Ġact ively
Ġtas ks
Ġdring end
Ġw ish
ĠA c
Ġnot ice
Ġle ver
ĠDo cker
Ġcorrect ly
Ġgena uen
el ess
Ġ1 5
Ġcrit er
ĠTelefon at
Ġproper ly
D o
M arketing
ou ch
al s
and om
ĠBed Ã¼rf
K Ã¶nnten
s c
Ġh ar
Ġother wise
ĠRe g
Ġunser en
P lease
w ith
as ts
se qu
ĠSch ritt
Ġscal able
Ġeas ily
ĠLeist ungs
ĠUS B
t es
ier ter
ĠUnter nehmen
Ġdr ivers
Ġter ms
h one
ent s
Ġn ature
ud io
ĠAnwend ungen
k on
in er
ĠY es
Ġanaly z
See king
ic it
ct ions
Ġne hmen
icherhe its
Ġpop ular
Ġnorm al
Ġ .
Ġt utorials
Ġe arn
Ġvis itors
Ġw ieder
Ġdis ruption
per form
ĠO pen
abe i
] [
Ġc ate
Ġun be
Ġst op
ĠE RP
Ġsp rechen
Ġwer de
Ġutil ize
ĠzukÃ¼nft ige
B M
Ġtr ends
iv itÃ¤t
Ġnetw orking
ash board
Ġdisag ree
om ain
pp ed
Ġrequest ing
tern et
Ġoff icial
Ġinconsist ent
Ġpred ict
an e
ĠH ardware
âĶĢâĶĢ âĶĢâĶĢ
Ġsubscr iption
S p
Ġf ace
Ġl ic
ec ause
Ġar beit
f ug
p oint
Ġpro gress
os en
1 4
ou se
ĠS ee
Ġst aff
ĠE ine
Wh y
Ġlangu age
y le
Ġs ur
Ġb er
al ier
Ġre fr
Ġl if
gr ound
Ġver me
Ã¤s enz
ĠN ote
Ġregard s
Ġthem selves
Ġview s
ĠW ord
ĠIhre m
Ġencour age
Ġregul ations
im ate
ate ver
Ġgeeign et
ĠRat schlÃ¤ge
so ftware
Ġexist s
ĠGr Ã¼ÃŁ
Ġw arn
Ġfix ed
ĠVerbind ung
ĠStÃ¶r ungen
Ġverme iden
w or
Ġt able
up d
P S
p ost
ĠR est
Ġbeh ind
ĠMy SQL
Ġmer ged
Ġentsch uldigen
Ġrestr ict
l a
Ġ ers
Ġcon vers
yn chron
Ġthr eshold
ĠKompatibilit Ã¤ts
Ġadvertise ments
le ister
ĠI BM
st Ã¤nd
Ġsu per
Ġpr im
Ġaltern ative
w alt
Ġon going
ĠU ms
Ġslow down
Ser ver
Ġf igure
ĠK onfiguration
rate ful
Ġmin utes
im m
Ġen suring
Ġfre und
wo hl
Ġchar act
E x
ber net
ĠEr geb
Ġprogram ming
ĠZugriffs kontrol
Ġsepar ate
e ut
k onfiguration
Ġg rateful
lich keiten
Ġbeh Ã¤lt
Ġsupp ly
2 00
l ook
Ġoff ers
grif fen
Ġprefer red
ĠbeeintrÃ¤chtig en
ĠAb re
or r
el mÃ¤ÃŁ
Ġein es
ĠbenÃ¶tig t
Ġs ize
ĠI P
Ġcon su
Ġab s
etz ung
Ġgena ue
? )
In tegration
Ġduplic ates
Ġeas ier
ĠData base
Ġmonth s
Ġfrequ ent
ĠFehlerbe hebung
u bernet
ann ed
Ġaddress ing
wit ter
ubernet es
A M
d d
ĠC ache
Ġsubject ive
ĠUn ann
ĠUnann ehm
w er
is p
ĠA p
ĠVer suche
Ġdoc ument
Ġshort ly
Ġcriter ia
Ġp leased
Ġ3 65
ĠÃ Ħnderungen
E n
e ms
Ġg ibt
Ġcon sist
ĠU sers
ĠZ o
wick l
ĠS ecurity
Ġus es
Ġdisc ounts
sch utz
rit ten
ins tellungen
b ot
Ġs ymptom
be its
Ġrest ore
dienst leister
) :
ic ated
Ġre vis
ĠU pdate
Ġle tz
fer enz
ics earch
Ġperson ally
ĠRed is
a x
ĠE last
Ġdec id
b ere
v id
Ġtim eline
Ġman age
akt ualis
ĠDokumentation en
N ot
b it
on y
for ce
ĠRe ceived
Ġlo c
ĠMarketing agentur
z ure
Ġd abei
etw ork
get reten
ĠElast icsearch
) ?
O n
w eit
er ce
Ã¤ uf
Ġtr acking
ĠH e
ĠDiskuss ion
A pp
C omm
R L
v ote
Ġdefin itely
Ġnotwend igen
ĠAltern atively
w ischen
Ġb an
Ġl oss
hr end
ĠB est
ĠO ut
âĢ ¦
Ġreopen ed
ĠbestÃ¤tig en
e ople
m ail
Ġr ule
Ġauf getreten
ĠEx cel
Ġfac ed
ĠwÃ¤ hrend
Ġvis ual
Ġformat ting
Ġmater ial
z en
on st
Ġr ufen
um mer
Ġup load
Ġpat tern
acc ur
Ġadv ise
Ġbas ically
Ġgemeld et
R A
Ġv irtual
Ã¤ r
Ġact iv
ĠâĢ ¦
Ġscre enshot
O verflow
b i
ĠA g
ĠK ubernetes
ĠN A
ĠDaten b
Ġmer ge
P U
pl an
Ã¶s ungen
war eness
Ġconduct ed
ynchron is
D IT
Ã¶n nen
Ġbed anken
ig her
ter y
ĠM ed
ĠUnannehm lichkeiten
1 7
ent sche
if t
ĠAn tivirus
ound s
Ġco ol
Ġexp and
Ġanaly ze
at ives
ch an
ĠIn ternet
bo x
fo x
Ġsymptom s
Ġc ast
as ch
Ġout comes
Ġdec ide
cr ipt
bs ites
Ġi P
Ġentire ly
Ġgenau er
Ġunbe fug
" ?
Ġcl osure
ĠSu ch
Ġar g
ĠTeam s
ĠVerfÃ¼g barkeit
Ġconduct ing
i end
t re
Ġ =
Ġl ed
Ġbeste h
ĠAr beits
ÃŁer dem
Ġdies es
mÃ¼ hungen
on est
Ġex tern
ĠM ost
ĠĠĠĠ Ġ
ĠSch wach
Ġmiss ing
Ġtot al
p os
z ial
Ġg oogle
uel le
Ġclar ify
Ġadvert ising
u ell
Ġin accur
Ġun able
Ġare as
ach stum
Ġdele tion
htt p
Ġful ly
0 4
ge ben
Ġim ages
ĠF rom
Ġunder perform
ĠWh ere
Ġadministr ation
ĠerhÃ¶ hen
Ġo k
ĠW Ã¤
Ġst ay
Ġ1 2
ib r
Ġdown load
Ġcre ating
Ġclar ification
Ġtal king
Ġsub st
Ġverschieden e
on ly
ĠN O
Ġsa w
Ġcustom ers
part y
S chritt
f unktionen
j s
Ġs witch
ie b
ĠW ork
ĠM ust
Ġdar Ã¼ber
ĠkÃ¼rz lich
ĠRest art
W hen
er o
ut ed
Ġask s
Ġoffer ed
Ġaktuel le
Ġsporad ic
el t
ac ed
ĠAn swer
Ġfil ter
Ġa wareness
Ġh igher
an el
Ġpro du
ac es
Ġar tic
yn am
ĠJ eff
ish ed
arbeit en
s tellungen
ĠTh en
pr ise
Ġc ur
ĠAn weisungen
Ġqu ote
od y
mit tel
Ġconst ructive
il t
Ġj ud
Ġrebo ot
s ide
Ġre v
Ġsm art
Ġapproach es
ĠGesundheits dienstleister
m y
ist ics
Ġhelp ing
Ġback ground
ĠverfÃ¼g baren
orpor ate
entsche idungen
in en
Ġd ed
ĠO K
Ġserver fault
Ġ5 0
ĠIm mediate
Ġb ar
Ġin tended
Ġtak es
ĠInvestitions strategien
rech ung
in ing
at ic
ers h
ire less
Ġbad ges
Ġbereit zustellen
merk sam
Ġs elf
et y
Ġcom bin
Ġsp end
ĠAn pass
ĠO f
lÃ¤ ren
Ġstate ment
U sers
re en
as p
et ting
end ed
Ġfail ed
Ġminim um
Ġgeeignet es
l ang
n Thank
Ġk rit
Ġex tens
Ġdec lined
Ġallow s
ampag ne
if en
ir c
Ġknow n
Ġdurch zufÃ¼hren
Ġinstall ed
ĠRec ent
atis f
Ġs ie
it Ã¤ten
Ġh er
Ġl ost
el Ã¶
Ġup on
ĠH elp
ĠDaten schutz
Ġask er
ĠSt udio
Ġsubmit ting
Ġw ent
ro du
Ġr id
Ġintegr ated
Ġgeeign eten
ĠCh rome
ĠSmart sheet
ĠNum mer
ĠUms etzung
S u
u es
u ps
ĠP y
Ġexpl icit
Ġchang ing
Ġincre asing
an swers
Ġex tre
ind ow
ĠWh ich
Ġcomprom ised
Ġupgr ade
Ġcost s
Ġth inking
Ġw ichtig
Ġf Ã¶rder
Ġge f
icherhe it
Ġdec re
Ġent er
ĠProdu kten
Ġgl ad
ĠNum ber
U m
Ġde b
ĠO ffice
Ġste ig
Ġmod ifications
Ġfirm ware
Ġkey board
ĠSte ps
h and
us i
Ġwh atever
Ġex tra
Ġtr ue
Ġent h
Ġport folio
ĠVerbind ungs
b ig
Ġl ines
ĠWe bsite
Ġex ec
ĠK e
com ing
Ġrecommend ed
ĠVor te
Ġkontakt iert
Ġobvious ly
W S
Ġ *
as k
ig ung
Ġsu fficient
Ġmo ved
Ġer griffen
Ġ1 1
Ġmehr eren
ĠAl though
Ġ-- >
i os
Ġ ?
on nect
Ġsu mm
Ġdes er
ĠThank s
olog ies
Ġassu me
ĠBedÃ¼rf nisse
S h
ol l
um e
Ġver ify
Ġdiscuss ions
Ġar gu
ĠwÃ¤ ren
iven ess
ĠBed eut
sto ÃŁ
Ġschedul ing
Ġextre me
ĠBedeut ung
b as
Ġa w
Ġs light
or der
Ġf am
Ġverb esser
Ġprogram s
ĠdurchgefÃ¼hr ten
Ġsupp osed
Ġcra p
o ff
en ken
Ġf und
ie tet
ĠA ct
Ġinc omp
pl attform
Ġreview s
Ġcommun ication
Ġerk und
lik te
Ġth reat
Ġo pport
Ġam ong
ĠZ ap
letz ungen
Ġwonder ing
Ġredu ce
Ġre member
ten ance
Ġupv oted
zeit en
Ġinvo ice
Ġerheb lich
] :
g aben
is en
Ġapp s
ator y
Ġalgorith ms
ĠermÃ¶glich en
Ġumfass ende
Ġerkund igen
u ous
ĠC urrently
ap id
Ġdele ting
Ġbeh ilf
ĠfÃ¶rder n
Ġbehilf lich
at er
Ġd ank
iz es
Ġdes ired
igur ing
Ġwor ld
Ġbu y
b ut
Ġpro pose
Ġg es
Ġ1 3
Re quest
! !
Ġd anken
Ġp ages
Ġf ield
Ġh um
ut ions
ĠZ usÃ¤tz
Ġexpl aining
ĠZap ier
Ġdank bar
ch Ã¤
ĠM od
Ġknow ing
Ġreg elmÃ¤ÃŁ
Ġcle ared
ob ot
Ġter m
miss ions
cer pt
Ġmalfun ction
at h
ĠW achstum
Ġme chan
tig e
Ġ3 0
Ġprop osed
Ġextern al
1 5
Ġf irewalls
ge hen
ĠIn hal
Ġthere fore
Ġback up
g ment
r Ã¤n
Ġlist ed
Ġinsu fficient
I M
Ġf Ã¼hren
et o
ĠPro ject
>, \
ace book
Ġadjust ing
] (
k onf
Ġth us
Ġin fo
Ġcon fer
Ġsome what
Ġreset ting
D as
l ist
oo p
âĢ Ķ
Ġent sp
ub ieten
ĠMarketing strategien
Ġmem ory
Ġanz ubieten
2 2
y ou
en nen
ĠR o
Ġwant s
Ġatt ack
Ġgener ic
Quest ions
Ġy es
ĠA WS
ĠF acebook
Ġcl oud
Ġrep e
pro fessional
Ġperform ed
Ġchar ges
Ġstream line
Ġerfolg reich
ĠZo ho
Ġsubst ant
h ere
Ġt ouch
Ġpl ug
Ġfrequ ently
S U
c omm
Ġd omain
Ġres pect
ĠR es
Ġenhance ment
Ġdef ault
a z
Ġd anke
Ġapp ar
ĠZ ug
ĠBe zug
Ġclean up
Ġverschieden en
Ġperfect ly
Ġsteig ern
l ink
Ġc ar
Ġb ody
ĠCont act
a w
Ġt ips
Ġp ick
ĠDaten analys
Ġreason able
Ġro le
Ġmain tenance
Ġdel ay
Ġutil izing
Ġtal k
omet imes
ĠErgeb nisse
Ġ etw
Ġste hen
Ġnum bers
Ġlo ading
Ġcustom ized
Ġtarget ed
Ġf Ã¼
Ġu t
Ġun clear
Ġl ive
Ġas pect
Ġwe bsites
Ġsol ved
Ġvis it
Ġmodel s
Ġbew Ã¤hr
walt ung
ie ber
Ġr andom
ĠRe view
Ġmost ly
Ġdar unter
Ġwel come
elÃ¶ st
b ed
v otes
Ġsee k
row s
Ġprec ise
chÃ¤ ft
l ish
ĠO ther
fr agen
Ġtoo k
Ġletz ten
r ied
Ġover l
Ġmin or
ĠKrankenh Ã¤
Pro blem
Ġquer y
Ġetw a
m ess
Ġ2 4
Ġatt rib
Ġoper ational
Ġocc urr
problem en
Ġplan en
Ġm ine
Ġk lÃ¤ren
iz ien
ĠL og
Ġrep ly
ffect ive
Ġ1 4
Ġbo ot
Ġprop os
ĠGrÃ¼ÃŁ en
Ġp hr
ut en
ĠM anagement
per ienc
Ġdownv oting
Ġfreund lichen
ĠAp ache
g est
Ġso bald
Ġex change
Ġdo ch
Ġcall ed
ĠStack Overflow
Ġremo ving
ob ach
met a
Ġfavor ite
1 6
l age
Ġc ross
Ġg iving
An d
Ġcontrib ute
ons ider
Ġdeploy ment
Ġabs olute
mittel n
ĠZug ang
a pt
ĠF irst
Ġdisc our
Ġold er
Ġdefin ition
ĠCh at
Ġtest ing
val u
Ġdiagn ost
ĠMar kt
Ġuner warte
Ġann oy
ĠI M
Ġn one
Ġn ames
st rategie
Ġal though
Ġman aging
Ġproject s
Ġfol ks
Ġstr ength
Ġmal ware
ĠSchwach stellen
ste uer
ptim ierungs
ĠInvestitions entscheidungen
ĠTelefon nummer
Ġvulner ability
ĠOb wohl
I RA
i um
l ack
Ġc irc
ur l
Ġun answered
Ġg one
th at
Ġex cerpt
Ġweiter en
Ġide as
gre ifen
Ġerle bt
Ġrecogn ize
Ġactiv ities
ĠDatenb ank
ic king
ĠSicherheits ver
ĠBe mÃ¼hungen
Ġinit i
Ġexpert ise
ĠEntsche idungen
Ġ $
Ã¶ ÃŁ
Ġcom ing
Ġme ine
Ġperform ing
Th at
ĠJ IRA
Ġshow ing
abl ing
Ġscre en
ĠAbre chnungs
c lick
ic ious
Ġun fortunately
Ġz wischen
Ġ2 5
Ġappro ved
Ġdem onst
Ġp ie
ent r
ĠD urch
ail y
ĠU RL
ĠN utzer
Ġinter rupt
ĠSystem s
abl es
halt ung
s tellung
Ġ ,
is ierte
ĠP ower
Ġunser es
Ġmeas ure
Ġinvol ve
Ġprotect ing
, <
D B
Ġ â
il iar
Ġst ated
ĠB y
Ġtop ical
lie gen
LA B
d den
g t
l ust
r ant
al c
Ġg raph
ere ly
ĠD isc
Ġsu dden
MM MM
upd ates
ĠRestart ing
F i
P N
Ġw indow
Ġh it
Ġun like
Ġwill ing
ĠEin richt
prozess e
Ġign ored
r ight
Ġto ld
per ation
ĠG it
Ġread y
last ung
Ġassess ment
Ġest abl
1 9
st ud
Ġch ance
ĠFehl ern
ĠOut look
Ġded icated
i am
Ġb ietet
Ġp asst
Ġdescr ib
Ã¤h igkeiten
Ġmajor ity
Ġneg ative
stack overflow
Ġb urn
Ġbe comes
Ġne ar
Ġedit or
ipt ions
Ġrespons es
ynam ics
P r
el len
os h
Ġguid es
Ã¤tz e
yp e
lefon nummer
Ġlot s
mÃ¶glich keiten
D aten
u gg
Ġbe obach
lich er
ĠSo cial
Ġindivid ual
Ġv s
ust ry
Ġprovid es
ĠGes chÃ¤ft
arbeit ung
Ġdra w
ĠSS D
B itte
re view
Ġb ul
Ġh onest
ĠE ff
ĠĠĠĠ ĠĠ
Ġexper ts
lin ien
g ur
m ark
s et
x im
en cy
qu ality
im ated
us ers
our ce
ĠC PU
ehr te
Ġunder lying
Ġspe ed
Ġhand ling
Ġdisrupt ing
Ġgr oup
Ġresult ing
Ġumf assen
Ġprior it
Ġlock ed
R obot
Ġd ire
Ġal one
Ġlook ed
Ġinst ance
lev ant
Ġind ustry
Ġph ones
Ġwa it
Ġin fl
Ġr are
ĠE DIT
ĠK ont
Ġmem ber
---- ----
AT LAB
Ġanalyz ing
ĠVorte ile
d es
t aining
u ly
Ġ {
ag ue
ĠP erson
ĠR is
Ġcould n
Ġenviron ments
irt able
ĠfÃ¼ hr
n a
Ġd aily
ur ufen
ĠW ill
ĠA ut
Ġspecific s
ĠUn ix
met hoden
Ġprivile ges
E R
Ġs ess
Ġnot ification
Ġreview ers
Ġrelev ante
ĠVor aus
ĠSE O
Ġcho ose
Ġsw ift
I F
Ġ |
ĠM ATLAB
lich keit
ges ch
Ġeffect iveness
Ġpersonal ized
Ġbot t
Ġwarn ing
Ġenth usi
il es
Ġman ual
unkt ion
ne w
cl osed
B e
Ġ ;
ĠA irtable
Ġst yle
ud get
icht lich
ĠMarkenwachstum s
Ġine ffective
Ġpos itive
ĠAc coun
stud ien
3 2
A l
v ol
en er
in tegration
st mÃ¶glich
ĠE very
Ġout put
sch rif
Ġnetwork s
ĠEr ste
Ġautom ated
Ġmisc onf
Comm erce
O O
T ag
p ort
Ġb ump
ĠP ot
ĠD one
Ġer greifen
Ġbet a
Ġhand led
Ġstrength en
ĠM it
Ġke en
ĠNA S
3 0
ĠPro zess
In frastruktur
Ġfunction al
ĠDatens per
ĠWerkzeu gen
Ġleg it
Ġreturn s
ĠFall studien
Ġdecid ed
n We
Ġs ales
ĠI D
ĠP eople
sw e
Ġ- >
up id
ĠAl tery
Ġfair ly
Ġhal f
ĠAltery x
Ġc enter
Ġo h
Ġg ives
Ġg esch
Ġv i
Ġex c
ĠIn s
Ġj oin
Ġspecific ations
ĠSicherheits l
ĠSp e
Ġschnell stmÃ¶glich
iend ly
4 5
l ier
Ġl ay
ĠB es
ĠPro gram
Ġsupport ed
Ġar ch
Ġlo ve
Ġ201 2
ĠMar ke
schrif ten
en e
le t
ĠD on
Ġdiscuss ed
Ġcomp on
Ġsome where
ens us
Ġrequest s
Ġpolic ies
Ġ: )
Ġhind ering
Ġm ag
pro du
Ġdiscrepanc y
ister ed
Ġobject ives
M iner
N S
ro te
Ġe ager
ĠD ynamics
Ġmo b
Ġsp ace
ant ly
ĠR outer
ĠR apid
Ġvis ible
Ġinquir ing
Ġanz urufen
Ġrestrict ions
Ġexplicit ly
ĠRapid Miner
ĠAn swers
ĠH er
Ġwork ed
Te lefonnummer
Ġtempor ary
al ware
ĠEng agement
merksam keit
at ur
ĠM on
de f
ong o
gen ommen
vent ion
Ġmult i
iel len
Ġfr ustr
ĠVerschlÃ¼ssel ungs
Ġsubmit ted
Ġsome body
Ġden en
reat ive
ĠMet hoden
Ġcol lect
Ġevent s
ĠNach richt
Ġefficient ly
ig ital
Ġv end
Ġrep res
Ġconf igure
oublesho oting
Ġdr ives
ĠAuf merksamkeit
ĠPer haps
m ers
m od
Ġd up
Ġf all
ĠW er
ĠA zure
ĠM ongo
ann ing
Ġfin al
ĠEin b
ĠEin haltung
Ġass ign
bind ung
weit er
Ġcirc um
u bl
Ġn Ã¶tig
ĠF irm
he ad
ĠH ad
Ġman ually
Ġcons ensus
fa hr
Ġbas is
werk zeu
ĠFire base
Ġaward ed
ĠZusÃ¤tz lich
Ġm ouse
al k
id den
ĠV PN
Ġhas n
ĠUn fortunately
Ġopin ions
ĠZugriffskontrol len
wickl ung
ony ms
N o
ar ante
Ġpat ience
Ġapplic able
Ġpoint ed
Ġverwend eten
Ġselect ed
Ġpotenz ielle
ĠAcknowled ging
ĠMongo DB
H P
l os
ou ble
om in
ter m
ag ine
ĠM any
ĠB esp
Ġdiscuss ing
ab ilit
Ġper missions
Ã¶s ung
Ġexpl oring
Ġsearch ing
Ġaut o
app ro
uthent ifiz
ĠMÃ¶glich e
Ġdou bt
Ġslight ly
6 0
a i
m asch
Ġ >
ĠC aches
Ġnecess arily
Ser vice
rei ben
eto ols
2 5
b are
Ġw rote
if fer
Ġrequest ed
Ġdefin ed
rech ungen
dr ive
u ations
Ġs atisf
Ġb unch
Ġin tent
qu ate
Ġde ad
Ġch ann
ins ichtlich
zus etzen
Ġverwend en
c on
i ation
Ġ rows
if ik
iz ient
Ġcont est
Ġfr ame
Ġprotect ed
E instellungen
Ġc ard
Ġh insichtlich
Ġe lection
us h
Ġst o
Ġfe es
Ġinter pre
Ġgu arante
Ġdel iver
ĠNeustart s
Ġparticip ate
wir kungen
ĠSuch masch
Ġfam iliar
Ġg elÃ¶st
and ra
Ġno body
Ġabsolute ly
l it
ut ieren
ond ay
Ġunsere m
Ġpredict ive
S aaS
Ġle aving
lic ke
ass andra
Ġprom ot
Ġsuggest ing
ĠAus wirkungen
Ġref lect
ĠProdukt ivitÃ¤t
Ġeing es
Ġaccording ly
ad en
Ġer mitteln
leist ung
An leit
lÃ¤ uf
Ġsoll ten
iam ond
ĠSuchmasch inen
M L
Ġm icrosoft
ĠM alware
ĠG IF
me ins
Ġconnect ed
Ġpract ice
esond ers
ĠFire fox
Ġfunctional ities
l ose
Ġs enden
ion ally
ĠA v
Ġnot ed
ĠC assandra
ĠM onday
Ġanswer able
Ġtr ust
Ġhigh est
Ã¶r ter
geh end
re t
Ġer z
Ġall oc
prÃ¼ ft
Ġrepl ace
Ġau ft
Ġoh ne
V er
g eln
Ġb ase
ve lo
ill s
Ġtr ig
so ptionen
isc o
ĠPl atform
Ġs tem
Ġl ight
ĠW ell
for tige
Ġinter n
ap h
Ġstr ict
Ġcandid ate
Pr Ã¤senz
U pdate
b a
er ous
Ġg ame
Ġit ems
Ã¶ ch
ans ion
Ġaccur acy
ĠAus fÃ¤lle
Ġpar am
b rechungen
o k
r id
w ord
Ġm s
ers tellung
ad es
app ing
dr iven
ĠDes k
ĠZielgrupp en
Ġlif e
Ġmob ile
E in
e ks
s ing
it er
Ġb le
Ġb anned
Ġwe ak
Ã¼r ze
so lete
com pl
fÃ¼hr ung
Ġange p
ĠKe ep
Ġopport unity
u c
ie ll
Ġz e
ail s
ard ing
ge ehrte
Ġge prÃ¼ft
Ġj e
ĠVer stÃ¤nd
Ġpat h
Ġcre d
Ġconsider ation
ĠKonf igurations
izien z
ĠHad oop
6 4
u ine
te am
ie f
un der
Ġst upid
ĠIn stead
ĠH ub
Ġes cal
Ġaud io
Ġcustom ization
ĠKompatibilit Ã¤t
Ġrefr esh
= "
M edia
re levant
Ġe y
Ġg ro
ost en
Ġte le
Ġcomp et
ell ing
ĠSt and
ron ic
ĠInvestitions optimierung
Ġcol or
ĠAktualis ierungen
Ġarg ument
Ġgef Ã¤hr
ĠEinricht ung
velo per
B ut
y ond
ĠI ts
ĠS end
if i
Ġv ague
ĠB it
ĠB esonders
Ġde v
Ġhe av
Ġaddress ed
Ġerle ich
Ġextreme ly
ĠEinb licke
D e
l imin
u tet
Ġt act
on ummer
Ġb other
Ġz usammen
Ġst ates
iz ations
Ġhelp ed
Ġnew er
Ġuna utor
Ġbenef icial
Ã¼n sch
Ġresult ed
Ġstat s
ĠEng lish
Ġmeant ime
ashboard s
k ommen
v o
Ġg ave
Ġle id
ĠData Robot
Ġma xim
Ġtot ally
ĠFurther more
Ġlever age
Ġwe eks
ill ed
Ġte ch
Ġgen uine
hal b
Ġbro ken
Ġdep ends
Ġslowdown s
ĠIns besondere
meins am
N e
c ode
Ġw ireless
gr aph
lic ations
ĠJ o
Ġprofessional s
ĠAb st
Ġadministr ators
ales force
ĠZielgrupp e
Ġoccas ional
ĠBesp rechung
Ġf ast
et ers
ĠS alesforce
Ġund e
Ġder en
Ġdies em
ĠFehler meldung
ĠMe ld
Ġinde ed
ĠPot ential
B S
M it
Ġd at
Ġc oun
Ġn ar
Ġus eless
Ġbes ch
Ġdetaill ierter
Ġgew Ã¼nsch
Ġear lier
Ġbu ilt
ĠCont ent
Ġin dem
Ġh u
Ġe valu
am er
Ġcl ass
ĠH in
Ġthank s
ze ug
Ġbount ies
Ġaus fÃ¼hr
Ġlocal ized
Ġvisual ization
Ġpropos al
a im
f ar
Ġan t
im gur
ĠP HP
ĠD ienst
Ġr is
ĠIn c
ĠB log
Ġsh aring
Ġteam s
Ġsyn onyms
ĠMarketing k
iqu e
Ġtrans fer
xx xx
Ġiniti atives
b el
o very
Ġknow s
ĠZ iele
sch ein
Ġar isen
Ġconsider ing
Ġinvol ves
ĠX P
Ġdescr ibe
Ġbald ige
ĠDiskuss ionen
Ġunlike ly
P ress
h ung
en k
in ed
id es
im ately
ĠA ud
Ġser ve
Ġdigital er
ĠSt at
pro duct
Ġover view
ann t
Ġexp ansion
Ã¼n d
aktualis ierungen
Ġartic le
w ert
z y
est er
Ġg ern
Ġl ower
Ġcon cept
Ġr ude
Ġam big
ick s
Ġpat ch
Ġtechn ologies
ĠVor fÃ¤lle
ĠPatient en
abl auf
Ġfo rec
Ġhar m
Ġarbeit et
ĠVerstÃ¤nd nis
g ory
Ġb order
Ġex press
Ġdis app
ĠB ecause
Ġgeehr tes
Ġinstall ation
prÃ¼f ungen
ĠKompatibilitÃ¤ts probleme
ĠInhal ts
limin ary
N G
c an
Ġs n
Ġp a
al id
ld er
ĠA u
Ġr ate
ĠRe chn
ĠBer ich
ĠT witter
ĠW i
ĠR AM
Ġrep ost
Ġallow ing
Ġspe ak
Ġprovid ers
ph one
Ġeff izient
Ġdashboard s
Ġign ore
Ġdisk utieren
Ġrevis ion
o x
z ahl
Ġr ates
hr schein
ĠC enter
Ġim agine
act ive
Ġ2 8
Ã¼ck s
Ġpay ments
Ġkeep ing
Ġautom ation
Ġzuk ommen
R ec
f ind
Ġm ent
Ġf a
Ġbe ant
ver n
Ġany more
Ġset zen
Ġob solete
Ġsich ern
Ġelse where
lin ing
ĠermÃ¶glich t
ĠWord Press
Ġtable t
Ġappar ently
Ġpie ce
Ġrepres ent
Ġerleich tern
Ġre ver
ĠM ore
ĠE d
Ġintegr ieren
ip ment
ĠEx am
ĠTr oubleshooting
Ġprior ity
Ġappl ies
St ack
Ġbott om
Ġnar row
" )
h ol
en en
Ġb al
Ġm ass
an ten
im men
Ġreach ed
ĠZugriffs steuer
ĠCl ose
Ġfocus ed
ĠBetr ieb
Ġcommit ted
Ġmac OS
swe ise
Ġtact ics
C h
i pp
Ġa id
Ġf our
ad s
Ġen abling
and s
Ġthought s
ĠGerÃ¤ ten
Ġleg al
Ġvari ety
t oo
Ġw ide
ĠS ometimes
ig t
ce ll
ĠD ring
Ġge meinsam
Ġstart ing
sp ecific
Ġincomp atibility
f ile
n issen
v ide
y per
ĠD uplic
act ions
Ġman aged
Ġrestart s
Ġtyp ically
Ġprivile ge
Ġlic ens
k y
Ġd iamond
Ġy ield
Ġforum s
Ġstack overflow
Ġhighlight ing
Ġtrig ger
re ffen
ter s
us ern
um b
ĠU p
uf act
ĠLÃ¶s ungs
wend ung
Ġrefer ring
Ġdisplay ed
ĠFe el
Ġcate gory
! [
v oted
Ġf ault
us ed
Ġz eit
ke hr
Ġac compl
Ġout side
Ġpr Ã¤
Ġpart s
Ġrem ote
Ġbl ack
Ġadministr ator
Ġentsp rech
Ġinterrupt ions
D er
r ite
ĠT ry
fÃ¼ hren
Ġtechn ische
ĠBe isp
Ġpur ch
Ġcontrib uting
ww w
Ġprim ary
p age
er d
in tegr
at ches
Ġf ive
Ġh Ã¤uf
ac cess
oo peration
Ġcl aim
ential s
Ġrel i
Ġchec ks
Ġlat ter
Ġfun ctions
Ġerforder lichen
Ġapply ing
Ġcy ber
Ġcy cle
ĠPassw Ã¶rter
B est
Ġt w
Ġp en
Ġle ider
ĠO ff
ĠVer letzung
ĠVor schriften
Ġinteress iere
tr ag
Ġautomat ic
Ġequ ipment
it ch
ach ed
ĠF unkt
Ġtime ly
Ġcomp lex
flow s
Ġorigin ally
Ġint ention
Ġbesteh enden
ĠWÃ¤ re
2 3
2 7
r ough
ut lich
vers ion
Ġcompl ain
Ġeffekt iv
Ġsubstant ial
ĠZugang s
alc ul
ester day
h n
at ung
Ġc orporate
Ġo pp
ĠD igital
ĠTr ans
ĠArbeits ablauf
Ġinaccur ate
Ġhum an
ĠMeld ung
hrschein lich
A b
ĠS ign
ĠD r
Ġpur pos
Ġess entially
Ġvol ume
Ġsysadmin s
Ġsent ence
Ġdecre ase
Ġargu ments
rÃ¤n kungen
E A
g n
Ġf al
Ġl ose
ĠV TC
Ġte m
Ġste he
Ġconf iguring
Ġsit uations
D M
N ow
Ġbe gr
un tern
ĠAn liegen
ĠG iven
Ġrequire ment
Ġlog ged
Ġfl ood
Ġir relevant
ĠModer ator
Ġcate gor
Ġoccurr ences
ĠKont onummer
Ġpurpos es
1 8
n Mit
Ġg re
ĠC onsider
Ġde veloper
Ġauf nehmen
Ġunter sucht
ĠRe p
tokol len
Ġmonth ly
Ġcho ice
Ġbelong s
Ġcharact ers
ĠAct ive
Ã¶ÃŁ e
B ook
f lag
i ates
Ġw enden
Ġc ell
Ġn av
ĠA ccess
ĠV M
Ġwork ar
Ġcommun ities
Ġda zu
ĠerhÃ¶ h
Ġsusp ens
Ġlegit imate
ĠSuchmaschinen optimierung
Ġparam eters
N ote
n ehm
ĠD a
ĠC isco
Ġdisc over
ĠPro tokolle
Ġimp ossible
iv ial
sch lÃ¼ssel
Ã¤n derungen
Ġexp osure
ĠAnwend ung
Ġcontain s
Ġsubscr iptions
Ex perienc
Ġunbefug ten
Ġcompon ents
. ,
P hone
T ML
al ten
ĠD at
ĠC y
ĠF ort
Ġtr ouble
ab led
Ġgr Ã¼nd
Ġadjust ed
Ġevent ually
** **
Ġmist ake
Ġmist akes
Ġoverl ap
2 4
Ġs ound
ac cept
ĠC C
Ġ( "
Ġcl os
stand ing
Ġoptim al
ik ip
ĠEn t
Ġminim ieren
ĠSk alier
Ġpattern s
h as
s ite
Ġin k
ĠS orry
ie hen
Ġne ue
ĠU se
ĠTo ol
wh ile
Ġpract ical
Ġdiagn ose
Ġvi ol
E r
Ġ \
Ġd est
Ġp ict
Ġl ength
ĠP ort
Ġintegr iert
ĠDaten auf
Ġoff ensive
ĠNe w
Ġeinges etzt
c ent
is ierten
Ġl inux
Ġal ign
Ġum gehend
Ġcl icking
Ġrec urr
Ġpr inter
Ġoff ice
Ġreal ize
Ġdep art
Ġconvers ation
Ġsumm ary
erd ings
D ienstleistungen
W ould
b ie
Ġt ut
on ne
Ġb udget
Ġf elt
im age
Ġst ick
ĠM S
Ġregard less
Ã¼ber lastung
Ġgener ate
Ġwar en
H O
v oting
Ġan onym
Ġp in
ation en
Ġver ified
ges chn
ade quate
Ã¶r tern
Ġfeel s
ĠEin s
ĠRec ently
Ã¤h igkeit
ĠMac Book
Ġcomprom ise
Ġra ised
rif ft
Ġcharact er
Ġdup e
ĠDring lichkeit
ikip edia
6 7
m o
Ġ âĶ
Ļ ¦
et a
ĠM ail
Ġde e
ĠN etwork
Ġbet rifft
Ġqu al
Ġsa ve
Ġmodel ing
Ġsuccessful ly
Ġcommun ic
Ġthreat s
ĠHer aus
Ġris ks
! )
t ax
ch a
ar s
ĠC reative
ach r
ĠB as
Ġed uc
Ġmain taining
Ġi OS
ĠBed enken
Ġter min
Ġtell ing
Ġgl au
Ġentsch e
ĠBer atung
wor ten
bere it
ĠNO T
Ġpriorit ize
iffer ent
Ġchann els
w ort
Ġin adequate
st ood
Ġsee med
Ġcre dit
Ġinv alid
ĠBe teil
Ġput ting
Ġdeter min
Ġindic ates
Ġpromot ions
c ont
Ġs il
Ġc ards
Ġr out
ĠK ampagne
mit ted
lÃ¤ uter
Ġadv ance
Ã¼ss en
ĠAcknowled ged
ĠOpen ID
Ġdire ction
ĠDuplic ate
as te
Ġg aming
ĠD NS
th rough
iv itÃ¤ten
Ġconf ir
Ġmat ch
ges etzt
Ġtre ten
Ġprevious ly
ĠMÃ¶glich keiten
Ġsk alier
Ġwa hrscheinlich
ĠTechn iken
8 9
f act
Ġb ook
un de
ess ere
ke y
Ġv ital
ĠM er
ĠIn st
ĠK Ã¶nnen
pl ace
Ġrec al
Ġsome how
Ġreason ing
Ġent stand
Ġread ers
ĠDatens icherheit
Ġassu m
Ġlevel s
ĠfÃ¼hr t
appro priate
ĠâĶ Ĥ
S T
d et
f ten
n ers
Ġm Ã¼ssen
Ġl ar
Ġimp ress
ĠH ome
Ġcomp uting
ompat ible
ĠPre m
Ġint rodu
Ġarbeit en
entr al
Ġhu ge
ĠAu ÃŁerdem
b est
d ec
Ġc ooperation
Ġb essere
Ġg ate
Ġg ra
ist en
Ġassist ing
Ġposs ibility
ak en
Ġsyn c
ĠSh op
Ġclar ity
iag o
Ġsafeguard ing
ĠEnts ch
Ġinvo ices
lt imately
comp uter
kon ferenz
ĠAnpass ung
Ġcred entials
G rid
S ign
Ġbe yond
Ġz ero
aus fall
Ġcont aining
Ġsol ving
ens or
fl uss
Ġhost ed
Ġregul atory
ĠEff izienz
ĠgefÃ¤hr det
ĠSend Grid
d ate
y y
out s
Ġv irus
ĠM in
ĠF irewalls
Ġman ufact
Ġbes org
ĠDo c
ĠVor schlÃ¤ge
Ġgr amm
ĠDes ktop
Ġschedul ed
Sp ot
Ġjud ge
ĠKrankenhÃ¤ usern
3 3
m aster
o ld
Ġs amm
ĠI F
et h
Ġun n
ver age
el fen
Ġrec ord
de leted
lud ing
Ġanalys ieren
Ġminim al
Ġgenuine ly
Ġentsche id
L ink
L Ã¶sungen
m on
Ġt rotz
Ġw in
Ġp ush
et up
Ġbe gan
Ġun ique
ĠD own
Ġsc en
Ġent ry
ĠĠĠĠĠĠĠĠ ĠĠĠ
Ġfollow ed
wh y
ĠAl gorith
Ġla unch
igure d
Ġhost ing
ĠTag s
Ġearn ed
ĠGeschÃ¤ft s
E dit
Y es
c ut
r ies
in formationen
Ġc od
Ġf ire
Ġst ructure
ĠV ote
omm un
ho ben
Ġ1 6
Ġke ys
Ġke ine
ĠInvest igate
Ġdevelop ers
Ġexam ine
Ġspecial ist
Ġprim arily
Ġmag ic
4 0
8 0
Ġa head
at ible
re icht
ĠS yn
Ġfor ts
pp y
Ġk onf
Ġex tent
ĠO ver
ĠProblem en
Ġ2 7
Ġwor se
cl ose
Ġconfus ion
Ġdat as
ĠHeraus forderungen
- )
C ampaign
f rom
o ck
ĠP ossible
ers tellen
Ġsh ut
Ġhappen ing
ĠNo de
Ġcur ious
Ġcombin ation
Ġaccompl ish
K Ã¶nnen
e ven
Ġc ut
Ġb lie
as hing
Ġg ab
th on
ĠB r
Ġfind s
ĠRe quest
Ġent wick
ub untu
fÃ¼hr t
ĠZusammen arbeit
ĠBere its
teil ung
Ġdist in
Ġcommit ments
ĠEntsche id
lus ive
Ġtopical ity
Ġvend or
L L
S S
it en
Ġbe it
ot er
am ent
ĠH TML
Ġrem ind
Ġsuggest s
Ġsever e
Ġkind s
Ġperiod s
ĠFinanz untern
Su per
Ġsamm eln
ch imp
Ġn ennen
ver suche
am ed
Ġclose ly
wach ung
Ġexplain ed
Ġemploy ee
la ub
En counter
ĠregelmÃ¤ÃŁ ige
ĠDatensper r
ĠHub Spot
L ieber
Ġs he
ie g
ag raph
ĠK osten
ĠH ave
ib ungs
Ġtechn ically
Ġaddress es
ĠEn d
ĠNe ed
Ġword ing
ĠAll erdings
ĠFehlerbe heb
ĠReg arding
Ġaspect s
A kt
P oint
V ielen
y man
Ġ ~
Ġcon d
se e
Ġfin anz
Ġinstall ing
Ġerle ben
Ġverwend et
Ġelect ronic
âĶĢâĶĢâĶĢâĶĢ âĶĢâĶĢâĶĢâĶĢ
fahr ung
ĠMail chimp
h ost
l ines
o graph
Ġt reat
Ġw alk
an ies
Ġo dd
Ġre ibungs
us ive
Ġer reicht
Ġcont r
Ġman ner
ord in
Ġaccept ing
Wh ile
ĠApp rec
Ġla w
ĠAus fall
Ġscript s
Ġnorm ally
Ġparticip ation
Ġkon nte
vid ence
Sh ould
ĠFunkt ional
D F
T F
h Ã¤n
Ġcon sequ
he m
ab at
Ġgu y
ous ly
Ġcomment ing
ggest ed
ann er
Ġsim pl
Ġprevent ing
Ġsyn tax
Ġange bot
Ġeffekt iver
Ġlever aging
konf likte
es ome
Ġnot ifications
and t
Ġer lÃ¤uter
Ġout line
ĠL ink
Ġcontact ed
nah me
ĠEin sch
Ġfail ing
Ġph ishing
Ġevent uelle
ĠUntersuch ungen
Ġau ÃŁerdem
Ġscen ar
v m
es te
or m
Ġm achen
Ġo s
Ġe vidence
ul l
pro gram
Ġmess aging
Ġconsist ent
ĠVerbindungs probleme
Ġdiagnost ics
Ġgro ÃŁ
A N
A d
a ut
er er
at iv
or er
Ġm id
Ġfor tz
ant ed
Ġinter action
ĠServer fault
Ġwor ry
Ġdr iver
vers ionen
Ġdisrupt ed
Ġadv ant
ĠVers ion
Ġumf as
richt linien
Ġeing e
Ġscreenshot s
bi an
osh op
Ġenthusi asts
Ġalloc ation
enk ins
i ber
Ġw id
ch ang
ĠT L
am t
ĠD anke
Ġmo ving
Ġer fÃ¼
ik is
Ġclean ed
Ġexpect ations
ĠDatenver lust
Ġbug s
ĠAnalys is
ĠModer ators
PS S
ĠAv ast
W indows
Ġth row
it ude
Ġf its
Ġin appropriate
ĠS PSS
Ġn u
Ġbe vor
ag ent
ĠD iago
ec ond
Ġk orre
ĠC ode
ĠR A
Ġno ise
Ġinterest s
Ġ201 9
Ġverurs achen
leg al
Ġtempor arily
geben en
Ġunderperform ing
Ġrepe ated
Ġannoy ing
Ġdescrib ed
Ġauft reten
Ġambig uous
Ġbeit ragen
! "
S F
ent y
ver fahren
Ġwh ite
pt h
Ġso fortige
ĠAd min
Ġcomment ed
Ġdiffer ences
ĠIhr es
ĠEr hÃ¶
ĠRec ommend
ĠĠĠĠĠĠĠĠĠĠĠĠĠĠĠĠ ĠĠĠĠĠĠĠĠĠĠĠĠĠĠĠĠ
Ġpar agraph
Ġerk unden
Ġsur pr
IM E
ĠIM O
C S
J ust
a ud
Ġw ende
Ġin ner
us ion
ĠE ach
ĠE vern
Ġcomp atible
Ġcomp anies
Ġein z
Ġsupport s
isch er
Ġph ys
ĠkÃ¼rz lichen
Ġretag ged
Ġpack ages
ĠEvern ote
A re
F low
O ne
n g
it ect
Ġn omin
and on
Ġpre par
Ġinst it
Ġuseful ness
ĠTelefon konferenz
Ġregular ly
Ġfrequ ency
Ġdist rib
omet hing
r ie
ĠA bl
Ġit em
Ġal s
ĠAn t
ib ilities
ĠSo zial
Ġpers pect
ein stellungen
Ġbisher igen
help ful
Ġlic ense
ĠMit arbeit
Ġinterpre t
Ġ il
Ġm en
Ġm ar
le arn
Ġh ur
Ġre w
ĠA uthentifiz
ĠM ake
Ġsp lit
ĠR abat
Ġthem e
ĠApp lications
Ġque ues
ĠGe b
ĠPy thon
Ġheav ily
3 4
S ome
n ed
Ġbe hoben
Ġapp e
Ġge z
Ġcomp ared
ĠG ener
esp ace
ho pping
Ġmit igate
ever al
ĠEx pl
ĠThere fore
Ġlist s
Ġacknowled gment
Ġbrow sers
Ġuner laub
Ġplay ers
Ġmisconf igured
ĠerlÃ¤uter n
5 7
T r
o ol
is es
Ġu buntu
Ġsu its
Ġdes k
Ġper man
Ġpr ess
Ġprom otion
Ġtechn ischen
ein en
ĠJ enkins
Ġvor genommen
Ġcert ifications
ĠAr t
Ġvalu ed
inc erely
Ġwar rant
ĠCom pl
Ġconfer ences
ĠStat istics
Ġunn ecess
ed it
ĠS e
Ã¼ mm
Ġcom plic
um s
Ġtr ivial
Ġpl anning
Ġbet reffen
Ġpre liminary
ualis ierung
uen cer
vious ly
ĠIntegrations prozess
Ġexcept ion
Ġobject ive
ĠbestÃ¤tig e
Ġthorough ly
Ġconfus ed
Ġcover ed
Ġgraph ics
Ġtw ice
Ġlar ger
i our
l au
p ad
Ġa verage
en te
Ġo bs
ĠB ack
Ġer Ã¶rtern
ĠF lag
glich e
Ġcons ol
Ġveralte ter
Ġroll ing
Ġbreak down
Ġoccas ionally
Ġers tellen
, "
A g
B A
f Ã¤higkeiten
or age
Ġf unktion
et ag
ĠS lack
Ġn a
Ġfor t
ĠP DF
Ġst ra
ge ar
ĠAn lage
ult iple
Ġoptim ized
ĠIntegration en
Ġfeel ing
ĠNot ion
Ġcontrib utions
Ġkon nten
Ġconfus ing
Ġroll back
Ġdou ble
Ġbesorg t
2 8
b ad
g ood
Ġbe k
ot ers
Ġk Ã¼mm
ac ies
ĠU hr
ĠK N
Ġge le
Ġcall ing
Ġpre p
ĠUnter brechungen
Ġconflic ting
Ġbehav iour
Ġempfeh le
Ġber ichten
Ġdeser ve
Ġbeobach tet
Ġ **
ĠI S
Ġy esterday
ĠS oll
Ġfor get
ĠT own
Ġcon ver
Ġr en
ip ated
Ġgener ation
Ġshare d
Ġsub sequ
ĠEn ter
Ġencour aged
Ġunerwarte te
ĠApprec iate
' .
es it
ĠS ich
act ory
ff e
ĠO ptim
ĠL ike
Ġsc ale
Ġreason ably
Ġexam ining
Ġ201 1
Ġsess ion
Ġanonym ous
Ġimpress ion
ĠSozial med
c king
at s
Ġs ake
Ġn et
ĠN est
Ġsch einen
Ġapprec iates
ĠInvestitions analyse
Ġaim ed
Ġinput s
Ġstrong ly
Ġplug ins
ĠRis ik
Ġpa id
ĠkÃ¼mm ern
L ooking
y ing
Ġw ider
Ġun k
im ent
us ing
Ġso fort
Ġsp ot
Ġser ves
ĠVer wendung
fr ame
ĠEr k
Ġmeet s
Ġdeal ing
miss ion
Ġverm utet
Ġred irect
Ġloc ation
cell ent
ĠFort sch
Ġmanufact ur
Ġentwick eln
r esp
Ġc ore
Ġc alcul
Ġh op
Ġe ben
Ġun us
Ġfor ce
Ġl ik
ĠT ensor
Ġany where
ĠK unde
ser vices
Ġtr uly
Ġcomp ar
Ġprom oting
Ġmod ify
Ġform ul
fa q
Ġweiterh elfen
ĠAb onne
Ġange mess
Ġmiss ed
Ġturn ed
bind ungen
Ġunderperform ance
ĠMarketingk ampagnen
Ġsuspens ion
ĠKN IME
K ampagnen
O r
d ent
Ġd ial
Ġc or
ĠA m
Ġst ackexchange
ĠC le
Ġsp ent
ĠO BS
Ġwas te
ĠN et
Ġ2 2
Ġno ch
bl og
Ġconnect ing
Ã¼ck en
Ġfl aw
ĠComp uter
ĠausfÃ¼hr liche
Ġperspect ive
ĠTensor Flow
f ix
Ġw ikis
is ion
is ieren
Ġp ix
an a
Ġl iter
ĠP art
ad d
Ġinc ompatible
Ġpl enty
Ġper cent
gen er
ĠSch ritten
Ġcontent s
ĠMarken be
Ġear ly
Ġinit iated
Ġho ffe
wit ches
ĠNetzwerk ver
Ġachie ved
sh ould
ĠIm age
ĠPre is
Ġers te
ĠMed ien
ĠWÃ¤ ren
ĠHin weise
ĠErhÃ¶ hung
Ġil legal
] ][
l Ã¶sung
Ġbe mÃ¼
ig ation
ĠW oo
ĠP h
Ġne ither
ĠSo bald
Ġinst ability
ne ustart
Ġmain ly
Ġcr ashing
Ġdep ending
Ġerfolg los
TT T
Ġaw esome
Ġdemonst rate
ĠActive Campaign
Ġconfir med
fact or
ĠIF TTT
ĠSich erstellung
M R
c urrently
j ang
Ġt witter
it ere
Ġc able
ĠS ynchronis
Ġl ab
pl o
ast ung
Ġprom oted
Ġdurch fÃ¼hren
Ġrelev anten
Ġspe aking
Ġbusiness es
Ġveralte ten
Ġlead s
Ġsusp icious
iger ung
Ġdra ft
Ġloss es
Ġfund ament
Rec ently
ĠEntscheid ungs
ĠCompl iance
Ġgele ert
A dd
L inux
O T
l len
n Best
Ġf aster
ĠD ru
ĠTh ose
Ġal le
tel le
pl Ã¤
iv al
ĠH all
ear beit
ĠG ood
lud e
Ġappro ve
An y
Ġph ase
ĠUr g
Ġend ed
Ġpoin ting
ĠDatens icherheits
Ġdep end
Ġunexpected ly
tag ged
Ġpoor ly
Ġinde x
ĠDurch fÃ¼hrung
werkzeu ge
ĠWoo Commerce
jang o
1 00
Ġc he
al ign
Ġh idden
el ated
ĠD jango
ach ing
end es
Ġrec onf
ĠÃ¼ber wach
row ser
Ġencry pt
Ġscal ing
Ġsusp ended
__ __
Ġinaccur acies
Ġok ay
Ġdeb ate
Ġmechan ism
ĠbewÃ¤hr te
Ġrecurr ing
Ġglau be
Ġstra ight
K onfiguration
b al
n Vielen
Ġs ounds
Ġp ip
ĠS age
ie bs
ĠD is
Ġmo de
ĠF ol
ant s
ĠR ails
Ġreg istered
ĠVer letzungen
ĠSer vices
Ġwor ried
Ġgrow ing
ert ain
Ġgew andt
Ġpos ition
ĠPr Ã¼
ĠKonfiguration en
ĠWer be
Ġforec asts
3 9
8 6
P ost
p al
Ġ ic
on c
Ġb atch
Ġu ltimately
Ġre lease
ĠW ifi
Ġcon form
iz able
Ġver traulich
Ġge fÃ¼hrt
ab out
ĠG o
ĠĠĠĠ ĠĠĠ
Ġ[ ![
.. ..
we b
Ġgener ating
Ġakt uell
enn t
Ġfact s
Ġbetroffen e
reg ular
Ġmalfun ctions
Ġphr ase
ĠDatenauf bereit
Ġkonf igur
ĠGeb Ã¼hren
Ġeben falls
D es
Ġc ult
Ġc ook
ĠS qu
Ġis ol
Ġus ern
Ġex cellent
ĠU TC
ĠM at
ĠM esh
ĠF re
ĠPro fessional
Ġch arge
ĠĠĠĠĠĠĠĠ Ġ
ĠĠĠĠĠĠĠĠ ĠĠ
Ġconsider able
ub y
Ġfr Ã¼
Ġexp osed
Ġrefer en
Ġside bar
Ġhist or
ĠAns Ã¤tze
ĠDisc ord
ĠRA ID
P ossible
V ers
Ġd ates
or n
st imm
form ed
ĠIn formation
ĠIn frastruktur
Ġer weiter
ĠF r
ĠF Ã¤higkeit
ĠPro vide
ĠV is
Ġcont roll
Ġgu ys
Ġreach es
Ġbest immen
Ġimplement iert
fr iendly
Ġdifferent ly
Ġdetaill ierten
Ġfix ing
Ġclean ing
ĠMÃ¶glich erweise
Ġfo lder
Ġest imated
ĠCom ments
bas ierte
Ġarch itect
Ġforts chritt
Ġumfas sten
M anagement
h len
er ung
Ġd il
ro p
Ġh yp
ar ies
Ġnot able
ge me
ack er
Ġ1 50
Ġmehr erer
ĠWhat s
Ġsuit ed
Ġumf asst
ĠKontakt ieren
Ġblock ed
Ġnear ly
Ġguarante e
Ġdetaillierter e
ĠCy ber
Ġpict ure
Ġinner halb
b u
e g
e kte
f ang
Ġf lex
ar m
ĠA bs
Ġr an
su b
ort on
Ġdisc onnect
ĠV irtual
ign is
Ġj o
ĠG aming
ĠUn der
pro tokollen
Ġhospital s
Ġlog o
Ġel imin
Ġmigr ating
Pro du
ĠCont est
Ġemploy ed
Ġkrit ischen
ĠDatenanalys etools
Ġrare ly
ĠAut om
ĠgewÃ¼nsch ten
ommun ik
ĠFinanzuntern ehmen
# #
C urrently
H ere
S c
S icherheits
b ung
i ers
s yn
w ide
Ġh esit
ig r
ort ing
ĠAn other
Ġtr ick
ĠL a
ĠN orton
Ġgen utz
Ġdec ent
Ġachie ving
Ã¶rder ung
Ġmisc onfiguration
ĠAnalys en
ĠZugriffskontrol le
ubl ik
Ġangep asst
ĠSozialmed ien
S ynchronis
c ke
g ang
g oogle
l inux
t y
ĠI SO
ot s
one y
yt es
pr Ã¤senz
Ġproduct ion
ra form
Ġke pt
ĠSystem en
Ġfact or
Ġcontrib utor
Ġstate ments
Ġmis align
Ġdring ende
Ġpotenz iellen
Ġconsu lt
Ġdatas ets
agent o
lau ben
H ub
a ps
f ree
al v
us st
Ã¼ cke
ist a
ĠF ree
Ġown er
Ġfin ally
ĠTer raform
Ġra ising
LA N
ĠBetr acht
aktualis ierung
ĠAnpass ungen
Ġdemonst r
Anleit ungen
Ã¶ch ten
ĠSoll ten
b re
an bi
Ġin tr
ĠD ifferent
Ġv ast
Ġst ating
etail s
Ġle eren
ĠR uby
ĠH ospital
ps e
Ġ1 7
Ġmit z
Ġgener ated
Ġsich erstellen
ĠMÃ¶glich keit
Ġupgr ading
ĠKonf likte
Ġwieder her
ersh ell
schlÃ¼ssel ung
ĠNet gear
5 9
C l
I O
N oted
m d
w ood
Ġp ure
ĠS etup
un k
ow ershell
Ġcon v
ĠTh r
ke its
ust er
ĠM agento
Ġsp read
Ġmatter s
Ġbr ief
Ġedit ors
Ġrel ate
av es
Ġrun s
Ġcrash ed
schied e
Ġanalyz ed
ĠAg ain
ĠiP hone
ĠbewÃ¤hr ten
Ġburn in
Ġswift ly
Ġlay out
Ġentstand en
6 6
S ch
e y
p x
p end
it i
Ġm or
ĠI dent
ot al
Ã¤ her
ĠB esch
Ġpl aces
ast ic
Ġ2 50
quir ing
ute ilen
sp e
ĠkÃ¼rz liche
Ġbuild ing
Ġcoun ter
Ġcategor ies
Ġink lusive
Ġmitz uteilen
B en
f lich
h re
n etwork
s ome
er ve
Ġth ous
ĠS to
st Ã¤r
ur z
ĠE lection
ĠK B
eting s
Ġoffer ing
fe e
ĠOn ly
leit et
20 13
weis en
ĠAuf gaben
Ġverm utlich
lus ion
Ġestabl ished
Ġsto pped
ĠZugriffssteuer ungen
ĠThr eshold
' ,
5 00
8 5
S ince
re ignis
et c
ver letzung
ich e
ĠT utorials
ers ky
Ġadd s
Ġtag ging
omm od
ĠUnter nehm
ĠSoftware updates
Ġnum erous
Ġacc ommod
How ever
Ġsecond s
do es
asp ersky
Ġattrib uted
ĠAccoun ting
ĠEinsch rÃ¤nkungen
Ġunnecess ary
D R
N ummer
P O
P T
m arketing
o ptimierungs
Ġ id
Ġm oney
Ġf ore
Ġl ibr
ce mber
ĠT ime
ad urch
Ġsupport ing
ĠServer Ã¼berlastung
ĠSicherheits vor
Ġco vers
Ġsyn cing
To ol
Ġlie gt
ĠSome one
Ġcommand s
Ġexec ution
ĠSicherheitsver letzung
abilit Ã¤t
Ġconsequ ences
Ġobs c
ĠUnternehm ens
F irst
b ytes
d le
o hl
st Ã¶r
ver waltung
ĠPro tection
ĠO per
so far
Ġunder stood
Ġappro val
Ġatt ached
enz en
ĠUrs pr
Ġneu este
Ġfact ors
utor ial
Ġinteress ieren
Ġpriv ate
Ġsl ugg
ĠPassw ort
ĠGit Hub
Ġey e
ĠprÃ¤ z
Ġblack list
ĠUhr zeit
Ġunus ual
Ġdial og
Ġslugg ish
3 7
B er
I S
b ecause
i an
w hen
er fahrung
on ent
Ġh ang
Ġl uck
ĠW in
ĠD iagn
Ġme iner
ach ines
ĠB el
Ġsp elling
ĠK aspersky
ĠSu re
Ġinform ierte
Ġeng aging
ĠEx ample
Ġsich ere
Ġend s
ĠApp s
Ġmeld e
Ġerheb liche
Ġverbesser t
Ġevalu ate
amer a
Ġgate way
Ġentscheid end
ĠEnter prise
Ġusern ame
Ġdil ig
h ck
m ac
Ġb and
Ġm ot
Ġin sofar
Ġre ward
ĠT op
Ġab use
Ġab andon
ĠB ased
ĠK er
Ġum zusetzen
und red
ĠSoftware versionen
Ġaut or
Ġstand s
ĠNe u
Ġ201 3
ichtig en
Ġextens ive
Ġetwa ige
Ġintern al
Ġmen u
Ġpercent age
earbeit ung
- >
h ome
re ib
it z
Ġbe g
ĠP NG
Ġwe ight
Ġer ne
ĠF Ã¶rderung
Ġtr end
ore t
ĠVer stoÃŁ
Ġaccess ible
ĠEin stellungen
Ġfail s
Ġexplain s
ĠDe cember
Ġmis under
ĠGe ben
ĠFirm ware
Ġerz ielen
master s
2 9
d is
e ps
k ompatibilit
p ng
z un
is ation
Ġp un
Ġbe coming
Ġg ames
Ġl ag
ĠW ikipedia
ĠA I
Ġst Ã¤r
Ġse lection
tz eit
Ġreg ret
etw orking
Ġinst ances
av id
ze igen
Ġins ide
Ġoper ation
Ġfunction ing
20 10
war tet
Ġhope fully
Ġfav our
Ġpack s
ĠAns atz
Ġreboot s
Ġframe work
ĠMalware bytes
Ġkorre kt
h ardware
n Um
Ġp ain
ch t
ar a
am mer
ĠD V
Ġwh ose
Ġst ru
ĠM achine
ĠB oth
Ġrec overy
ĠH aving
ĠH TT
ĠL ieber
Ġanal yt
Ġbr ought
ĠVor falls
ĠMet r
Ġinstall ieren
Ġcustom izable
ĠAt wood
Ġsupp ose
ĠPost s
Ġintermit t
Ġfa q
Ġdepart ment
Ġrout ine
ĠUrg ent
Ġaccommod ate
N D
P er
R ep
Ã Ĺ
at ik
Ġd ump
is ms
Ġan imated
Ġn Ã¤her
ĠA ir
Ġus ual
Ġr at
Ġv ary
Ġal ert
Ġex tended
Ġad mit
Ġde tection
Ġ1 8
Ġob tain
Ġdies en
Ġtell s
Ġdirect ory
Ġlang sam
Ġ: -)
Ġarg ue
Ġprodu cing
bel astung
ĠMin i
Ġprepar ing
Ġpix els
P anel
T S
e me
r ain
s chen
Ġ ill
Ġt un
ich tet
su es
Ġwe gen
ĠThe men
Ġser ved
aten cy
ĠVer fahren
Ġste ht
Ġsc an
Ġag re
fol gen
Ġocc urs
Ġcrit ic
ĠPl an
ĠGr und
sto ols
Ġpotenz iell
ĠBetr iebs
Ġupload er
ĠPower Point
Ġmouse over
ĠAdmin istr
ĠUrspr ung
A t
d n
f re
es hing
Ġm icro
te c
ar espace
ĠW iki
ĠP S
ist ry
ĠM an
ĠE reignis
Ġcomp il
ĠVer waltung
Ġrel atively
ĠAs king
Ġbelie ved
ĠGes amt
Ġdam age
Ġaccur ately
Ġbul k
produ kte
Ġescal ate
ĠDr ive
Ġworkar ound
Ġphys ical
Ġgez iel
Ġconsol es
Ag entur
ĠSqu arespace
zun ehmen
c ase
f ung
m l
n To
n Could
w as
Ġt we
is on
Ġan zu
ch eck
Ġquestion er
Ġst ability
ĠB ad
Ġde ems
ĠO ptionen
ĠSu b
Ġman geln
ĠSt art
isch es
Ġclear er
Ġexperienc es
Ġlim its
Ġbereit gestellt
Ġbuy ing
Ġcircum st
ĠMer ge
ĠKer as
. âĢĿ
N E
p atch
q l
Ġa ge
Ġm erely
Ġre in
Ġl inking
Ġl atency
ĠD id
ĠC W
ĠU I
Ġad ap
ber ry
ĠR etag
ĠL ast
Ġbec ame
ĠTe ilen
Ġback ups
Ġoffer ings
An alys
Ġacc ident
Ġmigr ations
Ġverm ute
Ġconvers ion
ĠiP od
ĠOther wise
Ġâ Ĩ
ĠBereits tellung
ĠDru pal
ĠMat hem
D P
N U
c A
m oder
er ed
in y
at ures
re te
et re
el low
Ġver stÃ¤r
Ġany body
Ġimp l
ĠR ight
Ġein zu
Ġinter vention
Ġaffect s
Ġimplement ieren
Ġspez ielle
Ġrefer ences
Ġtelefon ieren
ĠZugriffs versuche
Ġindic ating
ĠIntegrations probleme
Ġclick ed
ĠPl us
Ġstor ies
Ġsk ills
ĠSc ore
sc reen
Ġconfer ence
ĠRo om
Ġdelay ed
ĠAccoun t
def ender
ĠFirm a
Ġment ions
Ġbeant ragen
Ġbal ancing
ĠBeisp iele
Ġvertraulich e
ĠAbs olute
4 9
Ġf urn
Ġh undred
ar f
Ġl ate
ul ation
ind en
ge w
Ġneed ing
ĠProblem be
sch lagen
ap e
Ġhard er
Ġfollow s
Ġindic ated
Ġrepl aced
Ġindivid uelle
Ġir regular
ĠErfolg s
Quest ion
ĠAg entur
atic a
C D
g ot
m ove
n v
in formed
Ġan tic
Ġm achines
Ġin tend
ĠS D
ĠS imp
th ere
Ġsu c
gr ade
ĠWe itere
now n
Ġschn ellen
Ġacknowled ges
Ġadmin s
Ġstat istics
Ġfl ash
Ġgenau ere
Ġmechan isms
ĠRo ot
Ġattack s
Al so
Ġintrodu ced
Ġwiederher zustellen
6 9
V M
re ate
ch tzeit
Ġm ix
Ġin ser
te chn
Ġh ot
ent wicklung
Ġe v
ig ma
ag iar
ĠD ef
Ġhe ard
Ġtyp ing
fol ge
oc al
Ġter r
Ġtest s
Ġfocus ing
Ġeffekt ive
Do es
Problem e
click through
ĠAut o
Tag line
Ġbump ed
ĠGIF s
Ġopp osed
Ġtermin al
Ġgramm ar
ĠFehlerbeheb ungs
Ġhur t
Ġna ht
geme ine
ĠWhats App
Ġfurn ish
Ġsuc ceed
R E
n ersh
o ptionen
Ġp anel
ow ers
im ilar
ĠA kten
ĠD ream
are ly
ĠM SO
ĠIn tell
ĠF igma
Ġpl ain
Ġrep rodu
be x
ungs system
ra id
Ġbest imm
ĠQ ual
ĠAs ana
ze ich
Ġtyp ical
iel sweise
System s
Ġremo val
ĠInvestitions daten
Ġrebo oted
Ġcontrib uted
fo hlen
Ġgl itch
ĠTr ends
Ġvol l
ĠRis iken
find ung
Ġfortz us
cA fee
e ider
Ġre vert
Ġre leased
Ġbe isp
ve y
Ġst ored
Ġnot ify
ĠB ooks
ĠAn lag
uss ion
Ġinc ompatib
Ġthink s
Ġpart nersh
Ġlearn ed
ĠMarken gr
Ġret rie
li pse
ĠAre a
ĠSte igerung
Ġbegin ning
Ġrefr eshing
Ġbesteh ende
ĠbemÃ¼ hen
Ġbeisp ielsweise
B ox
g y
n d
n Wir
r d
ou ps
Ġc atch
Ġm aÃŁ
Ġun helpful
ĠT oo
ĠP hot
ail able
Ġk ennen
Ġst ore
ust arten
ge g
Ġpre m
Ġpre view
ĠServer s
wend ungen
fol ios
lÃ¤ r
Ġgot ten
tag s
ĠKrankenhÃ¤ user
ipp s
Ġdiscover ed
Ġdee med
ĠAnt wort
ĠMitarbeit er
Ġdilig ently
ĠMathem atica
Ġfortzus etzen
Ġincompatib ilities
T P
h ler
s m
or ch
le ments
Ġh ate
ĠW LAN
su e
ĠB rowser
Ġsch eme
coun t
ĠZeit plan
Ġfr iendly
ĠInvestitions optimierungs
Ġprogram mers
Ġconst rain
Ġblock s
ĠTechn olog
Ġred und
rei ber
Ġhonest ly
Ġsess ions
ĠAbst Ã¼rze
Ġtem pl
ĠerfÃ¼ llen
Ġmanufactur er
reib ung
4 7
T L
f te
f iles
l Ã¶sungen
p oin
w id
Ġb at
ing ly
ĠTh ink
Ġso zial
ĠG ed
og y
Ġfe hler
Ġke eps
Ġsa f
Ã¶r t
Ġshow ed
Ġinstall iert
cl es
ĠPC s
ĠDer zeit
Ġelect ions
wer ke
ĠPerson ally
Ġgesch Ã¼tz
Ġlicens ing
integr ations
yman tec
Ġvoll stÃ¤nd
) ;
A C
d ata
Ġa f
Ġh il
ar ly
est ed
Ġfor th
Ġfor mer
ĠW as
Ġz iehen
Ġst uck
ĠH D
Ġwork st
Ġunter nehmen
bar keits
Ġinform iert
Ġgr ay
Ġproced ure
Ġsoll te
analys en
Ġextens ion
ĠBes org
ĠBit defender
Ġobsc ure
ĠMetr iken
D ashboards
e ah
h ers
s etzen
x p
Ġt ends
Ġw Ã¼n
Ġp an
ĠM cAfee
Ġer warte
ĠAn trag
ight ed
fer ence
up assen
ĠSoftware konflikte
Ġlog ging
An alytics
problem s
Ġtre ated
ĠDatenver arbeitung
ĠMe et
Ġerheb lichen
ĠSS L
orr ent
ĠMod ell
lÃ¤uf e
ĠExam ine
geschn eider
Ġsurpr ised
Ġhesit ate
Ġstru gg
ĠGed uld
d etails
i ant
n el
p atches
re ason
Ġb ash
un ities
ig ible
ter min
ul ous
Ã¤ den
ĠWe bex
Ġex cel
Ġver w
Ġup coming
op s
Ġwill kommen
Ġout right
Ġch osen
ĠSu ggest
Ġcomp ly
Ġsol ves
Ġposs ibilities
ra ft
cept ion
ualis ierungen
icht barkeit
ĠJ av
Ġvor schlagen
Ġmark down
Ġtest ed
etr iken
Ġtrans actions
Ġassu ming
Ġanz upassen
Ġann ual
ĠAltern ativ
ĠStÃ¶r ung
Ġinde pend
Ġfigure d
Ġdeser ves
ĠSicherheitsl Ã¼cke
ĠDoc u
Ġinstit ution
Ġliter ally
Ġanalyt ical
ĠmaÃŁ geschneider
Ġhil ft
G B
K ontakt
O ptimierung
e es
o pt
x y
Ġs incerely
or es
le vel
Ġf ill
al yt
ĠS ource
Ġme in
Ġanswer er
ĠPro j
Ġreg istr
Ġar bit
ra p
Ġeng ines
ĠJ uly
ĠVor gehen
Ġbl ue
ought s
ĠLe ider
Ġref ers
Ġint u
lik ten
upd ate
Ġrevis ions
Request ing
Ġfrustr ating
ĠRechn ung
ĠAnlag est
8 7
d isc
i et
i ben
s ame
Ġa ff
Ġthe ory
le tion
an forderungen
ie be
st ieg
ig ating
im on
ĠW ieder
us iness
ach ten
ĠM Ã¶chten
ĠE MR
Ġsol len
sch wierigkeiten
ious ly
fr am
ĠSicherheits aud
Ġconc ise
tell ungs
fa ir
lÃ¤ ss
Ġi hre
ph as
ĠIntegrations mÃ¶glichkeiten
Ġhome work
Ġemp fohlen
inc luding
ĠWork flows
asp berry
na ire
ĠRep utation
ĠBeteil igung
ĠInst all
Ġcircumst ances
: "
A fter
I m
I hr
W ork
i pped
l osen
o ber
r ag
v et
y our
on us
at us
re quest
Ġw atch
Ġm ail
Ġm aster
Ġun gen
ig ungs
ol fram
us te
pt y
ĠB ig
op ard
ĠO T
ĠL assen
Ġnew bie
ss ystem
Ġbest and
Ġco ordin
Ġstart s
ĠMarketing strategie
uel len
Ġopen ed
app ed
Ġnotwend ige
Ġcare fully
Ġreset s
Ġworth y
Ġpar ent
ĠDe bian
Ġsmall er
Ġsensib len
ĠSk ype
Ġpresent ed
Ġinfl u
Ġgre y
ĠDat um
ĠEins atz
Ġrecal ibr
Ġos x
ĠPh ishing
ara vel
4 4
C A
b iqu
u be
Ġ )
er nen
Ġw es
Ġun ver
Ġnot ified
ac kt
Ġad her
Ġad apt
ĠK ommunik
ab lÃ¤ufe
Ġpl aced
lic ation
ĠSt rateg
Ġwhen ever
ĠZeit en
ĠDatens ystem
Ġsort s
ĠGe w
Ġrouter s
Ġconsu mer
Ġenter prise
Ġreli able
Ġbegr Ã¼ÃŁ
ĠSkalier barkeit
Ġsubsequ ent
neustart s
ival ent
Ġterr ible
Ġfehler ha
Ġsaf ety
s ource
Ġt utorial
Ġc reat
ed ing
qu is
ĠB ount
Ġde uten
Ġle aves
aus fÃ¤lle
ĠL ive
ĠL ade
ĠL aravel
Ġpl agiar
In quiring
rep utation
Ġ5 00
ĠX Y
Ġopen ing
open ed
20 14
tiv ir
Ġbroad er
ĠIm ages
Ġcho ices
Ġredu ced
Ġretag ging
Ġthread s
geh ende
post s
lang sam
Ġerfolgreich e
Ġcommunic ate
Ġpartnersh ips
ĠwÃ¼n schen
A ll
K on
T orch
c o
l ung
w ords
Ġh yper
om al
st att
Ġun related
ĠT ipps
ach te
ĠB lack
ĠAn tivir
ĠZ ur
âĢ ĭ
Ġwer en
ges tell
ĠEx press
ekt ivitÃ¤t
Ġread s
ĠBe fore
Ġdel ighted
Ġgr ound
ĠDatenver letzungen
ĠPl ug
ĠPy Torch
Ġverbesser te
Ġsudden ly
Ġble iben
Ġborder line
ĠRecommend ations
3 6
d ed
l ting
n y
t est
Ġt one
Ġd adurch
ĠT H
ĠT Y
Ġwe ird
ĠWe ek
ĠU sing
ĠR aspberry
ĠProblem lÃ¶sung
Ġfe as
ĠVer such
ck s
Ġpers Ã¶n
ĠmÃ¶glich er
Ġatt itude
Ġlog ic
ĠEx per
other board
Ġph ot
Ġpol l
ĠBed arf
ĠunterstÃ¼tz t
Ġutil ized
ĠDatenver schlÃ¼sselung
fÃ¤l len
Ġpredict ions
Ġâ Ļ¦
MMMM MMMM
Ġinfl uencer
Ġ; )
Ġmisconf igurations
wert ung
Ġrever se
Ġtrigger ed
Ġscenar io
Ġcult ure
ĠPhot oshop
ĠDocu Sign
5 5
R outer
U buntu
o ffice
p ower
z ah
Ġt roll
Ġc e
Ġp aste
Ġin tens
Ġbe geg
Ġun reg
Ġon to
ĠW ho
su ggested
oo g
Ġer lauben
ĠG NU
duct ion
Ġall gemeine
Ġem phas
Ġent ries
Ġident ical
Ġmod ified
Ġ20 10
board ing
Ġdefin itive
zu griff
Ġcop ied
Ġincorrect ly
Ġupgr ades
Ġroll ed
Ġneg atively
Ġcombin ed
Ġbul let
werkzeu gen
xxxx xxxx
ĠRabat te
ĠâĨ Ĵ
ĠBesorg nis
? ,
L e
r ary
Ġt our
Ġs witches
an iel
st orage
qu e
ĠT wo
ĠW olfram
form ance
Ġex cess
Ġex cl
ĠB is
Ġsp ending
Ġhel fe
ject ive
ĠVer sucht
eit en
Ġimplement ations
ĠSystem updates
igh ten
Ġverein f
Ġsign al
fe ld
ĠFAQ s
app s
Ġref und
Ġrob uste
Ġturn s
ĠzukÃ¼nft iger
Ġlaptop s
ĠLeistungs probleme
App s
Ġdecre ased
Ġmalfunction ing
Ġble ibt
Ġunautor isierten
ĠgrÃ¼nd liche
ĠTY PO
H ave
I P
r un
â ľ
Ġd ang
Ġc ounts
ar b
un e
ag n
ĠD ashboards
ist ic
Ġsu ff
Ġer weit
ank ly
Ġinc orporate
ant ic
ĠL TS
ĠVer hind
bl ock
cc ording
Ġbl ah
Ġide al
Ġcol lection
Ġkontakt iere
install ation
Ġ201 4
Ġange gebenen
Ġparticip ating
Ġcra ppy
Ġra ise
Ġmater ials
Ġrespond ing
ĠGrÃ¼ÃŁ e
konfiguration en
Ġdocument ed
bas ierten
Anleit ung
Ġtele phone
ĠRechn ungen
ĠEnt wicklung
ĠAlgorith men
ĠAuthentifiz ierungs
anbi eter
wid th
zah len
2 6
9 9
? âĢĿ
f il
i he
i Fi
en o
Ġto ler
ro om
Ġre action
Ġn atur
Ġbe arbeiten
ĠP i
ĠM o
op y
Ġrec onc
Ġtime outs
Ġam ounts
esp ond
ĠVer k
com ment
âĢ ĥ
ik it
Ġcomment ary
Ġrel ating
Ġrecommend ing
Ġbad ly
Ġremain ing
Ġ4 0
zus ch
au ft
arbeit et
ĠNetzwerk s
Ġdeal t
Ġdiagn osing
Ġaltern atives
uck et
Ġfund ierte
Ġentsp rechen
Ġcircum vent
ĠPort folio
Ġpin point
Ġblie ben
Ġunerlaub ten
ĠIS P
ĠAnlagest rategien
c ast
d ienstleistungen
l auf
w ritten
Ġs alv
Ġc md
Ġb ound
Ġo bl
st r
ich te
Ġk new
ĠV R
ĠV ide
ĠL eit
Ġcomp leted
ĠZ ielen
Ġreg ister
aS h
Ġconc lusion
wend igkeit
ĠBe i
Ġsign ifik
Ġright s
Ġuna pp
Ġsearch es
Ġvor lÃ¤uf
Ġinit ially
Ġtit les
Ġaudit ing
Ġselect ing
Ġwa iting
Ġstream lining
Thank s
Ġequ ivalent
Ã¤uf e
aw k
Ġut most
Ġunerwarte ten
Ġyield ed
Ab teilung
achr ichten
ĠBesch reibung
stÃ¶r ungen
Ġmot iv
ĠDV D
ĠVerhind erung
? ".
C ont
F rom
h in
i J
m us
Ġc al
Ġin folge
il ogy
Ġ( <
Ġtime frame
ĠDaten integration
ustom ers
Ġprefer ence
ĠNot wendigkeit
ĠNetz werke
Ġpersonal isierte
Ġword ed
Ġverm uten
Ġhighlight ed
ĠSk al
ĠCom ment
Ġgain ed
Ġartic les
Ġsumm ar
Ġdiscour age
Ġestabl ish
Ġentsprech enden
Ġgra v
ĠExpl orer
. (
0 1
d on
er gy
in ation
Ġd aten
is te
Ġc apt
Ġf an
ĠS ur
ul ate
ad y
Ġdis able
ĠV iel
itte il
Ġsch Ã¶n
sch n
Ġinvestig ations
ip her
Th ese
Ġsearch ed
ĠOr gan
Ġreject ion
Re geln
Ġref ine
Ġbig ger
Ġrid ic
ĠID EA
ĠSicherheitsl Ã¼cken
ĠVerschlÃ¼sselungs methoden
Experienc ed
stimm igkeiten
Ben utzer
ĠstÃ¤r ken
âĢĭ âĢĭ
eno vo
O ff
t ons
Ġc Panel
Ġb ur
ĠS econd
Ġre ct
qu em
Ġun c
th ank
Ġv etting
Ġsu chen
Ġen abled
to gether
ĠDaten qu
de lete
ĠUn iFi
Ġpr inc
Ġsc roll
pro ve
akt iken
An swer
Ġupv oting
Ġvor anz
ĠzurÃ¼ck zusetzen
Ġindic ation
gefÃ¼hr t
ifiz ierung
Ġport ion
Ġcopy ing
ĠSc ikit
Ġemploy ees
Ġequ ally
Ġpack age
ĠAbre chn
Ne w
Experienc ing
ĠBas ically
Des k
Ġabandon ed
Ġerne ut
nv ielen
ĠIntell iJ
ĠbegrÃ¼ÃŁ en
statt ung
G er
H e
N r
h ave
s elf
ed s
le ting
ĠS ymantec
Ġre ve
st Ã¶ÃŁe
ĠT om
ut reiben
Ġv o
Ġde ep
Ġj ump
Ġem pty
ia le
ĠRe ihe
ĠĠĠĠĠĠĠĠ ĠĠĠĠ
igh th
Ġfac ility
Ġprotoc ol
Ġverb unden
ĠMark down
au er
Ġconflic t
Ġbo ard
ĠÃľber wachung
ĠMe etings
Ġine ff
Ġmeeting s
Ġelect ed
ĠCon nect
Ġattrib ution
Ġunde leted
Ġangebot enen
Ġic on
ĠgeschÃ¼tz t
ĠViel zahl
Ġvoranz utreiben
p un
r am
t aken
w rite
at ar
re enshot
it Ã¤ts
Ġto ward
le b
Ġf ight
Ġf low
ro y
if ies
form at
ĠM edia
age ments
ĠR elated
ĠL ear
Ġinter ruption
The y
ĠAddition al
ĠSystem ausfall
akt ivitÃ¤ten
ĠJ ane
Ġbo ld
ĠGer Ã¤t
Ġsicher en
Ġ9 0
Ġsl hck
Ġprodu ced
plattform en
Ġey es
ĠEntsch uldigen
Ġdistin ction
ublik um
vet ted
biqu iti
O M
s l
s earch
Ġ ought
Ġc orre
ing u
Ġh Ã¶
Ġfor got
Ġk omp
Ġde pth
ĠH and
Ġ1 000
ĠRe member
Ġdef ine
Ġappropriate ly
ĠNe ustarten
ĠPat ches
ĠCh ang
Ġmer ging
Ġrepl acing
Ġsmooth ly
Ġhal ten
AM P
az on
Ġgesch Ã¤tz
Ġguarante ed
Ġje gliche
Ġrepost ing
Ġmid dle
ĠPrÃ¼ fung
C P
L Ã¶sung
a it
a fter
it ten
Ġh ier
ut able
ĠD am
Ġer ken
ĠAn meld
Ġtim ing
ĠN ighth
ĠDaten vis
Ġget roffen
Ġpr int
Ġoptim iert
Ġoptim izations
akt ions
Ġimpact s
oth et
Ã¤n der
Plattform en
Ġconst antly
Ġidentifiz iert
Ġerk annt
Ġine fficient
ĠOne Note
ĠBer icht
Ġrestr ic
Ã¤nd ig
Ġpublic ity
Um geb
ĠInhal te
des ktop
accept ed
Akt ualisierungen
Tr acker
Ġconver ted
Ġarchitect ure
Ġrat io
Kontakt ieren
ĠNighth awk
3 5
h ib
k ung
or a
Ġc it
Ġb onus
Ġp ing
Ġf ont
Ġin her
et ter
ĠS a
Ġquestion naire
ĠTh oughts
ĠM ehr
ĠB earbeitung
ĠE ffect
Ġinc lined
ese en
Ġed ge
Ġunderstand able
Ġ2 9
tig en
ĠSicherheits funktionen
... "
etz ungen
Ġhand ful
Wh ere
enz eiten
Ġvor hand
Ġdevelop ing
Ã¼rz t
ma z
ĠAc cept
ĠBedÃ¼rf nissen
Ġrev ised
ugg ing
Ġassign ed
Ġangep as
Ġze igt
ĠShop ware
Ġflex ible
ĠmaÃŁgeschneider te
ĠGew Ã¤hrleist
Ġcreat ives
+ +
F in
O R
P erson
W ith
b ro
m etriken
t ab
u ct
z iele
} ,
at ically
Ġs qu
Ġw all
ed its
Ġf ellow
Ġl acking
ĠW art
ĠP lÃ¤
ĠD uring
Ġad e
ite ch
ĠV L
ain ed
ĠL ow
Ġpl us
Ġman ager
Ġpr ere
Ġ2 20
rit ing
ĠServer belastung
Ġinform ing
plic ate
Ġfac es
Ġfew er
Ġel igible
Ġbus y
ĠSp itz
Ġstr ange
Ġ6 4
ph ones
Ġindic ator
bers ecurity
Ġregular s
lock ed
Ġaim s
Ġann oun
Ġrespons ible
ĠOb viously
Ġ200 8
Ġber Ã¼cks
Ġtable ts
200 8
Ġdiscour aged
Ġexcerpt s
ĠMon itor
Ġprinter s
Ġassum ption
ĠPrem ium
ĠAbonne ment
ĠMarkengr Ã¶ÃŁe
? .
T op
b rechung
f ass
p c
ch er
Ġh orr
ĠS ol
Ġn ur
Ġn iche
Ġg lo
pp er
Ġcon vert
Ġus b
gr ad
ĠH P
ab fragen
so le
Ġinter act
ĠUn less
ho ld
Ġreview er
Ġrem apping
ĠSicherheits patches
Ġwor den
Ġbl at
Ġindic ators
Ġcommon ly
12 3
Ġgef unden
Ġergriffen en
comm unity
Ġcompet itive
gn osen
ĠerhÃ¶h te
ĠDatenaufbereit ung
Ġaf raid
maz on
C om
b d
j oy
m icrosoft
n wir
or ge
Ġb arely
Ġb ackt
Ġun fair
ol ic
Ġas ide
for eseen
ere in
Ġk ill
Ġen force
ĠM itteil
op h
Ġsh ell
Ġintegr ierten
Ġser ies
ĠH yper
Ġ2 000
int osh
Ġpart ially
... )
erk zeug
Ġread er
Ġconsider ations
Ġcap able
ĠLe ave
Ġview ed
Ġbo il
ĠBed ro
Ġbring en
Ġformat s
Ġformat ted
Ġserious ness
obe i
Ġverschieden er
Ġ# ##
atis ierung
Ġwieder hol
Ġkrit ische
ĠIM HO
Ġsil ly
Encounter ed
Ġadvant age
imon ials
ĠAntivir en
Ġerweit ern
D ata
M ed
n t
u chen
z ip
Ġd ark
Ġw obei
Ġb i
an wendungen
ro ved
Ġun sure
Ġg reen
ĠA ru
Ġr ene
ĠF ile
Ġle ak
Ġinc orpor
du le
ĠG u
ap ers
fr ont
od ing
ĠÃ Ĺ
Ġpay ing
Ġpass ender
Ġkind a
Ġtest imonials
Ġresearch ed
Ġreopen ing
Ġmal icious
ĠGesundheits daten
Ġboost ing
Ġvalu es
Ġscript ing
wickl ungen
!! !!
Ġmaxim ize
Ġdisapp ear
ĠBetrieb ssystem
Ġcond itions
Ġfinanz ielle
Ad min
Ġdistrib ution
Ġlab el
Ġconv in
ĠPlug ins
ĠGewÃ¤hrleist ung
ĠAru ba
( "
A c
D on
D uring
E S
L ab
O U
] ?
b ucket
g Ã¤n
n on
r Ã¤
r ash
Ġc orr
ar ently
Ġre ality
Ġpro b
Ġl ately
Ġl enken
Ġon boarding
ĠP ract
ĠD ashboard
Ġr ant
Ġnot es
all ow
ĠC M
ĠU biquiti
Ġim mer
Ġbut tons
pr il
Ġem er
bo ot
Ġbest mÃ¶glich
ĠRe al
Ġdr iving
Ġel abor
Ġpatient s
Ġprof ess
Ġprof iles
Ġpass ed
ĠX ero
lin ik
Re g
PA CS
Ġchallen ge
Ġcy bersecurity
ĠEng ine
Ġhar sh
Ġappar ent
ĠVerschlÃ¼sselungs verfahren
ĠhÃ¤uf ig
ĠTrans l
**** ****
ĠEnd point
resp ons
Ġfundament al
ĠEntscheidungs findung
Ġarbit rary
ĠSpitz enzeiten
ĠMitteil ung
3 8
F AQ
Ġt ick
Ġp ending
le an
Ġun foreseen
Ġha ck
ĠD ep
Ġst um
Ġse es
Ġsh ot
ĠH igh
Ġthere by
ĠG ibt
Ġreg istry
ĠSt ill
Ġpart y
Ġbrand ing
Ġwor st
Ġ3 2
Ġpoint less
ĠLe eren
Ġmer it
Ġkey words
Ġcare ful
Un ix
Ġuner wartet
Ġrespons ibility
Ġcover ing
Ġtab s
Ġ200 9
Ġexpand ing
Ġannoy ed
Ġunde lete
ĠShop ify
Ġfire fox
ĠAbl Ã¤ufe
plÃ¤ ne
Ġencrypt ing
Ġungen a
Ġerken nen
Ġrene w
4 8
7 7
? ?
C ustomers
G e
S L
c led
h ard
i pping
l an
p erson
s ol
s telle
Ġt en
ar ter
Ġre vers
ver se
ĠT est
ĠT opic
ung soptionen
ĠW el
ĠD ritt
Ġso le
Ġst ab
Ġal together
ĠC ol
ĠC onf
Ġcall s
ition ally
oss ibly
ĠY et
ĠSicherheits protokollen
Ġent dec
Ġeng age
ĠEin fluss
Ġautom ate
vir t
20 21
Ġcontinu ed
Ġla zy
Ġtrans action
ĠBen utz
Ġpriv acy
uld igung
Ġbox es
Ġbegin nen
zure ich
Ġopport unities
ĠSicherheitsver stoÃŁ
ĠGit Lab
ifik ationen
ĠSkalier barkeits
ĠPrem iere
chang es
Ġhop ing
Ġhyp othet
Ġgenutz t
ĠQual ity
Ġconstrain ts
ĠSicherheitsaud its
ĠEffect s
? \
or ies
Ġbe mer
st atus
Ġv oters
ĠC ore
ĠE S
ĠE ither
ĠF Ã¤higkeiten
ĠAn lagen
Ġrec over
Ġem bed
Ġar t
ap az
olog ical
Ġbes ond
Ġexist ed
rupt ed
Ġgr und
Ġcy cles
Ġassess ments
ferenz en
Ġeinge leitet
Ġpure ly
Ġredund ant
schn itt
Ġridic ulous
Ġrect ify
8 00
= =
F S
b lick
f ach
Ġ Âł
in ent
it le
Ġp owers
Ġin tell
ĠS ys
su ming
Ġv irt
ul ations
Ġst able
Ġst ory
Ġal er
ĠM ein
ĠIn de
Ġad opt
ĠK Ã¼rz
ĠAn zeigen
Ġcont ract
Ġcl ut
ĠL enovo
Ġby pass
ern el
glich en
Wh ich
sh ort
Ġcontain ed
Ġmis le
Ġdro pped
ĠBest Ã¤tig
Ġcar ried
ĠBit bucket
Ġant i
ĠFunktional itÃ¤ten
Ġcompar ison
plo ys
Ġerwarte ten
ĠDatenqu ellen
Ġgrund leg
O f
d i
g ig
u ments
z iale
â Ļ¦
Ġbe ein
Ġof fen
Ġun w
Ġg ut
ĠT V
ĠA ss
ĠA ND
Ġr ough
Ġr ender
ĠB l
ĠE chtzeit
Ġum gesetzt
ĠV ista
Ġnew s
Ġgreat er
Ġmod ules
av ailable
Ġ5 1
Ġpass endes
Ġexp ed
Ġdefin itions
Ġoverload s
Ġmention ing
Ġtail or
Ġimportant ly
ĠTr ied
Ġlang same
ĠReg ular
200 3
ĠRes etting
ĠLog in
Ġbek annt
Ġmisalign ment
Ġcritic ism
DP R
etre ff
Ġintu itive
Ġaff il
Ġunver zÃ¼glich
Ġunapp roved
Ġvo ice
Ġprere quis
5 4
A I
b esch
i ends
n s
z ifikationen
is tet
Ġan omal
le ich
ĠS ache
ĠS earch
ĠT P
ĠT reiber
ag rant
Ġr ad
Ġst ance
Ġen joy
ĠE lect
Ġsh all
Ġch ances
Ġunder taken
Ġauf merksam
Ġob wohl
ffic ial
Ġread ability
Ġvis iting
Ġap art
We b
Ġneu er
Ġbring s
ĠNetzwerk konfiguration
upp et
Comm unity
ask ed
ĠEntsch uldigung
Ġhundred s
ĠVerk auf
ĠNetzwerke instellungen
9 0
? ).
h ip
p ha
Ġm otherboard
an ing
ĠS everal
Ġun friendly
ĠD aniel
ĠTh us
Ġst y
Ã¤ te
ĠM ay
Ġde g
ĠV otes
ĠV erein
Ġrec all
sch l
Ġem ploys
uel ess
An weisungen
vers org
Pro zess
ulner abilit
ĠCh eck
support ed
Ġknowledge able
Ġaim ing
Ġdist ingu
asch in
Ġincomp lete
ĠDatenbank abfragen
OO OO
weiter ung
Ġsatisf action
ĠJo hn
Ġant worten
ĠBerich ter
Ġflood ing
Encounter ing
ĠfrÃ¼ h
Ġintr usion
Ġfore ver
" ).
A R
E N
G PT
P C
f assen
m ust
o T
w a
er ved
Ġs ample
om bin
ĠA S
os x
Ġst ale
Ã¤ u
ĠIn d
ĠO ptimierungs
ĠG DPR
ĠVer m
Ġover ly
Ġgo ld
Ġpart ition
Ġmoder n
Ġcre ates
Ġsa ved
ĠEr halt
Ġdem and
alth ough
Ġbeh and
ope fully
ĠMarken entwicklung
li kt
Ġ6 0
ĠVers ch
Ġange wend
vis ion
Ġassu med
Ġexcept ions
ĠBenutzer erfahrung
ĠPr ior
no v
ustr ator
Projektmanagement plattform
ath y
Ġplug in
ĠProgram m
ĠJo el
Ġpen alt
Ġcomplic ated
ĠOptim ization
Ġcontributor s
ĠHTT P
ĠProblembe hebung
Ġpan els
Ġvereinf achen
âĢĥ âĢĥ
W ell
c onf
d urch
f ill
m aybe
n etworking
p ip
u z
Ġt iers
is iert
Ġp ubl
ed back
ĠI ll
Ġh its
ĠA mazon
if e
ec ure
Ġse qu
Ġse gment
Ġsp ons
uss ions
Ġproblem atic
Ġcall back
ib rate
Ġinter f
Ġ2 3
Ġprocess or
00 1
Ġconnect ors
inu te
Ġend less
Ġet h
ĠAkt ivitÃ¤ten
Ġacknowled ging
bers icht
Ġshort cut
Ġho ver
Ġbrow sing
ĠDatenver letzung
ĠDe v
Ġencour aging
Ġcomprom ising
Ġlack s
Ġsl ot
Ġmeaning ful
with out
ersh ip
Ġfield s
ĠPerson al
Ġoutput s
Ġsatisf actory
ĠAud its
Ġmass ive
ĠLÃ¶sungs ans
Ġbudget s
Ġskalier baren
ĠSyn onym
ĠFunktional itÃ¤t
Ġperman ent
Ġangemess ene
Ġspread sheet
Ġthous ands
gestell ten
antic ipated
Person ally
Ġelabor ate
4 6
? ",
E DIT
M ust
U I
p ecially
s ince
es en
Ġs ix
re ation
Ġc at
Ġb lo
Ġm inute
Ġf illed
ĠS omething
Ġre le
Ġas sure
pt ions
th eit
Ġver d
Ġer sten
aus ch
Ġfe hl
Ġoff ic
ra uch
Ġwant ing
ĠSoftware aktualisierungen
Ġro les
ĠSystem protokolle
av or
forder n
ĠEs pecially
Ġbl ank
leit en
Ġprefer ences
werk zeug
Ġgeeign eter
ĠCl osed
Ġdescr iptions
Ã¤h len
Ġda her
Ġkon k
Ġindivid uell
ĠWith out
wor th
ĠAct ually
Tag s
Ġbeant worten
Ġskalier bare
ĠFortsch ritt
ĠÃ¼berwach en
Ġmor ning
ĠIdent ifizierung
ĠSto ÃŁ
ĠDiagn ose
Ġfavour ite
Ġclut ter
Ġdeg ree
? ](
C omp
F ehler
L E
c ard
f ills
p apers
t ip
z iehen
Ġd iv
Ġp ir
al ing
Ġin box
ur al
ĠA M
ir able
ist ory
Ã¤ mp
ĠM ultiple
Ġad obe
ĠK linik
ĠO k
Ġtim est
ĠL ocal
Ġsch lage
ĠZ wischen
Ġrep air
ult i
ĠUn stimmigkeiten
ĠWh ether
ast ing
aS cript
Ã¤tz en
ĠRe ad
Ġback end
ĠFor m
Ġevery body
auf enden
iel t
An alyse
Ġsever ity
ex e
Ġagree ment
Ġdeal s
ĠZiel p
Ġport al
ĠVerbind ungen
Ġvirtual ization
ĠArbeits ablÃ¤ufe
ĠregelmÃ¤ÃŁ ig
ĠFehlern achrichten
hol en
ĠBr an
Ġinterpret ation
ĠRisik o
Ġpip eline
Ġhistor ical
syn c
Ġsozial en
ĠDatenvis ualisierung
ĠStoÃŁ zeiten
9 5
> ?
F unktionen
O ver
S everal
m aÃŁ
w iki
at iven
Ġbe quem
Ġe vol
Ġpro ve
ver stoÃŁ
ĠA LL
um es
Ġab usive
ĠM SE
ind ing
ĠF l
Ġser ial
stand ards
ĠSystem konfiguration
Ġins ight
Ġdem ands
Ġorgan izations
Ġsubject s
Ġaus ge
Ġexpect ing
Ġtrans l
Ġlarge ly
ĠAnwend ungs
ĠWeb Apps
ĠPr est
ĠPer formance
kon sist
Ġprodu ce
Ġrespect ive
Ġphr ased
ĠWer bung
Ġbother ed
geschn itten
mitted ly
Ġdistin ct
ĠGener ally
Ġperman ently
Ġmisunder standing
Work flows
Ġcorr espond
virt ual
G ener
a q
a ug
g ments
w ing
Ġt ons
Ġth umb
it ively
Ġan sp
an Ã¤
Ġun ivers
Ġun anticipated
ter ey
ĠD avid
ir es
os it
ad ed
Ġmo dem
ier enden
Ġsp aces
ĠK VM
ĠN atur
Ġbest Ã¤ndig
ĠSch ul
Ġemail s
ĠSystem neustarts
icht linien
Ġakt iv
Ġdoc uments
ĠSh are
ict ion
Ġstr ing
irm a
Ġbrow se
As k
Ġobser v
Ġref ining
Ġinconsisten cy
ympt ome
Server Fault
onest ly
ĠDatenschutz verletzung
Ġdiagnost ic
ĠMon terey
Ġreli ability
Ġpen al
Ġnav igate
cha ften
Ġdetermin ed
Ġcod ing
vm ware
ĠVis ual
Ġagre ed
ĠBis lang
ĠOrgan isation
Ġangepas ste
Ġentdec kt
Ġhypothet ical
A L
M ac
f aden
k ann
l ar
â ģ
Ġc ables
Ġb anner
Ġh ence
ĠT ake
for ward
Ġzu geschnitten
ul ated
Ġle ts
Ġinc ent
Ġrec onnect
ack intosh
sch a
Ġrel ation
Ġpersist ent
Ġ3 00
Ġ3 60
Ġexist ence
Ġvis ited
Ġplace ments
Ġcorrect ed
Ġacc um
Ġi hr
Ġ4 8
ĠSp am
ha ft
Ġacknowled ged
sp am
Ġload s
ĠSc reen
Ġattract ing
Integration en
Ġconsist ently
Ġrev ise
Su pport
ĠWachstum s
Ġpick ed
ĠChat GPT
ĠMarkt wachstum
Ġunautor isierte
Ġharm ful
Ġsn ark
Ġfal se
Ġrecal ibrate
Ġreibungs losen
Ġreferen ced
Ber icht
Ġmangeln de
Ġaccident ally
ĠFehlerbehebungs maÃŁnahmen
zeich n
hin weis
Ġbemer kt
Ġprerequis ites
ĠIll ustrator
9 8
A S
D ashboard
M ost
P art
m al
o ke
r ichten
w ill
Ġs ister
Ġw ohl
Ġh ouse
est r
ĠS ymptome
Ġe lements
Ġst ar
Ġab st
ge mÃ¤ÃŁ
ĠB I
ĠB ro
Ġsp ir
ĠV BA
Ġcl ueless
Ġspec ified
ition al
Ġqu otes
Ġlet ting
akt or
Ġbes uchen
Ġmod ifying
Ġread able
ĠAnruf zeit
ĠEin stieg
Ġvor Ã¼ber
Ġspam mers
arbeit ungs
ĠAb out
Ġ201 6
Ġevent uell
Un sere
Ġrequir ing
Ġhold ing
Ġspecial ized
ĠRechnungs stellung
Ġoverl apping
Ġbesch reiben
ĠEd itor
Ġpurch ase
flag s
Ġdest roy
ĠBeteil igungs
Ġappe ared
Ġbat tery
aSh op
Ġverd Ã¤ch
ĠPrest aShop
M aybe
h at
k apaz
m ain
t op
t ype
v anced
Ġc entral
Ġin nov
Ġh or
Ġh ide
Ġh int
Ġun ix
am big
Ġr ation
iz ieren
ĠC ase
Ġle isten
Ġte ach
Ġwer t
... ]
akt ionen
get s
Ġinv ite
ash ion
ex cept
igin al
Ġsignific ance
gan gen
ĠlÃ¶s chen
ĠAktualis ieren
Ġmer its
ĠÃľber lastung
Ġturn ing
unter schiede
roll er
Ġbew er
Ġmoment an
Ġhead er
ĠAg ile
ĠMed ical
ĠMed izin
konf likten
produ kten
ĠAbst urz
ĠConsider ing
Ġblie b
Ġcontr ast
Ġeffektiver e
ĠTL S
Ġband width
Ġantic ipated
ĠSD K
Ġbackt icks
0 9
M oder
O b
a per
d omain
n KÃ¶nnten
p flich
Ġt on
re ated
ent lich
ĠS witch
ld ers
ĠA ble
Ġst agn
Ġen for
ft opic
ĠC entral
ĠM em
and er
Ġde grad
ĠV oting
Ġch ose
Ġsol id
Ġsch w
to ols
ult ate
Ġjust ified
Ġrest oring
fr ist
ĠInvest igating
Ġfix es
Ġgr oups
Ġcol um
Ġpres erve
ĠComm erce
Ġadmin ister
Ġclar ifying
Ġcontinu ous
fl uous
unter brechungen
Ġinvo icing
Ġsect or
Ġsuper fluous
bere ich
ĠKe y
Ġrepe at
ĠID E
Ġfal sch
Ġworkar ounds
mon itor
Ġsevere ly
aut om
Ġadvant ages
Ġrepeated ly
Vers ion
Sc ans
ĠprÃ¤z is
Ġtwe ak
techn ical
Ġplagiar ism
ĠSur face
ĠLear n
" :
f ers
f Ã¤h
s pr
s tellungs
Ġt Ã¤
er cial
al le
et ch
Ġn ight
Ġun respons
Ġun zureich
Ġfor ced
am s
ĠD O
Ã¶ tz
ist s
Ġcom b
Ġab gest
Ġdis abled
Ġanswer ers
rom itt
Ġpost ers
low ing
Ġj Ã¼n
ĠVer y
Ġgu est
ru ction
com pass
sch ritte
Ġar ise
we ich
ĠTe le
wh el
Ġverb inden
Ġreal ized
Ġgew Ã¤hr
Ġinit iate
Ġcustom ize
Ġcompl iant
ĠRÃ¼ck ruf
ploy ment
Ġexam ined
Ġexplan ations
ĠSc reenshot
Ġdisplay ing
Ġdisag re
ĠFe edback
ĠKundendienst team
lus te
ĠSee ms
Ġrestrict ion
ĠWork flow
Um feld
Sh ell
Ġboot able
ĠEff ektivitÃ¤t
Ġconfigure d
Ġstrict ly
Ġcompet ition
ĠZugriffssteuer ung
ĠBeisp iel
Ġdee per
yy yy
Ġjudge ment
Ġreconf iguring
ĠGesamt leistung
Ġbestimm te
lÃ¤r ung
poin ts
Ġverw alten
Ġwes halb
di kt
durch schnitt
0 3
P ad
U S
c ore
i ations
k un
r ong
z ust
on om
ou te
Ġan pass
ar te
ĠW erkzeug
ĠA pril
Ġso ziale
ĠU s
ĠAn n
Ġge m
Ġcl ue
Ġcl uster
Ġqu ant
Ġnew b
Ġfir ms
ry pt
Ġins pect
enden cies
Ġincre d
Ġfr iend
Ġ8 0
irect ory
ee k
fall en
the y
Ġprop osing
Ġseamless ly
Ġrespond ed
Ġber aten
Ġreplace ment
Ġmaxim um
ĠBerich ts
ĠExam ples
Ġeduc ation
ĠgroÃŁ e
Ġindex ing
ĠVirtual Box
ĠLa ptop
Ġconsult ation
Ġinflu ence
kann theit
ĠAble ton
ĠjÃ¼n g
kun ft
E ST
L iebe
b etr
c lipse
g l
g abe
m ote
p aste
t le
ch ten
Ġh Ã¶ch
Ġh ammer
Ġun inter
Ġl and
ver walt
ĠT re
ĠA ccording
Ġk ernel
um ps
age able
end ar
ĠPro duct
Ġtr ad
Ġcomp are
Ġuns atisf
se in
ĠSo fortige
Ġ2 1
Ġaccess ed
ator en
Ġunter durchschnitt
Ġbre aking
ĠUm fang
Ġanalys es
av il
ne ed
tect ed
In tegr
ĠMet ro
li ver
back up
ĠNot hing
20 11
ĠdurchgefÃ¼hr te
Ġauthor s
Ġsk ill
ĠerhÃ¶ ht
Ġroom s
ĠZahlungs methoden
Do kumentation
sc ans
ĠZo om
Ġwichtig e
mark s
Ġfrustr ation
Ġvend ors
uthentifiz ierung
ok ub
ĠprÃ¤ dikt
Ġopp os
achr ichtig
Ġangebot en
Ġfunktion ieren
Ġprep ared
Ġnaht lose
ĠvollstÃ¤nd ig
ĠJav aScript
Ġindepend ent
Ġunreg istered
ĠgeschÃ¤tz t
ĠPract ices
Ġoffic ially
Ġration ale
7 6
O ptimierungs
f irma
g ers
i pl
m ar
w ell
w usst
Ġ }
er y
es her
an while
Ġf ashion
ĠI oT
Ġpro active
Ġl osing
ĠT ar
ĠT ra
Ġcon sole
Ġne uen
um ably
ĠU P
ĠM oment
Ġver folgen
ĠIn tel
ht ml
ther net
iv ile
Ġpl Ã¶tz
ult ane
be mÃ¼hungen
Ġall es
Ġjust ify
Ã¼ber wachung
ik es
ĠLÃ¶s chen
ĠAdd ing
Ġexpl o
ĠSicherheits prÃ¼fungen
ĠFehler hinweis
prÃ¼ fen
ex pl
em ail
Ġcol ors
au igkeit
Ġput s
Ġgl ance
Ġcare er
ĠInter ested
Ġda fÃ¼r
fortun ate
Ġredu cing
ĠDes ign
Ġhind er
Ġconsist ency
ĠGesundheitsdienstleister s
comm on
Daten analyse
des ign
hÃ¤n gen
Ġreprodu ce
ĠHD D
alyt ik
CA D
ĠSkal ierung
ĠDam it
Ġhorr ible
Ġintell ig
ĠgewÃ¤hr le
okub ai
5 1
5 8
B y
Ġw ane
Ġm ith
et te
Ġre word
Ġr end
Ġund o
gr ades
Ġex tend
ill a
our ne
ier end
ier ende
Ġse gments
ies en
Ġac ron
ĠG en
Ġper mitted
Ġrem ed
akt ion
Ġlog ical
gle ich
Ġfr esher
ĠMarken prÃ¤senz
ĠzusÃ¤tz lichen
ĠzurÃ¼ck gefÃ¼hrt
ĠCl osing
ĠLeist ungen
Ġcy cled
Ġguess ing
Ġdeploy ing
ĠEdit ing
ĠComp onent
ĠiP ad
Ġextens ions
Ġwide ly
Ġzeit na
Ġnav igation
ĠAnpassung soptionen
âĶĢâĶĢâĶĢâĶĢâĶĢâĶĢâĶĢâĶĢ âĶĢâĶĢâĶĢâĶĢâĶĢâĶĢâĶĢâĶĢ
ĠMarkenbe kanntheit
Ġjo bs
Ġelimin ate
Ġsucceed ed
ĠKommunik ation
O P
f in
f irst
k bd
o ptim
w in
w ould
x imate
y es
er ror
Ġd umb
is ierter
Ġm us
an ity
il st
Ġn amed
st ream
Ġof ftopic
Ġun fortunate
ĠW or
ĠD ell
Ġr ound
ad ly
Ġst age
ill ion
Ġim ager
ĠE U
Ġintegr ates
ĠH i
Ġpl anned
ck en
ood le
ĠSoftware fehler
ĠServer kapaz
Ġ3 4
ĠBe ing
An griff
Ġcorrect ions
ex ample
Ġcompl aining
answer able
install ing
ren g
cle an
Ġvide os
fficienc ies
ĠImplement ierungs
Ġrobust er
Ġlangu ages
ĠTechn ology
Ġsent ences
pos ition
Ġcur ios
ĠOf ten
SU S
16 8
Ġ; ;
Ġexc use
Ġcod es
Ġcook ies
Ġerweiter te
ĠAuto CAD
ĠProj ekte
ĠBlack board
âľ Ĺ
ĠVide o
ĠBerichter stattung
ĠZwischen zeit
ĠgewÃ¤hrle istet
Ġzeitna he
Ġimager y
b ru
n In
er ichtet
ĠI E
as king
un te
Ġg oog
id ed
im er
ver such
ere cht
Ġen compass
Ġdis miss
ĠM igr
ĠL ook
ĠN one
rec ommend
ĠG UI
ĠVer lust
Ġper t
Ġper ipher
pr ache
ungs gemÃ¤ÃŁ
Ġnew com
ik atoren
Ġrel ates
Ġbrand s
Ġappro ximate
Ġsim ultane
etz werk
Ġrefer red
Ġchat room
ĠTelefon an
zu gen
ĠNo body
fort able
Ġbis lang
Ġscre w
eng ine
Ġign or
Ġvol umes
Ġ9 5
Sp ecifically
Ġloc king
zial isten
Ġcar ry
Ġmeine m
ĠPower Shell
Ġdead lines
ĠStand ards
Ġrever ting
ĠEd its
DM A
ĠVM ware
Ġdetermin ing
ĠAbl auf
Ġcook ie
Per haps
Ġstrugg ling
Ġfeas ibility
thank s
Ġreve al
Ġvorhand en
Ġaler ts
wa hr
athy a
Ġmith ilfe
B ot
P ort
S k
S ometimes
c onnect
k ampagnen
r is
t ies
z ule
Ã ©
Ġ ip
Ġt ang
er c
Ġb ank
Ġf ost
ro se
Ġn ons
ur b
ot ic
ich ts
Ġcon gest
su ally
ĠC rash
ĠM oodle
Ġver suchen
Ġse hen
ĠE clipse
Ġtr ies
ĠR ichtlinien
Ġsol icit
du plicate
ese hen
Ġinter actions
ĠVer stÃ¶ÃŁe
Ġqu oted
Ġpart ies
Ġpart ial
Ġmoder ating
Ġag gress
ap ache
br acht
Ġtyp o
Ġcol le
Ġtarget s
Ġange ben
tr act
Ġadministr ative
ster min
Ġbig gest
Ġplay er
200 7
ĠNO D
ĠReview ing
Ġdire kt
-------- ----
Ġrefresh ed
Ġbegr enz
Ġmar gin
Ġreferen cing
IO N
Ġlibr ary
Ġcompil ed
ĠBig Commerce
Ġrecalibr ating
ĠWart ungs
Ġcongest ion
< <
D ienst
G ood
a uss
c ern
p lease
Ġc iv
Ġp osing
ch at
Ġin sist
Ġre ly
un ction
st yle
st reng
Ġg aining
ol ve
Ġha cking
Ġsu m
um ente
ĠC I
ĠF F
ĠPro bably
ĠO ct
ĠO liver
Ġge pl
Ġch art
ĠN ever
ĠG mail
ĠTo day
ell ed
Ġ[ ...]
ĠVer arbeitung
Ġste ady
Ġpr ice
Ġpre is
ĠRe mo
ĠZeit ra
Ġeffect s
med izin
forder ung
ĠEr weiterung
heit en
Ġcorrect ive
Ġweb in
Ġlie gen
fehl ern
Ġport s
Ġhin weisen
Ġsk ip
ĠAns ible
Ġhead s
Ġface book
post ing
Ġaufgetreten en
ĠDatensper re
Ġfrustr ated
Ġze igen
Ġheav y
ĠÃ¼berwach t
ennt nisse
Ġcontroll er
kompatibilit Ã¤t
Ġmicro services
Analys en
Ġanomal ies
Ġangewend et
aug ht
Ġoppos ite
K onf
S icherheit
b ote
c ap
p in
z ieren
en cing
ing e
Ġp ose
ch tig
ro s
ic a
ĠS ep
Ġre per
st art
Ġpro s
Ġpro of
ur d
Ġun f
ig ten
ĠD ue
ail ing
ĠTh ough
ĠTh ings
Ġst att
Ġse m
Ġer r
Ġer w
ĠV al
Ġtr ilogy
pl ays
ĠR ol
ĠG et
ĠG PU
ĠDaten zugriff
Ġper tain
Ġimpro per
Ġmess en
Ġprevent s
Ġ20 22
Ġfr iends
ĠMarken agentur
Ġblog s
ĠunterstÃ¼tz e
ĠKon ferenz
fl ash
ĠAr ch
SE T
Ġmis m
ĠSchutz maÃŁnahmen
ĠAny way
ĠMe anwhile
Ġvol unte
Ġdeploy ed
Ġpublic ly
ĠAp ologies
ĠZusÃ¤tz liche
Be im
ĠEvery thing
Ġweak ness
Ġpurch ases
Ġclos er
Ġbevor zug
Ġfunktion iert
Ġren amed
Add itionally
Ġche ap
Ġlibr aries
Rep orting
ĠEreignis se
Ġinser t
Kon to
Ġprob able
lean er
Ġbesond ers
Ġmisle ading
Ġexped ite
Ġdistingu ish
osit ory
Ġschw ache
B etreff
C on
G oogle
W er
b ur
f unktion
l ad
n The
r est
re al
Ġd istr
Ġthe oret
Ġf row
Ġh all
il ing
un less
ich ern
ĠA D
Ġcon vention
Ġprov en
ĠM X
ĠIn fl
ĠB ald
ĠE SET
Ġer f
Ġer reich
Ġsh or
ĠK now
ĠV agrant
ĠH ier
ĠL ooks
og ames
Ġunder way
stand ard
urr ound
Ġlet ter
Ġaccess ibility
ĠUnter suchen
ll o
Ġben ch
ĠRe move
att y
Ġsa ving
Ġperson nel
Ġremain ed
Ġgr anted
Ġarr ive
Ġcontrib ution
nI ch
Ġworth while
Ġsend ing
Ġhost ile
ĠAny one
ivers ary
Ġaltern ate
Ġest imate
pre view
ĠRechnungs stellungs
ĠErgeb nissen
Ġsufficient ly
ater ial
Ġrandom ly
Ġbeobach ten
Ġzusammen zu
ĠBerich te
Ch arm
ĠZugangs steuer
ĠgrÃ¼nd lich
Ġ27 001
TF M
Ġmar king
Ġprep are
Ġfortschritt licher
ĠSicherheitsvor fall
Ġrein for
Ġmix ed
Ġrestric ted
Ġglo bal
Ġincred ibly
ĠTre llo
Ġunsatisf actory
Ġpert inent
Ġwebin ars
= '
? (
F e
P l
a hren
b ank
b ooks
c p
c s
l im
l oss
m ern
n Our
p le
in formation
on se
at ical
it ative
Ġd ah
Ġb ooks
le ep
est ing
ĠS hopping
st abilitÃ¤t
Ġg erecht
ĠT yp
Ġor dn
ust ausch
Ġer lit
Ġad here
Ġtim elines
ĠR ather
Ġout lining
lic it
ste chn
pro cess
Ġrest ored
ick en
Ġrel ative
Ġhard ly
Ġbes ides
ĠKunden bindung
Ġhand y
Ġsein en
Ġcap ital
ĠKrankenhaus auft
app lication
Ġview ing
Ġsecure d
Ġclar ified
Ġdep endencies
ĠDe velop
ĠCon st
Ġkrit isches
ĠPy Charm
ĠLog itech
Ġexc ited
Ġcompon ent
Ġeffizient er
DM I
accept able
Ġassum ptions
Ġnomin ation
Ġrew rite
ĠXY Z
ĠZur Ã¼cks
Ġdang erous
ĠprÃ¤zis ere
Ġordn ungsgemÃ¤ÃŁ
Ġerlit ten
% .
3 1
E D
I R
M od
c orrect
i est
k in
Ġ Ã¤u
Ġt orrent
Ġa rose
it ches
Ġp ull
ĠI vo
Ġre ven
il os
ĠA T
ec ks
Ġv oter
ĠC urrent
ĠC rucial
Ġdis plays
ĠB eta
ĠPro vid
ĠK ombin
Ġge gen
Ġout come
Ġein setzen
Ġdes ire
Ġauf zunehmen
Ã¼ber prÃ¼fungen
Ġfre ut
ĠUnter schiede
Ġoff line
Ġset s
ienc es
Ġpo ol
ress ourcen
ĠĠĠĠĠĠĠĠ ĠĠĠĠĠ
ze igt
ĠDo k
ĠAl ready
Ġlist en
ĠEn h
Ġdem o
Ġdem ograph
Ġstand ing
Ġcol our
ĠAkt ionen
iqu ette
Ġgl at
Ġveral tet
ĠAr beit
ĠWeb masters
Ġeing eh
Ġcra zy
Ġbegin ner
ĠFinanz firma
ĠSS H
Ġpopular ity
Ġfilter ing
Ġut ility
ĠSpe zifikationen
45 67
trag ung
Ġpush ed
ĠAlgorith mus
Ġscenar ios
Ġbevor zugen
ĠSimp le
Ġbegeg nen
ĠPlÃ¤ ne
ĠVerkauf s
ĠSchul ungen
Ġgem acht
Ġreper c
" ),
5 3
7 9
B ere
F C
U RL
W as
b ug
e lect
h ink
o per
s hopping
Ġ `
re lease
Ġm aschin
Ġf lo
Ġand roid
et t
ĠS imilar
Ġn ative
Ġg ering
im al
us hing
ĠD rop
hr is
Ã¤ re
Ġdis put
Ġup set
ĠF L
ĠF ix
Ġtr at
ud ge
pl atform
ĠL ate
Ġthem es
Ġsc op
ungs prozess
Ġnew est
ah men
Ġben utzer
00 00
ĠRe open
wend en
Ġdr am
mp eg
Ġhand les
Ġstart up
ĠEr stellung
ĠKr on
Ġduplic ated
Ġsure ly
ĠVerbesser ungs
Ġprogram mer
Ġlie ber
fehl ers
Ġresearch ing
val id
gin x
ĠFin ally
Ġstream lined
Ġine fficiencies
ĠSchwach stelle
gesch lagen
Ġbump ing
def in
ĠerhÃ¶h ten
Ġqual ify
Ġpress ing
Ġunk nown
ĠPart ic
Ġtrick y
Ġpun ish
patch ed
Ġadap ter
Ġworkst ations
ĠBount y
ĠLade zeiten
ĠpersÃ¶n lich
Ġreconc ile
Ġsummar ize
Ġrevers ed
short cut
ĠfrÃ¼h est
Ġcorrespond ing
Ġdegrad ation
Ġcurios ity
streng ungen
Ġreperc ussions
D r
D raft
M eta
O ffice
c ustomer
m ale
r aten
v as
z ing
er leb
Ġs urround
re f
it ored
Ġc p
Ġc hr
Ġc ite
Ġc aching
Ġp air
Ġm ut
Ġg ent
ment ion
Ġr apid
Ġk illed
Ġdis allow
ĠO h
Ġwas ting
ĠR ufen
ĠH as
ĠL iste
Ġcomp osing
ĠG etting
Ġdig est
de pth
be halten
Ġper ception
read ing
ah oo
ap ter
ann ers
ĠRe port
lo sure
ĠSicherheits problem
ĠSicherheits prÃ¼fung
Ġwhere as
Ã¤ch e
ĠEn suring
Ġmon itored
Ġfr ankly
Ġgr Ã¶ÃŁ
tokol l
ĠComm s
ĠShould n
ĠÃľ bersicht
Ġpower ful
ĠPre liminary
ĠAny thing
Ġcopy right
Ġnotice able
Ġconsu lting
Ġrev amp
Ġoccurr ing
peration en
ĠSpe zialisten
ĠgewÃ¼nsch t
product ive
Ġentsprech end
ĠhÃ¤uf ige
Er stellung
Ġremind er
Ġdisconnect ions
ĠNeu installation
ĠTechnolog ien
Ġkomp romitt
Ã¤nder t
ulnerabilit Ã¤ten
worth y
ĠtÃ¤ glichen
weich ungen
ĠKombin ation
I X
I NG
T W
b etter
m or
t l
Ġ Â
in nen
Ġw ater
or en
ch ar
ch estr
Ġm uss
as ks
ver lÃ¤ss
ĠA SUS
Ġz Ã¼
th an
Ġk Ã¤mp
ay er
ĠB o
Ġsh ar
ĠK Ã¼rze
ser vers
ĠH ackintosh
ab s
ab st
ĠDaten integrations
Ġar ising
Ġexper iment
bl ed
Ġprocess ed
ll t
ĠSoftware produkte
od ay
Ġbl ame
alth care
Ġph ilos
Ġfr esh
ob ile
ĠVers te
ĠApp arently
ĠÃľber prÃ¼fen
ĠDatens Ã¤tze
Ġport folios
Ġsort ed
ĠSchutz es
Ġobject ion
system e
ĠBereich e
Ġexpand ed
Ġenter ed
Ġpie ces
Ġvi able
Ġescal ated
Ch at
Ġdest ination
Ġtrotz dem
ĠAuthentifiz ierung
ĠAbonne ments
plÃ¤ nen
ĠProfessional s
Ġpotenziell er
ĠThink Pad
arb age
pun kte
ĠhÃ¶ flich
Ġblat antly
person al
ĠKÃ¼rz lich
ĠPrior itÃ¤t
zeichn ungen
Ġdah inter
0 8
D ienste
E very
L et
T B
T oday
g el
w ho
Ġ ..
Ġc ent
Ġb its
est s
ĠS ame
ĠP ar
ĠD M
ĠD enn
Ġst ays
Ġnot icing
ĠC SS
Ġver zÃ¶ger
Ġse it
ber icht
ĠR end
ĠR ahmen
Ġtime out
ĠVer kehr
Ġbr ain
Ġguid eline
Ġover whel
Ġhe art
ĠĠĠĠĠĠĠĠ ĠĠĠĠĠĠ
Ġfollow ers
ert ifiz
ĠIs sues
ĠVor hers
ĠZugriff e
Ġhand elt
In ter
Ġform al
Ġapolog izes
ĠzusÃ¤tz licher
Ġprefer able
Pro gram
Ġdifficult y
Ġaction able
Ġsecure ly
Ġstat ist
ek ten
gre g
Ġreinstall ed
Ġbin ary
Ġeing erichtet
Ġcount ry
Ġassoc iation
Ġrepl ied
Ġfo lders
imm t
Ġut ilities
Ġetwa igen
ĠLog s
Ġdescrib es
25 5
Ġfa ith
ĠSe ite
Ġren ame
ĠMarkenbe wusst
ĠSynchronis ations
ĠCyber an
ĠAutom atisierung
ĠSimp ly
ĠInvestitionsdaten analyse
Ġcoordin ate
ĠvorlÃ¤uf ige
Ġsegment ation
Ġrele ases
ĠAM D
ĠBran chen
Ġwohl behalten
Ġuninter rupted
Integr ations
zule gen
Ġciv il
Ġerreich bar
6 8
K unden
O h
O ther
R T
a el
g elÃ¶st
r al
s ect
w art
re w
re ally
it able
Ġan halten
al y
ar ra
Ġre act
Ġpro xy
ver b
ĠA V
Ġz un
Ġz us
ĠD ate
ist or
th eless
Ġsu cks
Ġso ck
Ġmo dule
Ġex erc
ĠC ell
ĠC DMA
ĠM ess
ĠB u
ĠB eck
Ġout lines
ĠH istory
ĠL ernen
ĠSu ggested
rec overy
ĠG ra
anc y
Ġsc ores
ĠAs p
auf nahme
rep anz
Ġspezif isch
ron ics
ĠAnge bot
Ġfun ny
Ġbas ics
Ġspam ming
IT E
ĠOS X
Ġ201 5
Ġho ffen
Ġtrans it
ĠOnline prÃ¤senz
Ã¤h n
ĠDe vices
Ġconst it
Ġ19 2
ĠZahl ungen
Ġhim self
Ġgemeld eten
Ġers ch
ĠKompatibilitÃ¤ts problemen
Ġdecid es
ĠHe ad
Ġges tellt
ĠMarkt ent
Ġbeobach te
Ġstrengthen ing
Ġlay er
Ġchann el
Ġinterpre ted
ĠKonfigurations Ã¤nderungen
Ġgro ÃŁer
Ġrepresent ative
Ġdepart ments
Ġeduc ate
orm al
Ġburnin ated
Ġtempl ate
Ġcit iz
ĠEngine ering
Ġspir it
Ġwert vol
Ġbewer ten
ourne yman
ĠGen auigkeit
hink le
Ġphilos oph
. ).
0 2
1 000
< /
H ome
I N
O k
b an
b ases
b usiness
d ing
e mp
k omp
w and
w ind
Ġd etr
ou l
is ierung
Ġan fordern
al ibr
ĠS M
ĠS orge
Ġe lement
ĠT otal
ĠA E
Ġha bit
ĠD u
ĠD RM
Ġst Ã¶rt
tem ber
Ġcan ned
ĠC D
ĠK ind
ĠAn zahl
Ġtr ial
ber t
Ġour selves
ĠR andom
ĠN on
ink ompatibilit
Ġrep ository
ĠVer d
Ġcomm ercial
ens es
ÃŁ en
Ġoptim ale
Ġunter schied
Ġnew ly
Ġdur ation
Ġent spr
Ġprompt ed
ze pt
Ġins p
ĠMarketing aktivitÃ¤ten
In vest
ĠDies er
sp ace
Ġho he
tr l
Te chn
ĠGesund heit
fl Ã¤che
Ġobser ving
ĠPre ise
alt ung
Ġreturn ed
leg t
AT E
Ġumfass enden
plan ung
Ġbar r
Ġfam ily
Ġges etz
ĠRes ultate
Ġetwa iger
amer as
Ġsn ipp
Ġzeit nah
Ġcommunic ations
Ġsimpl ify
ĠRabat ten
ĠPDF fill
ĠNetzwerkver bindungen
ennt nis
onent en
Ġlangsam en
Ġimpl ies
ĠErfolgs gesch
ĠberÃ¼cks ichtigen
Ġincorpor ating
Ġrough ly
Ġrender ed
Ġsequ ence
anÃ¤ le
ĠEU LA
ĠTelefonan ruf
ĠConst ructive
ĠZurÃ¼cks etzen
Ġentspr icht
ĠPDFfill er
: \
A U
D E
E F
F aced
i very
k enn
o ad
z illa
Ġ Ã¤hn
Ġs ys
Ġs ym
Ġd u
Ġd ot
ed ora
Ġin line
Ġbe fÃ¼r
Ġg el
id ung
ĠA RM
ĠP owershell
Ġwh om
Ġex changes
ĠC reate
ĠU sually
ĠM okubai
Ġer arbeiten
ĠPro cess
ĠPro tokollen
ant wort
ĠH DMI
Ġrep hr
com ments
ĠSt ream
Ġthem ing
Ġsc anners
bl ing
Ġrem apped
ĠAdd ress
bs cr
Ġident ification
Ã¤ch st
reich ung
Ġoper ate
Ġap ache
ex cel
ex perienc
em ing
Ġgr and
Ġvor her
ĠzurÃ¼ck gesetzt
Ġseem ingly
Ġslow er
sh ip
Ġlang frist
Ġsubs et
ĠHello Sign
Ġign oring
system s
ĠAnalys etools
Ġwarn ings
la imer
Ġconvers ions
Ġfreund liche
Ġdecid ing
Ġunbefug ter
Ġut ter
bed Ã¼rf
Ġdescrib ing
Al though
Ġcollect ed
Ġerz ielt
Ġclaim s
Ġreibungs lose
ĠGener al
ertain ly
sub jective
Ġburnin ate
oret aq
Ġadap ters
ĠverstÃ¤r kt
Ġtempl ates
Ġbestand en
Ġexcess ive
ighten ed
ĠFl ash
ĠBI OS
Ġcolum n
Ġunrespons ive
ĠKnow ing
ertifiz ierungen
ĠErfolgsgesch ichten
4 2
A A
A uf
A uthentifizierung
B ecause
F urther
H elp
I d
M any
S chlÃ¼ssel
X X
d s
e ing
h erstellung
s omething
t ouch
u ed
Ġ %
Ġd ut
Ġd iver
Ġd imin
Ġc aps
ch rome
an ter
Ġun available
Ġun answerable
ot t
ag on
ĠW ide
ĠA C
Ġcom fortable
Ġv ac
gr at
Ġal ter
Ġdis like
ĠM iss
ard less
ĠE thernet
uf e
Ġimp eding
Ġge gebenen
ĠL O
ĠSu ite
Ġmed ium
so ever
og en
Ġ[ âĢ¦
Ġwhat soever
lud ed
rit ts
ĠUnter brechung
ĠQ ot
Ġconc rete
Ġeng aged
Ġ3 5
Ġvers us
Ġtyp ed
ĠAl s
fÃ¼hr ende
Ġtool tip
ĠNe ither
inst it
Ġdevelop ed
sh irt
Ġplay ing
ĠMust er
ĠRestart ed
Ġincreasing ly
Ġdeb ug
Ġexec utable
ĠVorte ilen
Ġdomain s
Ġcar es
ĠChat Bot
ĠEvery one
Ġargument ative
Ġlicens es
Ġremote ly
eth eless
ĠFehlerbeheb ungen
Akt ualisierung
Ġfinanz iellen
Ġnu ke
Ġreconf igure
Ġpip elines
Ġfortschritt liche
ĠUnder stand
Ġnatur ally
Ġade quate
Ġconvin ced
ĠZielp ublikum
Ġgent le
ĠMarktent wicklungen
" ;
> )
B r
H aving
N AP
R Q
T oo
U se
a a
b Ã¼
l as
n u
o ology
p m
er geb
Ġd ann
Ġp it
as cript
Ġy eah
ĠS al
ĠS ichtbarkeit
ĠS athya
Ġe p
Ġg leich
Ġg arbage
ig est
ig rate
Ġfor b
ĠW ireless
am eter
ĠD PI
Ã¶ hn
Ġk ick
Ġso ft
all oc
ort ant
ĠC all
ĠM ulti
Ġapp le
ĠB ar
op in
ĠH is
ĠH Ã¤uf
ab el
to ol
ĠDaten spe
ĠSt Ã¤r
Ġconf ig
Ġact ing
pr ior
ied r
Ġar row
Ġhe ading
ĠSch oology
ĠQ NAP
ĠSicherheits richtlinien
Ġinform ative
Ġown ership
ĠZu kunft
Ġbereit gestellten
Ġvor liegen
Ġlimit ing
Ġpol ite
Ġdefin ing
folg ung
20 12
tr ans
ĠCont rol
vis ions
Ġmiss ion
Ġperiod ically
En g
izien te
Ġpropos als
Ġenthusi ast
Ġdeliver ing
ĠMore over
integr itÃ¤t
Ġcomplex ity
DM arra
ĠCC leaner
Ġviol ation
ĠEins ichten
Super User
ĠLink s
Ġappe al
Ġthous and
TL S
fil ter
Ġineff ekt
Umgeb ungen
Ġungena ue
ĠDritt anbieter
Ġstab il
Ġsty les
Ġinnov ative
ĠInfl uencer
Ġchr on
0 6
4 3
G o
N etzwerk
S uch
c opy
d isk
o om
p ol
p ack
p assw
r ange
w ireless
on ar
on der
re icher
or ation
Ġp ul
Ġm and
ĠI N
ĠI de
te ilen
ĠS per
ĠS ound
Ġn iedr
id s
ich ael
ĠA ug
am azon
Ġcon vey
ĠD en
Ġr ise
Ġver traul
ĠE C
ĠV ork
ĠO R
Ġge leg
Ġinvest ed
ĠProblem atik
ĠG raph
omm t
Ġpr ices
ip e
ra w
gg reg
Ġaud iences
Ġthrough out
Ã¶r te
ĠIs sue
Ġhand s
enz ial
ex per
ks am
ĠSp ecific
ĠX onar
ĠTelefon termin
Ġslow ly
Ġhome page
Ġsupp l
ĠGesundheits versorg
Ġreinstall ation
admin istr
Ġverwend ete
zÃ¶ger ung
Ġsur v
Ġbehind ert
Ġfilter s
ynam ic
Ġjud ges
Ġkeyboard s
Ġ25 30
ĠSpe icher
ĠProgram ming
Ġconcept s
ĠZugangs kontrol
Ġgramm atical
Ġlaunch ed
Ġshut ting
Ġwid th
Ġerweiter ten
ĠUnder standing
gew Ã¶hn
ĠExper ten
Ġrenew al
Ġgrundleg ende
schl uss
Ġbehand eln
Ġdistr act
Ġsurround ing
ĠVerste he
ĠHÃ¤uf igkeit
" >
- +
D ATE
H ardware
O ps
P eople
S econd
c ustom
d oc
h et
i i
i ating
m igr
o fficial
p osed
p assen
u et
z ul
Ġ !
er fass
Ġw ild
or gen
or gan
Ġb ans
Ġp le
ver bindung
if ferenzen
el come
um m
ĠC ent
ind ikatoren
ĠB udget
ĠO thers
ĠThe ir
Ġtr itt
ber ichten
ack s
ĠL aufenden
ib ilit
se hen
esp read
Ġdon t
Ġsit ting
ular ly
meld er
Ġread ily
ry ing
ĠEn sure
ĠMarken wahr
Ġexp ort
Ġpol ling
Ġblog ging
ĠCh ange
Ġdirect ed
ĠDatens ynchronis
Ġsynchron ize
val uation
Ġconfirm ing
ĠKontakt aufnahme
Ġdiagn os
Ġstrong er
Ġbreak s
ĠFehl ers
App le
ĠNA RQ
Ġdeb ugging
Ġspeed s
ĠBes ides
mod ell
ĠZielgruppen ans
Ne eds
far i
Ġintention al
nehm ung
Ġqual ified
ĠgroÃŁ en
chang ed
ĠerfÃ¼ llt
Konfiguration en
ĠprÃ¤z ise
fre und
Ġretrie val
Ġbeein fluss
ĠLocal ized
ĠSDK s
Moder ators
Ġacron ym
Ġmus ic
Ġfost er
Draft ing
Ġvertraul icher
! ).
1 13
6 3
7 8
D isc
O K
g esehen
p eople
s y
s ysadmin
u plo
Ã Ħnderungen
Ġ quest
ro b
Ġn Ã¼tz
st ruktur
Ġg arn
id ers
ĠT able
ag ment
ĠD BA
th usi
Ġsu ite
Ġst ark
Ġen ergy
ĠC o
Ġsch lagen
Ġsch ool
se m
ĠDaten eing
anc en
ass ing
ont roll
Ġmoder ate
Ġanalys iert
Ġhad n
Ġfeel ings
Ġpass end
ĠSp ot
Ġorigin ated
Ġsimilar ly
Ġexp ensive
ĠDatenanalyse plattform
ienstleist ungs
Ġclar ifications
ĠAus falls
âĢĿ .
Ġclick s
ĠverfÃ¼g bare
Ġtre ating
ĠGr anted
Ġgest alten
Ġobject ively
ĠKonto daten
Ġcra ft
ĠGesprÃ¤ch stermin
Ġnutz t
post ed
Ġdocument ing
Ġcast ing
Ġunbefug te
Ġassign ment
Ġpath s
ĠStand ard
Ġpict ures
ners chaften
Ġcontr ary
ĠAusfall zeiten
Ġformul a
Ġflaw ed
Ġdraft ing
Ġfundament ally
ĠOper a
Ġintermitt ently
Ġimpl ied
Ġworkst ation
ĠChang es
ivile ges
Ġsimultane ously
ĠDenn och
ĠGesundheit sw
Ġ[âĢ¦ ]
ĠQot W
ĠMarkenwahr nehmung
A ct
K ompatibilit
T hen
b te
f s
i age
l are
z entr
Ġ ve
Ġc reative
Ġp ushing
ro t
as y
Ġre ass
ie ben
Ġbe ider
st ation
qu ote
Ġpro hib
Ġg mail
ĠW H
ĠA vid
Ġk ommt
ad gets
Ġst ruct
um ble
ĠC he
ĠC avil
ge gen
ĠE mail
ĠK enntnis
ĠH onestly
ĠL ist
ĠProblem fall
ĠG eek
Ġopt ional
ĠUn answered
Ġpr on
Ġunderstand s
sch lag
pr es
Ġpe er
Ġoff ending
ont inu
ip ation
Ġfind ings
Ġhe ld
Ġmoder ated
lie g
lo cal
Ġent gegen
Ġrelev anter
Ġaccept s
Ġafter wards
ĠAl low
ĠJ an
Ġreal ise
Ġfact ual
Ġorgan ize
ĠIntegrations optionen
Ġfeed s
Ġutil izes
Ġvide ogames
Ġcollabor ate
St rategien
Ġbegin ners
Ġmist aken
Ġderzeit ige
ĠBereich en
Ġhead ers
ĠMod s
comm and
link s
Ġinterrupt ed
Ġstrengthen ed
Ġpromot ional
ĠMarketingk ampagne
ĠStat us
ĠDa her
cha ft
ĠBas ic
Ġfortz uf
Ġparagraph s
ĠFortsch ritte
ĠDis play
ĠGo ing
ĠDatenaufbereit ungs
Ġisol ate
Produ kte
Sch ritte
Ġhang ing
Ġeinzu halten
ĠWieder herstellung
Ġadher ence
Ġintens iv
xxxxxxxx xxxxxxxx
Ġmotiv ation
Ġannoun ce
Ġ### [
Ac count
ĠAss ess
Ġansp rech
Ġincent ive
Ġadminister ing
betr ieb
ĠprÃ¤dikt ive
mention ed
Ġbeeinfluss en
9 7
C lick
E L
K ampagne
M o
O H
T Ã¼r
W W
b eta
c ate
h igh
l ungs
n ote
s he
v org
Ã ľ
Ġt iny
Ġc ru
Ġp ile
al so
Ġin active
Ġin access
Ġh t
ar i
as er
et ime
un clear
Ġl au
ter e
ĠW ix
Ġz iel
Ġmo ck
ĠC ho
Ġ< /
ĠAn gaben
Ġwas ted
num ber
ain t
Ġrec alc
Ġout lined
Ġpersist ed
Ġent it
Ġnecess ity
Ġweiter gehende
Ġaccept ance
Ġfin ished
ĠProjekt or
Ġexp end
ĠDatenanalyse werkzeug
ĠVers ionen
ĠOS es
Ġinquir ies
ĠDatens icherung
Ġchar ged
ild ing
Ġfl uct
Ġencour ages
Ã¤ts probleme
ĠSc ans
Ġgather ing
Ġpresent ations
ĠIP v
ĠWork ar
Ġenth Ã¤lt
Ġdiscour aging
ĠfÃ¼hr te
gesch ritten
Ġerz Ã¤hlen
Ġcomplain t
Ġ\ "
program ming
Post ill
Ġjo ke
dis play
ĠDef ault
reason able
Ġfehlerha fte
ĠLeit faden
Ġcapt ure
Ġcorre ction
ĠVL Q
ĠWel che
Ġsole ly
ĠÂł ĠÂł
Ġblo cking
Ġobserv ations
Ġnewb ies
Ġignor ance
Ġnons ense
ĠSep tember
Ġfrow ned
Ġkompromitt iert
Ġdahinter ste
ĠRend iten
ĠVerd acht
grat ulations
Ġpit falls
uet ooth
8 2
A r
I C
O L
O pen
S orry
S ITE
f Ã¤higkeit
g ern
m ind
s ight
z el
Ġ ____
Ġa ir
on ts
Ġs ad
Ġs ell
re ibt
Ġan fragen
le un
est abl
il der
Ġn om
Ġe gg
Ġg ist
ĠT S
us ually
Ġus ability
Ġr am
Ġund es
su m
ĠTh ing
th en
gr ading
Ġne ug
Ġex ceed
um en
Ġres ist
ĠU pd
ĠB urn
op eless
Ġge ograph
ser t
ĠH opefully
ĠL age
ĠG IM
ĠDaten aus
ell es
Ġper mission
ak ten
pr act
ĠAd vanced
Ġover flow
Ġhe ight
Ġrel ies
ĠSoftware inkompatibilit
Ġtechn isches
ade my
ĠStack overflow
Ġident ity
:// $
leist ungen
leist ungs
auf gaben
Ġdoc s
ĠEr reichung
Ġsow ohl
Ġdel ivery
ĠEin bindung
ĠEin fÃ¼hrung
ex ist
Ġreal zeit
zeit ig
ĠNot ice
lieÃŁ en
cl oud
ĠAus fÃ¤llen
Ġexpect s
ĠKampagnen leistung
geb ung
Ġweek end
Ġcho osing
Ġgest Ã¶rt
ĠProdukt integration
use ful
Ġsusp ic
Ġkon front
Ġ9 9
ĠZahl ungsoptionen
Ġprec ed
ĠCon duct
Ġher vor
ĠVerbindungs problemen
Ġverbesser ten
ĠDisc ussion
ĠCPU s
ĠKont os
ĠProzess e
ĠSicherheitsl Ã¶sungen
Ġambig u
Ġforec asting
Ġfal sche
Ġbook mark
dec lined
Ġcond ition
ĠExpl ain
ĠErk enntnisse
Ġlik es
ĠFr age
Ġagre es
Ġprem ium
Ġsignifik ante
Ġdaten basierte
Ġunc ertain
ĠTransl ator
ĠSys Admin
ĠInde x
Ġpubl ished
Ġsnark y
verwalt ungs
Ġmargin al
Ġweakness es
Ġdemograph ics
ĠSpot ify
Ġlau tet
ĠGIM P
0 5
A ut
C T
F r
N um
f rei
p o
u x
v ista
â ķ
Ġ ![
in ct
Ġs org
Ġp c
Ġp osed
le y
al i
ĠI ain
Ġh ub
Ġh eck
est artet
ic ate
ĠS ite
un ning
Ġun st
Ġun supported
id ence
Ġl oop
Ã¤ ll
ĠU PS
Ġdata bases
Ġdo zen
act ivity
Ġge legen
Ġtr ade
pl ate
ĠH ard
ĠN u
ĠZ e
Ġrep lying
ĠG ive
ĠDaten Ã¼ber
de v
esp onse
Ġask ers
ong s
Ġwork load
Ġinvestig ated
ip od
ĠDetail ed
ĠSoftware aktualisierung
ĠRe aktions
hal f
], <
ĠSystem scans
Ġinst ruction
Ġrelev ance
Ġweiter ge
ĠIs n
ĠEr mit
Ġlist ing
ĠEn thusi
Ġmon at
rib ly
ger Ã¤te
Ġmark up
install er
Ġdescr ipt
Ġcontinu ing
âĢĿ ,
sh ow
Ġname ly
Ġgl itches
Ġvalid ating
Ġfiles ystem
oint ed
Ġleg acy
Un fortunately
Ġerfolg reicher
Ġvol unt
ĠFe uer
Ġattract ed
ĠNote pad
Ġjud ged
Ġargu ing
ĠURL s
Ġestabl ishing
Ġindividual s
Ġintent ions
Ver bindungen
Ġcoun ted
Ġbal ance
Ġyield ing
Ġgra ce
Ġsubsequ ently
Ġlik ed
bal ancing
Ġdump ing
ĠAdministr ator
Ġgeziel te
Ġregistr iert
Ġnatur al
ĠAbrechn ung
ĠGu id
Ġembed ded
besch rÃ¤nkungen
Ġreconnect ing
Ġdestroy ed
Ġstagn ant
Ġcomb ine
ĠjÃ¼ng sten
Ġaggress ive
bur g
Bere ich
Ġzus enden
opin ion
ibilit Ã¤t
? !
T ube
a uthorized
e valu
k ed
n ative
o on
s ecurity
s ql
Ġa uthorized
in n
re ase
Ġd osen
Ġc ited
Ġc amera
Ġp icking
ed ul
Ġf ish
Ġg esp
Ġl auf
ĠT CP
ĠW arn
am per
ĠP anel
su pdates
are a
ad a
Ġnot ifying
Ġab ilities
Ġdis abling
Ġver ification
ĠE m
ĠE vent
act OS
Ġge Ã¤ndert
pl it
ĠH ence
ĠH eming
ĠVer luste
Ġjust ification
Ġwork place
me m
Ġgo vern
Ġsuch e
ĠServer konfiguration
ĠInvest ments
Ġweiter er
Ġevery where
ĠEr ror
any thing
Ġvor zunehmen
Ġautom ating
ĠDatenanalyse werkzeuge
back s
ĠRÃ¼ck gang
Ġjed er
ĠIntegrations richtlinien
Ã¼rz en
ĠAr ten
Ġmis use
Ġappear ing
Ġhost s
Ġengine ering
enter prise
ĠProm pt
teil igung
Ġkon zentr
Ġprec ision
Ġgemeld ete
ĠPassw ords
Ġmeaning less
Ġunbefug tem
js man
ĠDatenanalys en
ĠMarkt tr
Ġinvolve ment
Ġgraph ic
Ġjoin ed
ĠAud it
Ġexpress ed
Ġsuspens ions
Ġrecurr ence
ĠDatensperr ung
Ġfort geschritten
Synchronis ations
Ġconv ince
ĠTechnolog ie
disc ussion
lÃ¤ss lich
ĠBount ies
ĠNetzwerks icherheits
Ġwiederhol t
ĠVerm utlich
Ġpenalt y
Ġspons or
ĠLÃ¶sungsans atz
Ġihr er
Ġenfor ced
Ġpreis ge
Ġscop ed
ĠfrÃ¼hest mÃ¶glich
umm ary
ĠGesundheitsw esen
Ġneug estartet
Ġkonfront iert
ĠHeming way
A cc
B ased
E ine
R es
R elated
T her
V ER
c ending
e ared
h ound
p aper
w ieg
Ã §
Ġt ough
es k
Ġs sh
Ġd ict
Ġd auer
ing t
Ġp owershell
le ch
le kt
Ġf ing
al tet
Ġh ob
ĠS im
Ġre alloc
il le
Ġbe arbeitet
Ġun kon
Ġun professional
Ġun gewÃ¶hn
ess en
ment al
Ġr ichtigen
Ġwe igh
Ġat tend
Ã¤ ter
Ġres erve
Ġdis p
Ġver t
Ġsp Ã¤ter
ĠAn fang
Ġsch wer
ern et
be fore
Ġmat ches
ak et
Ġgen ommen
ann el
ĠRe actOS
ĠSystem fehler
ĠSystem aktualisierung
Ġent halten
ĠYou Tube
Ġdr iven
ĠJ ourneyman
Ġincre ases
ĠSh ort
ĠSh og
ĠMark ens
Ġgew innen
Ġgr ade
Ġarr ang
ĠDatenanalyse werkzeugen
Ġquick er
ĠOr iginal
open id
Ġadjust ment
ĠÃľber prÃ¼fungen
ren aming
Ġ201 8
rech te
Ġtrans ition
Ġsort ing
Ġstor ing
Ġpop up
daten analyse
Un ser
ĠTechn ik
ĠCon cern
ymptom en
Ġwieder kehr
Ġabs urd
Ġupload s
ĠNA A
Ġ= =
ĠSSD s
Ġje opard
Ġclos es
Ġrew ritten
Ġcomplic ations
ĠBack up
ĠFre uen
Produ kt
Produ kten
Ġmisalign ed
Ġverbunden en
Ġcorre l
Ġinher ently
Ġrend ering
ĠServerkapaz itÃ¤t
Ġgepl ant
ĠDrop box
erleb nis
Ġmut ually
Ġspezifisch ere
ĠbefÃ¼r chten
ĠStÃ¤r kung
SITE URL
Ġsorg fÃ¤l
8 8
> ).
A us
B L
D avid
G iven
H i
M ultiple
O D
O ptim
b es
b and
b oth
c ol
e ch
k a
o S
p rom
s ites
s icherheits
z ielen
z burg
Ġt l
Ġa ggreg
in vest
in frastruktur
Ġc ave
Ġan passen
Ġin konsist
Ġh unt
Ġre duction
qu al
Ġe valuation
Ġun re
Ġun common
id ing
Ġfor ms
Ġl ies
ĠT aktiken
ut ations
Ġquestion able
ĠA F
am ps
am hound
ĠP uppet
Ã¶ ff
pt ed
os es
and al
Ġse ine
per ties
ĠPro gnosen
Ġimp lications
Ġtr ain
ĠR SS
ĠN T
Ġsch em
Ġein richten
ĠG lad
ĠDaten erfass
Ġqu iet
Ġsc anning
bo oting
Ġrem ark
ĠRe ally
ĠmÃ¶glich st
Ġdar um
Ġdr ag
Ġco her
Ġvis itor
ĠEin zel
Ã¤hr end
Mail s
Ġorgan izing
ompatib el
Ġ201 7
Ġfest zulegen
Ġutil ization
allen ge
Re view
ĠTr ue
Ġfocus es
richt ung
Ġconfirm ation
Ġerfolg reichen
Ġassoc iations
Ġlocal ised
Ġvari ables
Ġtrack ed
ĠComp any
geh Ã¶r
Ġdisagree ment
mess age
ĠSicherheitsver letzungen
Ġpriorit izing
Ġmanual s
def ined
Ġtrust ed
Ġbesch reibt
Ġbesch leun
ĠAud ition
Ġentsprech ende
Ġvirus es
Ġwarrant ed
Ġcalcul ations
ĠWerbe an
Synchronis ierung
ĠHTT PS
Ġvary ing
Ġemphas is
âĢĭâĢĭ âĢĭâĢĭ
ĠSa fari
bro chen
Com ments
Ġprofess ion
Ġvirt ually
Ġoffen se
Ġaffil iation
chestr ation
Ġexerc ise
Ġdiagnos is
Ġweiterge leitet
Ġjeder zeit
Ġkonzentr ieren
$ /
D IO
E M
E ven
c ould
c ontrol
f ail
g ende
g ige
h ack
h ammer
i ples
p e
z ur
Ġt ied
Ġth in
is able
Ġh amp
Ġh och
ĠS ymptomen
ie fer
om la
st ore
ĠA ction
ĠA ctions
Ġcon vent
ĠD OS
Ġr ufe
Ġk orr
ac enter
Ġen ables
ĠC ertainly
Ġdis ks
ĠM V
ĠM aster
end o
oo b
ien en
ĠK omp
Ġge bracht
Ġtr ash
Ġrec reated
ear ing
Ġbet r
Ġinter ven
ĠVer me
Ġpr izes
Ġguid ing
Ġunter suche
ĠÃ¼ber mitteln
bl ieben
ĠSch Ã¤den
Ġrel ations
ress e
ann ot
ĠRe quire
Ġro t
Ġback ed
Ġdurch gehen
etz ten
Ġ3 000
br Ã¼
br and
wh atever
Ġdar in
ĠJ une
man y
An other
Ġdef end
Ġret ro
Ġet iquette
Ġadv oc
zuf ried
ĠNe xt
ĠPat ch
Ġspam mer
ĠVers ions
gorith men
Ġstat ic
zu gehen
ĠIntegrations fehler
Ġyear ly
Ġvalid ate
Ġreject ing
Ġauthor ization
Ġbroad ly
ĠWeb in
ĠEng agements
Ġupgr aded
ĠbestÃ¤tig t
Ġfo ot
Ġrespons ibilities
Ã¤s ent
ĠDoes n
Ġderzeit igen
comp leted
wor te
Ġletz te
Ġloc ated
Ġdownload s
ilt y
Ġaw ait
Ġbott len
Ġstem ming
Ġexpress ing
ĠDigital strategie
Ġviol ate
Ġtermin ology
Ġshut down
Ġwhite papers
ĠOptim ierungen
ĠCle an
Ġstraight forward
Ġblacklist ed
ĠBel ow
Ġautor isierten
moder ators
sm all
que ue
Ġcircumvent ing
format ting
Ġforgot ten
ĠCol lection
ĠBenutz ern
Ġart ific
Ġtimest amp
ams ung
ĠUP DATE
------------ -+
Wer bung
loss en
ĠProvid ing
Was ser
ĠAsp ekte
Ġphilosoph y
AU DIO
Ġmand atory
Ãľ ber
Ġfluct uations
Ġambigu ity
Ġschwer wieg
Ġhamp ers
Ġkorr ig
ĠVerme idung
C lose
D RA
X T
c ient
f it
k nown
y cle
Ġ //
Ġa fore
Ġth es
re ject
Ġd os
Ġb oss
al most
Ġin fect
ĠS ay
Ġn s
Ġbe achten
ĠA R
su per
ec king
Ġsu ck
ac count
all ok
Ġcan t
ort s
ĠU l
ard ed
ge f
act ively
ĠV iew
iv ate
ĠH R
ĠL ong
Ġam azon
Ġspec s
Ġein leiten
ĠG B
ĠDaten ab
ĠVer zÃ¶gerung
be wer
Ġper ceived
Ġoptim ierte
pr aktiken
Ġbr ack
stÃ¼tz ungs
ĠSoftware version
ĠSystem ver
ĠSystem aktualisierungen
Ġfol k
av ascript
Ġfin ish
ĠVor teil
An swers
eter a
Ġpres umably
Ġ10 1
Ġstr ive
zuf ragen
ha fte
Ġwel coming
Ġsupp lement
ĠSicherheit supdates
ĠRec order
ĠBen achrichtig
prozess en
prozess es
Ġerle bte
Ġcontain ers
Ġavoid ed
Ġwonder ed
Ġgather ed
Ġra ises
sto ol
Ġdra wn
Ġaward ing
bind ungs
Ġsporad ische
Ġinsu lting
comp lete
Ġrecogn ized
Ġlif ted
vid ia
On ce
Ġswitch ing
Ġprecise ly
Ġdiagnost izieren
Ġdup es
fahr ungen
ĠHin blick
ĠUp on
ĠhÃ¤uf igen
ĠOff er
ĠDat ums
Ġglau ben
key board
Ġtreat ment
orm ally
Ġnomin ate
Ġvorgenommen en
Ġformul as
Ġflaw s
Ġkonfigur ieren
ublik ums
Ġprem ise
ober flÃ¤che
Ġprinc iple
Ġprinc iples
Ġfight ing
ĠVL C
Ge achte
Ġshortcut s
Ġkonk rete
ĠverdÃ¤ch tige
Ġperipher als
ĠZugangssteuer ungen
ĠÃ¤u ÃŁer
Ġreven ue
Ġglat te
Invest ment
instit ut
ĠSal zburg
Ġreass ess
Ġdahinterste cken
Ġnom ine
Ġsuspic ion
mem ory
ĠMarkttr ends
Ġafore mentioned
7 4
B u
J eff
M ehr
N etwork
d ienste
f oo
m ware
n Bitte
p ossibly
t yp
Ġ q
Ġt ill
Ġa pt
en heit
on nen
at ars
re mote
re visions
Ġc row
Ġc etera
Ġb inding
Ġm ere
Ġm ice
Ġf als
Ġin tel
ic ode
ĠS us
Ġn udge
Ġe greg
Ġun patched
ag ain
ĠW SL
ĠA N
ĠP ublikum
ĠD ouble
ers ch
Ġv ict
iz ind
Ġres erved
ĠM arch
ĠM ax
Ġdisc lose
ĠPro tect
ĠAn forderung
Ġimp licit
Ġge blieben
ĠR TFM
Ġch ild
ĠSt orage
pr iet
Ġover come
ĠTe ch
Ġdec lining
Ġcomment ers
Ġob st
ĠĠĠĠĠĠĠĠ ĠĠĠĠĠĠĠ
wh ether
Ġprevent ed
Ġtyp os
less ly
man aging
Ġsign ed
Ã¤hr t
red ung
ĠProjekt verwaltung
Ġopen id
ĠZugriffs k
Ã¼n st
res earch
ph ot
ĠApp ro
par ent
ĠKon sequ
Ġhin zu
play er
ehm ens
Ġeing esch
Un ter
Ġbed anke
Ġsusp end
Ġsepar ated
Ġnice ly
Ġbot s
Ġvari able
Ġhind ered
Ġfavor ites
log s
Ġwish es
ĠOpen Office
Ġstop s
Sp e
ĠSee king
la ps
Ġupload ed
ĠMed izind
Ġstay ing
Ġdownload ing
etting s
ĠRes olve
port folios
Ġexc lude
Ġsto ck
Ġauft ritt
ĠJo omla
Ġpa per
Ġentstand enen
ĠCle arly
Ġkonfigur iert
ĠAdministr ators
Ġeinzu holen
ĠProj ekten
He althcare
******** ********
uz z
rauch e
Ġpir acy
Ġanpass bare
clean up
Ġerf Ã¤hrt
ett bewer
Ġdram a
Ġrapid ly
Ġutter ly
ĠnÃ¼tz lich
Ġentit led
ĠEnthusi asts
ĠFeuer w
ĠMarkens ichtbarkeit
Ġbeschleun igen
ĠMedizind aten
. :
7 5
9 4
C I
D own
J o
M on
M ore
T H
T opic
d iagn
e ither
h idden
k ling
n Specifically
r t
s ize
u age
w atch
on line
es tet
Ġd iag
an che
Ġin fr
ro ot
ĠI I
Ġh on
Ġh ol
Ġh ire
ie ve
Ġbe merk
om en
st on
qu ix
ĠT aking
ĠT reffen
us ively
ĠD ec
Ġr oute
Ġso ph
Ġor chestration
gr y
Ġcan cell
Ġprov ision
um an
ust rate
ach s
ĠM AC
ge x
ost ic
Ġum setzen
Ġge ht
Ġte ile
ĠH ar
ab redung
ese it
ĠVer suchen
ĠVer langsam
eh Ã¶rte
com ic
Ġ2 6
pr ivileges
Ġover r
we ight
ĠSicherheits software
ĠSicherheits ris
Ġ3 1
Ġsub missions
ĠDo ing
ĠJ ul
Ġind ustr
ĠMarketing maÃŁnahmen
-- -
red it
Ġur l
Ġend points
au ern
Ġweb page
Ġpol itely
open ing
ĠZugriffs protokolle
ph p
Ġaktualis ierten
Ġho her
Ġkey word
ĠNetzwerk probleme
Ġload ed
Ġfest zustellen
erkzeu ge
Ġauthor ity
etr ation
Ġexpect ation
ĠKon ten
ĠGerÃ¤ ts
ĠDe lete
Ġmonitor s
Ġtal ks
ĠQu ite
Ġuner lÃ¤sslich
ĠAuf zeichnungen
ĠKonto informationen
Ġredu zieren
Ġrepl ies
fun ction
13 0
work s
Ġumfass end
ĠReg ards
onst ructive
Ġupload ing
Ġsmart phones
hand lung
rÃ¤n kt
Ġsubstant ially
ĠDisc uss
Daten bank
produ kt
mod elle
Ġsto pping
Ġzusammen arbeiten
ĠDienst ausfall
Ġlicens ed
ĠDr agon
has is
Ġcharacter istics
Ġthrow ing
Ġnet sh
resp ect
Ġbeg ins
Ġill ustr
Ġanzu geben
poin ting
Ġregistr ation
ĠDatensystem e
Umgeb ung
ĠBedro hungen
ĠAntiviren software
ĠConf irm
ĠVerein baren
Part nerschaften
ambig uous
Ġunzureich ende
ĠMoment an
ĠWor ld
Konf igurations
Ġerr one
Ġtheoret ical
Ġdisput ed
Ġstatist ical
wart ungen
ĠGra v
ĠHead set
Ġbeobachte ten
umble we
ĠNu endo
Ġpreisge geben
ĠKonsequ enzen
quix otic
Ġsoph ist
" ...
1 20
F aktor
M G
O W
U T
W are
a ustausch
c d
c ur
d f
h is
h ooks
j in
j unction
k er
k it
k vm
n c
p ages
v able
z ie
Ġt ack
Ġt ired
en et
Ġs leep
re ct
re quire
Ġd ual
Ġw achs
ed iting
Ġto wn
an gen
Ġf oo
ĠI OS
ĠS cr
ĠS ummary
ag ues
Ġcon junction
ĠP ay
Ġr sync
ir a
Ġme ines
ĠC od
ĠC arb
ĠM en
Ġver an
ĠIn form
Ġer fragen
Ġsh iny
Ġsh ape
Ġde utet
Ġsp ikes
ĠO ld
Ġtr uth
ĠR obot
Ġintegr ierte
ĠH opeless
ĠSu bscr
Ġresol ves
Ġman ages
Ġget estet
coun ts
ĠUn til
be fug
ang el
Ġbr an
ste am
pro ving
pro bably
ra ce
Ã¤tz ung
Ġsoon er
ĠQ U
ĠSicherheits team
Ġ3 6
Ġsub net
Ġsub tle
mit gl
ĠBe eintrÃ¤chtig
ĠVor gang
cc as
Ġspezif ischer
Ġhat s
Ġgr ounds
Ġret ract
Ġexp osing
Ġweb masters
Ġweb apps
Ġfree zing
Ã¼n de
Ġprofessional ism
Ġagree ments
ĠÃľber wach
ĠÃľber blick
ĠPost ing
Ġdep rec
Ġcop ies
Ġnach zufragen
vis or
ĠPre isen
ĠInvestment strategien
Ġsect ions
ĠVerschlÃ¼sselung stechn
Ġir rit
ĠAsk Ubuntu
oin ting
ierter e
Ġlif etime
Ġfreund lich
bot s
Not iced
Ġcool ing
ĠChrome book
Ġargu ably
Ġaw ful
-------- --------
Ġjoin ing
BS D
ĠausfÃ¼hr lich
can onical
Stack Overflow
Ġlength y
cont ent
eth is
Ġspecialist s
Ġreibungs los
Ġwid espread
Ġsurpr ising
gener al
ĠOper ating
ĠMan ager
NE T
ĠInstall ation
Ġsuff er
New bie
ĠBedro hung
Ġtick et
Comp uter
ĠvorÃ¼ber gehend
Ġerw Ã¤h
Ġoverwhel ming
ergeb nisse
ĠEinzel heiten
Ġsophist icated
ĠCarb on
. ),
9 6
? ),
C onsider
L og
c at
f us
h ould
l ive
l arge
m aterial
n ix
p g
p ers
t im
es ley
at ter
at ten
Ġs ing
re place
Ġd ivid
Ġw ired
is ions
Ġc ater
Ġc aught
Ġb ored
ed e
Ġto mor
ch annel
al king
ro duction
ic ine
ĠS P
ĠS adly
Ġn ut
Ġbe iden
ig st
Ġl ur
ce ler
ĠT ouch
ĠW ert
if f
el ieb
Ġr ating
Ã¶ gern
ul ating
Ġsu bo
Ġst Ã¶ren
gr oup
Ġen s
ĠM ight
ĠF ach
Ġad verse
Ġde ath
Ġsec ret
ĠL I
ĠL aden
ĠL iebe
Ġden n
ient ed
Ġfe e
lic king
Ġqu ot
Ġqu arter
Ġsc anner
Ġimpro ves
Ġappro xim
Ġob taining
ĠSystem ausfÃ¤lle
ĠEx perienc
br id
ptim al
griff e
Ġdel iber
An wendung
Ġcorrect ing
ĠX B
Ġ7 5
acht ung
Ġcontinu ously
most ly
ĠPost Tags
sh are
Ġauthor itative
Ġfeature d
SE R
uld ige
like ly
ichtig e
ichtig t
ĠWeb se
Ġcount ries
ĠSc an
Ġeffekt iven
Ġbehavior s
Ġrefr ain
pos al
Ġhum or
konf igurations
Ġintern ational
Ġms i
Ne ed
Ġevalu ating
Rec ent
Ġrever ted
Ġtem per
ĠDown votes
ĠBr and
Ġos Commerce
rie ben
ĠfrÃ¼ her
Ġcontroll ers
Ġran king
Ġantic ip
Ġindepend ently
ĠKommunik ations
ĠTH E
Ġbound aries
Ġsignifik anten
Ġcal endar
ĠConnect ion
ĠChang ing
ĠMehr ere
ĠTransl ate
ĠCore l
ĠMein ung
Ġinterf aces
ĠDavid Postill
scha ft
ĠBeteiligungs metriken
fÃ¤h ig
Ġdisagre ed
ĠTyp ically
Ġbenutzer defin
ĠKron oS
Ġobjection able
Kunden service
Ġwertvol le
ĠZugangskontrol len
ĠCent OS
ĠZielgruppenans prache
ĠChe f
Ġfortzuf ahren
Ġundes irable
ĠReaktions zeiten
Ġdescript ive
Ġvolunt ary
Wasser melder
ĠAN Y
Ġtomor row
Ġsubo ptimal
) "
8 1
9 2
B as
D espite
G es
K indly
M e
N C
P i
P re
W ER
a iting
d ays
e en
g enden
p ot
p rechen
p ossible
r andom
s a
u ary
v s
Ġ Ã¼
in ary
Ġs in
Ġs am
Ġs tellt
Ġs ql
Ġc ir
Ġb und
ing en
Ġp iss
an nten
Ġf at
ent en
ĠS ony
Ġbe in
Ġbe ar
Ġbe fassen
un c
om b
Ġpro priet
ur ichten
Ġg on
ig te
ĠW ann
ĠW rite
ĠA cer
am en
ĠP ut
ĠP age
sw itch
ad ays
all o
Ġver ring
Ġdo or
ĠB usiness
per ate
ht access
Ġimp ly
aus fÃ¤llen
ĠR EST
ab y
ab re
ĠSu che
Ġdigital es
Ġgu ilty
ru it
pr int
ang aben
Ġaccess ories
Ġproduct ive
pro gnosen
Ġoff iz
we bsite
Ġpart ly
ĠTe X
Ġcomment er
ĠSoftware konflikten
ĠRe fer
uch t
uch er
Ġtechn ological
Ġconnect or
Ġnow here
Ġperson s
Ġbl ind
Ġdel ve
In st
Ġisn ot
Ġverb iage
problem atik
Ġhealth y
Ġi hren
Ġcap ability
Ġcert ific
Ġshow case
Ġadv ised
Ġ6 00
ĠZugriffs probleme
Ġerforder t
down load
ĠIntegrations fÃ¤higkeiten
Ġess enz
Ġtrans cript
Ġhin ts
Ġpar a
** .
Ġstud ent
ĠProdukt s
Ġdro ps
ĠGe legenheit
12 34
Ġmembers hip
aff ung
Ġinsu lt
Ġbehind ern
Ġsmart phone
Ġdeser ved
Ġworld wide
ĠregelmÃ¤ÃŁ iger
ĠRo bert
Ġphr asing
45 3
Ġarch ive
Ġrepres ents
Ġreflect s
De tected
ĠInc ident
ĠWi jsman
ĠTrans aktionen
cont act
Ġgate ways
ĠDown voting
Ġdatas et
Ġeinz urichten
ĠNetzwerkver bindung
Ġdepend ent
Ġkonfigur ierte
Cl oud
does n
Ġid i
Ġill ustrate
ĠSub version
Im age
Ġwatch ing
Ġfehlerha ften
Ġexcl usive
Cont roller
ĠJane Newbie
Ġsqu are
Ġemer ged
Ġstum bled
conf ig
avor ite
Ġausge fallen
ĠTra ffic
ĠOct ober
ĠZeitra um
Ġsem i
ĠBo ot
Ġzun Ã¤chst
experienc ed
prior ity
passw ord
ksam keit
Ġpreced ent
lekt ron
Ġhob by
ĠSim ul
ĠsorgfÃ¤l tig
Ġcoher ent
DRA W
allok ation
ĠÃ¤uÃŁer st
Mehr ere
umblewe ed
Ġdenn och
1 50
I mp
L ast
O F
a utor
e lection
f Ã¤den
j a
m ap
n Sehr
s k
s es
s ay
w rong
z ens
Ã ¡
Ã Ń
in ting
on ic
it uation
Ġw od
is ationen
ch o
Ġm ad
il ed
st ick
qu ately
Ġun locked
Ġg ar
Ġg ig
Ġg ently
Ġl iber
ver halten
ĠT itle
ĠA im
su ggest
ec ial
Ġwh it
th ink
Ġst re
Ġst ress
Ġme inen
ĠC trl
Ġdis aster
ind ex
ĠB eh
ĠE ss
ĠF ind
Ġsp ell
ĠAn alytik
Ġtr ials
ĠR oll
Ġcomp ress
Ġby tes
Ġj unk
Ġein ige
Ġopt ical
ĠDaten austausch
ore an
ject ion
Ġper mit
ĠWir ksamkeit
icher ungs
Ġconf use
ange hen
Ġsc ient
Ġsc ience
Ġover he
ĠTe xt
ĠRe booting
Ġro ad
utz ung
ĠQ A
ĠSicherheits Ã¼berprÃ¼fungen
iert es
Ġop ens
ash es
br anche
med icine
Ġvis its
man agements
Ġsign ature
Ġhand eln
Ġind ent
fe ature
Ġspez iell
ub b
In c
Ġbelie ves
ex ec
We bsite
ĠProjekt verwaltungs
Ġgr asp
Ġpres ume
Ġmark s
vir us
Ġwel cher
Ġorgan ized
Ġbald igst
ĠWould n
ĠÃľber arbeitung
cl ar
Ġfest stellen
Ġvalid ation
Ġport able
Ġtrans fers
ĠEmpfehl ung
ĠGr Ã¼nde
Ġconst ruct
Ġavoid ing
ĠPC I
Ġengine er
Ġassess ing
Ġerfolg t
Ġsepar ately
Ġanb ietet
Ġpresent ation
Ġoccas ion
merk male
elmÃ¤ÃŁ ige
Ġexec uting
Ġexec uted
but ton
Ġrepe ating
Ġtalk ed
Ġminor ity
Ġoccurr ence
ER Y
ĠHer angehen
Ġsatisf ied
zeug t
ĠDienst en
Ġdisapp eared
ĠSign al
date ien
Ġlaw s
ĠSe lect
ĠErk lÃ¤rung
Ġredirect s
Ġmanufactur ers
Ġcor ner
Ġcor ruption
ĠCle aring
ĠSynchronis ierung
ĠFol lowing
Ġbeg onnen
Ġframework s
Ġrein force
ĠModell ierung
Ġfeas ible
ĠExper t
Ġsalv ageable
Ġgrav ity
Ġboil s
Reg arding
Ġstum ble
Ġeth ical
Ġtang ential
ĠSimilar ly
Ġcent re
repanz en
Ġsym b
113 8
Ġfortgeschritten e
Ġinterven e
-------------+ -------------+
Ġgon na
ĠHerangehen sweise
A Y
E MR
F Ã¤higkeiten
H CP
K amera
M E
M aÃŁnahmen
V E
X Y
b all
b its
d ot
g ar
h es
k osten
l assen
s n
t ot
w iesen
Ġs li
re open
Ġc a
Ġc iting
Ġc ameras
Ġb reat
ĠS he
Ġbe teil
un answered
Ġun acceptable
ol ution
ĠT ips
ag ate
Ġz one
Ã¼ gen
ĠD HCP
ĠTh ree
Ġk am
Ġv om
Ġv mware
ac er
Ġver l
ĠB ook
ĠB ug
ĠF ound
ĠF TP
ĠF ailing
Ġsh ame
Ġde fe
Ġsp an
Ġdisc re
Ġhel l
Ġge b
Ġtr oubl
num mern
Ġch ain
ĠL ic
Ġresol utions
Ġcomp elling
Ġsch icken
Ġein be
ĠG reat
ĠDaten men
ĠVer tra
ens ing
ĠWh ilst
urr y
Ġpre tend
ĠY OU
Ġar ia
Ġover look
ĠUnter lagen
Ġoff ended
>, <
Ġhapp ily
Ġprocess ors
ĠSystem abst
tern al
ĠEx act
Ġnumber ed
Ġsub mission
Ġdifferent iate
Ġdownv oter
ĠJ e
ĠBe wertung
ĠVor auss
mer ge
Ġsign s
Ġmin i
Ġbereit en
Ġwrong ly
Ġgr ad
Ġneu eren
Ġstr ike
Ġadv isable
Ġlimit ation
Ġexp ired
Pro fessional
Ġdefin ite
Ġbro ch
Ġho le
Ġange zeigt
Ġevent uellen
Te X
par ameter
Ġalong side
ĠĠĠĠĠĠĠĠĠĠĠĠĠĠĠĠ Ġ
Ġworth less
Ġobser ve
ĠDe leting
Ġrob ot
Ġ: (
eng agement
ĠBenutzer oberflÃ¤che
Ġparticip ants
Ġdring enden
Ġbed auern
Ġcollabor ative
Ġpos itively
Ġequ al
Ġhold s
ism od
AT A
Ġneg ativ
ĠFinanz institut
Ġvari ations
ĠModer ation
Ġcriter ion
Ġrevis it
ĠkÃ¼rzlich er
Ġrev ising
Ġunerwarte ter
Ġmeasure d
Robot er
Ġintern ally
ĠKonfigurations fehler
ĠgefÃ¤hr den
Ġmaxim ieren
ĠWi Fi
Ġzeit weise
Ġintention ally
Ġcomplain ts
Ġpin pointing
Ġconfir ms
Ġentscheid ender
LL Y
ograph y
add ress
ĠSto re
Ġmisunder stood
Ġcompil ing
moder ator
Ġretrie ve
ĠSuggest ion
Ġtroll ing
ĠBestÃ¤tig ung
ĠElect ronic
pflich t
Ġexplo ited
bedÃ¼rf nisse
Ġdiver se
Ġsurv ive
sy ch
lieg ens
Ġinaccess ible
Ġunst able
Ġens ures
Ġwod urch
B ed
C ache
D ate
M B
M ark
R em
V oting
c ache
i h
o ftware
p ing
p op
r um
r ix
s ort
w ed
w ant
z ed
Ã ³
Ġt id
in a
Ġs y
Ġs ight
re ating
re ifen
Ġw ra
Ġw ww
or ror
Ġb low
Ġb ought
Ġb illed
Ġf ant
Ġf ear
Ġu g
ro chen
ar ious
un es
un ting
un ix
Ġun ambiguous
Ġg nu
ot he
Ġfor cing
ĠT B
ag s
ĠA tt
am te
ĠD abei
ke ep
Ã¤ ren
ĠWe bsites
all ed
ata ble
Ġdis s
ĠM ichael
and ers
Ġver schlÃ¼ssel
Ġver pflich
Ġver antwort
ĠF lipse
Ġsp ect
ĠK ampag
ĠK orean
ĠAn liegens
ĠR FC
ab it
ĠN or
ĠG ot
ied ienstleistungen
ĠY ahoo
âĢ ¯
Ġav atar
ĠUnter stÃ¼tzungs
ip f
ĠTe il
ĠSch w
ĠSoftware produkten
ĠAs suming
Ġinst ant
ein anders
Ġreceiv es
Ġ3 8
Ġweiter z
Ġprevent ion
ĠBe achtung
Ġprof anity
Ġduplic ation
rib ution
Ġpass ing
Ġdevelop ments
sp an
ĠSO C
cl ass
Ġnor ms
erkzeu gen
Ġess ence
Ġtrans mission
Ġchallen ging
ĠDatenver arbeitungs
last ungen
ĠIm prove
Ġscr atch
Ġentsch uldige
Ġbed eut
Ġcount less
Ġdeploy ments
ĠZielgrupp ense
vor schriften
Ħn der
dienst en
ĠAns Ã¤tzen
Ġhead set
ĠLeistungs Ã¼berwachung
tes y
Ġearn ing
ĠAnswer ing
Ġkrit ischer
ĠMod elle
Ġinfl uen
ĠfÃ¼hr ten
Ġdev s
Ġant worte
Ġpatch ing
Ġpurch asing
gn ose
Ġgre eting
ĠMS I
Ġrout ing
Ġrecord ed
Ġthrow n
Ġic ons
bu ilt
Cl osed
Ġautor isierte
Ġintermitt ierenden
ĠvollstÃ¤nd ige
Ġinflu x
Ġadher es
Ġphot o
Ġphot oshop
Ġce ased
Ġexcl usively
Ġbur ied
ĠberÃ¼cks ichtigt
Ġadopt ing
Ġpenalt ies
Gener ally
ĠMem ory
ĠAnn oun
Ġunterdurchschnitt liche
Ġnewcom ers
ĠNever theless
ĠRemo ving
chtig ungen
Ġunf am
ĠPartic ipation
Ġcitiz ens
migr ated
TÃ¼r kling
Ġht ml
ĠWebin are
Ġapproxim ately
ĠSimul ink
ĠVorauss etzungen
ĠKampag n
' ?
2 000
8 3
A m
B rauche
C hris
E d
G H
I ain
K ont
N T
N OT
V ote
W ard
W ho
] "
b uch
b anned
f y
g ive
i j
j ud
u k
v an
v ie
£ o
Ã £o
in ate
Ġth er
Ġs we
Ġd ynamic
Ġc urs
Ġp uzz
ro g
ro vers
te te
Ġre ps
Ġre chtzeit
il iation
Ġn Ã¤h
un s
un stabilitÃ¤t
st ill
ur y
Ġl it
if ier
Ã¼ s
ĠP ossibly
ĠD irectory
Ġr ank
ir ing
Ġk alibr
ad vert
gr oups
Ġne at
Ġcan cel
ach ver
ĠM ain
ĠM angel
Ġdo zens
ĠB uster
ĠThe m
Ġge ar
Ġge plan
Ġcl ause
Ġrec urs
ĠR amhound
Ġser ving
ire fox
fer red
ĠN S
Ġrep ro
Ġein zufÃ¼hren
Ġein holen
Ġman ip
ĠG ipf
Ġdes irable
Ġinter fer
ens ch
lud es
ĠSt ackexchange
Ġjust ice
ak er
sch ung
pro tokoll
Ġunter halten
Ġset ups
Ġhe ute
ans om
ĠSoftware anwendungen
Ġappro ving
ĠServer last
Ġlog ins
od ak
ĠAl t
ĠVor gaben
Ġsign atures
toc ol
Ġspez iellen
An frage
Ġfr agment
Ġapolog ies
ĠÃ Ħnder
Ġopinion ated
urs ache
ĠAb weichungen
Ġass et
Ġsynchron isieren
ĠService unterbrechungen
Ġsafe ly
Ġhin we
?" )
Ġprop ort
ĠPre ismod
>< /
ĠMac OS
Ġexcept ional
labor ation
ĠFin al
ĠAuf grund
Ġdesktop s
Ġassoc iate
Ġdist urb
Ġindivid ually
ĠFe bru
Ġhind e
ĠKonf likt
11 5
lt imate
ĠZahlungs ver
Ġrecogn ition
ĠReg ardless
En ter
Not icing
On ly
ĠBest es
âĢ¦ âĢĿ
off ensive
link ed
ĠDatenanalys ed
bed ing
ĠNutzer erfahrung
Ġdraw ing
ĠProgram ms
ĠProgram mers
Ġzusammen hÃ¤ngen
ĠInc lude
89 5
ĠFinanzuntern ehmens
Ġnomin ations
Ġprepar ation
Ġgez ogen
Ġhop es
Ġangemess enen
Ġflex ibility
Synchronis ation
ĠAdministr ation
Ġgeziel t
Ġvermute ten
Ġbestimm ten
âľ ĵ
Ger Ã¤ten
Fin ancial
Ġannoun ced
olic y
Ġbi as
Ġungena uen
ĠInde ed
ĠBl uetooth
âĢĥâĢĥ âĢĥâĢĥ
ĠLÃ¶sungsans Ã¤tze
Ġtimest amps
ĠRechnungsstellung soptionen
Ġabgest Ã¼rzt
ĠTele medizin
expl orer
Ġintellig ence
Ġreveal ed
Ġchart s
ĠRol le
Ġpertain s
ĠKrankenhausauft ritts
ĠNon etheless
Ġpron oun
ĠJan uary
ĠGuid ance
Ġartific ial
ĠProtect ing
Ġbemerk en
ĠCorel DRAW
TÃ¼rkling el
ĠnÃ¤h ere
ĠFebru ary
" /
7 2
A D
B ack
C am
C ode
K e
M ay
R ight
R essourcen
S te
T wo
U SER
X P
a id
b ly
c ation
c lock
d a
d at
d om
d irectory
e very
j an
l u
l ts
m uch
m achine
n ormal
p ast
s ign
t ar
u h
u ft
v oll
w orking
Ġt Ã¤tig
Ġa k
Ġth ick
Ġs s
Ġd ritt
Ġw ind
Ġw rap
Ġc ached
Ġb all
Ġan nehmen
Ġan cient
Ġp sych
ed ited
Ġm apping
Ġf ake
Ġf lÃ¼ss
Ġin vent
ĠI st
ar is
ĠS n
ĠS enk
ur er
Ġun r
Ġg er
Ġg adgets
ĠT ell
ĠT agen
ĠA udio
Ġcon ce
Ġzu gehÃ¶r
Ġk ur
Ġv eter
ad v
Ġor d
Ġab used
ust ed
ĠC ut
ĠC ool
ĠM icro
ĠM SU
ĠE ing
Ġer wartet
Ġinc lusion
ĠR en
ĠH ost
ĠL AN
ts chaft
Ġuns alv
be teiligung
Ġper taining
ho lder
ake te
Ġqu oting
sch t
Ġpe op
me chan
ĠAd just
ĠAd apter
ik o
Ġwho ever
ĠSoftware kompatibilit
ĠRe ject
ĠSystem update
Ġinst antly
Ġconc urrent
Ġspe ech
Ġweiter leiten
Ġco inc
Ġsyn onom
ĠJ un
Ġwrit er
ĠEr lauben
Ġmin s
Ġph p
Ġcorrect ness
ĠSh ow
Ġfix er
Ġcheck mark
Ġarr ay
Ġear th
Ġeas ter
Ġfree ly
Pro ject
viron ment
Ġbo ards
war ere
war ten
schlieÃŁ end
Ġcare ers
Ġaus reich
Is sues
Ġsecond ary
face book
ĠInvestment analyse
Ġmind s
Ġregul ator
inter pre
Ġrespons ive
Ġequ ipped
ĠUrsachen analyse
ĠPer l
perform ance
Ġsur ge
ĠWord press
PS A
Ġconsu m
ĠDatenb anken
Ġexec ute
Ġaw k
rÃ¤n ken
Ġphr ases
Ġdiscour ages
Ġeditor ial
Ġ; -)
let ter
Ġassign ments
Ġfamiliar ity
ĠAv oid
under b
Ġtele medicine
Ġclass ic
Ġdisapp ointing
Ġintrodu ce
Ġwin ners
Ġforts etzen
hÃ¤n gt
Some one
Ġpress ure
Ġcalcul ation
Ġgenutz ten
Ġautor isierter
ĠVerstoÃŁ es
ĠBetriebs prozesse
Ġirregular ities
ĠStrateg iedienstleistungen
Ġbegeg net
Le ave
zusch lieÃŁen
Ġkomp lex
Ġwall paper
Ġade quately
gÃ¤n gig
fach ung
Ġcentral ized
Ġdisagre es
ĠhÃ¶ch ste
Ġtrad itional
Ġdismiss ed
Ġmism atch
Ġzusammenzu arbeiten
Ġreinfor cing
shortcut s
Ġersch wert
Ġdetr iment
ĠAug ust
Aut om
ĠSystemver langsam
Ġfals chen
Ġpropriet ary
ĠExpert ise
ĠSenk ung
) ...
4 00
C reation
K undendienst
L S
L ord
R C
S etup
T ra
U r
a uch
b au
c reate
h our
k its
m ultiple
o h
p ick
r c
r ad
s cript
u able
Ġ 00
en c
in stead
re ceived
ou red
is men
Ġm illion
le ts
an pass
Ġf f
ĠI gn
Ġand ere
il ater
Ġn aming
Ġbe half
Ġg ap
ig es
im arily
ĠP ick
ĠD auer
ĠD IR
Ġr Ã¼ck
ers e
th ose
Ġcom ic
sw achstum
Ġv andal
Ġal ot
Ġex tract
all ing
Ġab zust
ĠC ub
ĠB illing
ĠB TW
Ġac celer
Ġsh if
Ġ( +
Ġany ways
ĠK ing
ĠK und
ĠK orre
art ment
ud os
Ġrec ente
ĠL ang
ĠSu pp
ĠN E
ĠN av
ps hot
Ġsee ks
ols ky
Ġspec ifying
Ġspec ulation
Ġj erk
de bian
Ġinter active
ĠVer tr
ĠVer lauf
ĠUn like
Ġpr ize
ĠWh ite
Ġpre fix
icher t
ange bote
ck et
Ġstrateg ic
Ġlet ters
Ġpe ers
pro b
Ġover laps
ĠSch aden
ĠSoftware integration
ĠServer leistung
Ġke inen
Ġforward ed
ein heit
Ġlo ose
Ġgrow s
Ġ3 9
Ġweiter fÃ¼hrende
ĠJ ira
ĠTeam mitgl
ĠBe yond
Ġuna ware
Ġremo ves
ex p
Ġdisrupt ive
Ġi T
ĠProjekt daten
Ġcheck list
ĠSp olsky
Ã¤n ge
li able
zus ammen
ĠZugriffs an
Ġerforder liche
Ġtelefonisch e
ĠApp lication
ĠAktualis ierungs
install ed
Ġcontinu ity
ĠCan onical
irt y
ĠIntegrations schwierigkeiten
sh ell
Ġproper ty
ĠRec ogn
fl usst
Ġstud io
ĠPre view
ĠNutz en
ĠNutz ungs
ĠAttempt ed
unter brechung
ĠFin ancial
Ġrobust en
Ġfo oter
Ġpos es
St and
ĠTechn ical
Ġcover age
Ġvari ants
atis ierungs
Ġbew Ã¤l
Ġbew usst
imp ortant
ĠZahlungs mÃ¶glichkeiten
Ġsur prise
wor ld
orr ents
En h
ĠInternet verbindung
Ġ12 5
Ġcombin ing
Su peruser
Ġges te
Ġhum ans
IM HO
Ġsubstant ive
Ġattrib ute
Ġwilling ness
na pshot
ĠRouter s
Ġspeak ers
ĠFunkt ions
ĠCy bers
Ġclos ures
ĠGeschÃ¤fts prozesse
Ġsimpl er
Ġauftreten den
learn ing
ĠFlag ging
Ġcalcul ated
ĠFol gen
Ġhistor ically
Ġhyp hen
bre v
Ġanzu gehen
ĠAbrechn ungsoptionen
Ger Ã¤te
Ġboil er
!!!! !!!!
ĠDep artment
ĠOk ay
ĠForm at
Ġpenal ized
âģ ´
alle l
zust and
Ġquant ity
ĠAT I
ĠzÃ¼ gige
Ġconstit utes
komp onenten
ĠKind le
Ġgesetz licher
Further more
Ġdut ies
Ġdimin ish
Ther m
Ġdisp ute
brÃ¼ che
Ġvict im
ĠZugriffsk ontroll
Ġoverhe ating
pflicht ungen
Ġunfam iliar
Ġabzust immen
ĠCub ase
( )
/ -
/ ?
3 00
4 1
7 3
A ccording
B ete
D T
D irect
F lag
H allo
L ooks
M P
U sing
V inc
W ill
a uthor
a ffen
b ul
j pg
l ay
m ic
m ouse
n D
n This
n Additionally
p te
r ical
s ed
t able
v ies
x ts
Ĳ âķ
Ġs an
Ġs al
is ible
Ġc as
Ġb og
Ġm ild
Ġm SO
le opard
Ġf ed
Ġf ro
Ġin f
Ġh ref
est ern
ic ian
ĠS V
Ġn ic
un ication
om ed
Ġe ase
Ġun it
im g
ag ged
ĠW a
ĠW riting
Ġquestion ers
ĠA gency
ĠP op
out ube
ĠTh ird
Ġk ompatibel
Ġv amp
Ġsu st
Ġst Ã¶r
Ġissu ed
Ã¤ hren
Ġex hib
ĠC L
Ġdis par
Ġver arbeitet
Ġse ven
Ġdo g
per haps
ĠF unktion
Ġge kommen
Ġcl ip
ific ant
iv itÃ¤ts
den ame
ĠN etworking
Ġsol che
ĠDaten integritÃ¤t
be ite
icher ungen
Ġmat h
Ġsupport ive
Ġrecent en
Ġunter brochen
Ġproject or
row th
Ġenh ances
ĠSer iously
Ġdif f
ĠTe mpor
ĠRe ason
ĠServer protokolle
Ġob fus
Ġnecess it
Ġatt ach
Ġeng lish
ug h
enn ung
Ġdownv oters
ĠEr fahrungen
In formation
Ġdem os
enden cy
leit ung
Ġacc us
ĠAnge bote
oc king
Ġpass es
Ġvor gehen
Ġprotect ions
Ġmean ings
ob vious
Ġinstall ierten
ĠDies es
Ġpol it
app y
Ġview point
ĠComm on
Ġbro ke
Ġthought ful
gu ided
ĠCh ancen
ĠCh allenge
ĠAb nahme
Ġcour tesy
Ġdirect ions
Ġdesign s
ĠIntegrations funktionen
cl ient
tr oubleshooting
Ġautomat isierte
Ġaus einanders
PA M
SE O
ĠPl ayer
Ġdash es
ĠNutz ern
Ġsk al
Ġleg ality
Ġparticip ated
Ġbed ingt
Ġsynonym ized
Ġemploy er
Ġann iversary
Ġsporad ischen
do ing
Ġ200 3
wickl ungs
Ġloc ally
Ġloc ations
ĠOut dated
Ġ= >
Ġher zustellen
Ġhit ting
Ġenthusi astic
Ġcollect ing
ĠAv ailable
Ġment ality
ĠUp grades
kehr ungen
Ġpurch ased
ĠDa Vinc
Ġalign ed
Ġsil ently
Ġmatch ing
old est
host ing
Ġconver ting
ĠRisik obe
Ġredirect ed
Ġdemonstr ates
ĠTime outs
ĠOper ations
fre qu
ĠProblembe handlung
Ġsozial er
ĠVorgehen sweise
ĠOT OH
Ġbur den
Ġscroll ing
Ġdeep ly
ĠAccept ed
Ġblat ant
ĠHyper X
Ġlabel ed
Ġbeein flusst
Ġthumb n
mal en
Ġabst Ã¼rzt
ĠMedizin ischen
Ġabgest immt
Ġreword ed
Ġnewcom er
ĠDatenzugriff s
Ġcapital ization
ĠDok umente
EF I
ĠStream Cam
Ġgleich zeitig
ĠDatenspe icherung
uplo ad
ĠAnfang s
ĠAF AI
ĠWerbean zeigen
ĠMV SU
ettbewer bs
ĠDragon Lord
Ġanticip ate
ĠBeh and
Ġgeplan ten
Ġhinde utet
warere cs
Bete il
ĠDaVinc i
) )
5 2
> -
B es
M ake
M icrosoft
Q u
S hopping
T im
a f
b ild
c urrent
f ein
i as
i us
k now
l ers
m ake
n hinkle
r ung
t otal
w riting
at est
Ġs hr
Ġs telle
it ness
Ġw are
Ġb omb
Ġp hen
le br
an other
an strengungen
Ġf onts
al one
Ġh alt
ar p
et su
ĠS tellen
st ate
Ġg elÃ¶
Ġl ernen
ver bindungen
ĠT O
ĠT im
ĠA mer
Ġz Ã¶gern
ĠP hone
Ġr ated
Ġr ud
os ition
Ġk ontinu
ul ator
Ġso for
Ġal ike
ĠWe Chat
ĠC opy
ĠM int
ĠM obile
Ġver arbeiten
end et
Ġdisc laimer
ĠAn schlieÃŁend
ff izienz
ĠV eg
ĠO wn
Ġcl ock
Ġrec urrent
ĠR EA
Ġch ips
Ġcomp letion
ĠN ice
Ġsch lech
ĠZ FS
se kt
Ġinter ference
ous y
ĠSt op
ange bot
sch Ã¤den
ĠY eah
âĢ ľ
Ġover char
Ġben e
ĠRe vision
ĠServer ressourcen
ĠQ s
Ġdiffer ing
olog ically
ĠUm gebung
od cast
Ġwrit es
ĠEr wartungen
leit ungen
Ġpract ically
Ġold est
Ġur ge
any one
Ġend ing
ĠOP s
Ġret ain
Ġstr en
Ġexp ires
ĠDatenanalyse fÃ¤higkeiten
Ġter ribly
ĠÃľber tragung
Ġvulner able
ĠNetzwerk unstabilitÃ¤t
tr ivial
ĠAus maÃŁ
Ġma x
Ġaus gelÃ¶st
ĠTr ilogy
ĠRessourcen allokation
Ġeff iziente
Ġfl air
Ser vices
Ġconst ant
ĠKontakt daten
ĠDisk repanzen
Ġsk ipped
Ġerk lÃ¤ren
unter stÃ¼tzung
tag ging
Ġstream ing
See ms
Ġmaintain ed
Ġpresent ing
Ġvari ant
Ġoccas ions
Ġadvertise ment
sc ope
Ġsur face
Ġsuper ior
Be fore
ifik ation
Ġdisapp ointed
Ġspeak er
ĠVM Ware
ĠEnt wicklungen
Ġdetermin es
eth ical
ĠRequest ing
ĠDatensperr verstoÃŁ
program m
Ġconsol id
ĠPDF s
Vers chlÃ¼ssel
ĠLa TeX
ĠSozialmedien marketing
ĠSub jective
Ġev ident
ungssystem e
ĠSuggest ions
Im prove
Ġcoordin ation
Ġrefund ed
Ġcapt cha
Ġunfair ly
Ġleak s
rÃ¤ ge
ĠTV s
pip elines
Ġevol ve
Ġevol ving
Ġunivers ity
Ġtweak s
US B
Ġinspect ing
Ġscrew ed
Ġmism atches
lim ited
ĠDevelop ment
Ġeingeh alten
vas ive
ĠkÃ¤mp ft
ĠVorhers age
ĠCyberan griffen
emp hasis
Ġvac u
ĠLO PSA
freund lichkeit
Ġgarn er
Ġ____ __
frei heit
ĠfrÃ¼hestmÃ¶glich en
Ġrelations hip
gef unden
Ġdiag ram
Bas ically
Ġessenz iell
Ġfant astic
Ġug ly
ansom ware
Ġak zept
Ġunsalv ageable
Ġpeop les
ĠiT unes
Ġboiler plate
Ġauseinanders etzen
Ġphen omen
etsu jin
ĠgelÃ¶ scht
Ġkontinu ier
ĠVeg as
7 0
A p
D id
D igital
F ol
L ike
M er
M DMarra
S D
S imilar
V PN
V ulnerabilitÃ¤ten
W in
b row
d ist
d ue
f Ã¤n
k ill
l and
l ass
m als
n ive
n ight
p et
s qu
s bs
w ikipedia
z ub
Ġt ables
in fo
on al
Ġs ends
Ġs izes
Ġs ides
re ff
it o
Ġd ying
is sue
Ġc d
Ġc ents
Ġb att
Ġan genommen
Ġp et
Ġm ile
al ous
ro hungen
ar g
ĠS incerely
ĠS oph
ĠS PAM
Ġre ag
Ġn ginx
Ġbe halten
om eter
Ġe lev
Ġun p
Ġun lock
Ġun used
Ġun ilater
ig itale
im ited
ver folgung
ĠT OS
us b
ate gor
ĠP A
ĠP red
ĠP res
ĠD em
ĠD ienstleistungs
ith ub
Ġr ich
Ġund ef
ir ak
sw ert
Ġsu cc
Ġso d
ad mittedly
Ġex ha
Ġab brev
Ġres ume
ĠC orrect
ĠC AN
ĠM OD
Ġver langsam
Ġac quire
Ġ( ~
ĠV PS
Ġle gen
ĠO ption
Ġcl one
Ġcl ues
Ġrec om
iv ation
ĠR un
ĠL ern
ĠL CD
Ġpl ant
ĠN ope
ĠVer pflichtungen
be ing
Ġper vasive
ru ch
pro vid
Ġover ha
Ġover sight
Ġproject ions
we il
Ġrel ig
ap hr
Ġexpl orer
Ġro bo
Ġent ering
Ġencounter s
Ġmeas uring
igh ter
Ġweiter es
Ġdar aus
Ġdr astic
Ġown ers
ĠTeam kol
reich e
Ġsign ing
Ġind irect
Ġoper ates
Ġbesser es
Ġboth ers
Ġvor geschlagen
Ġcheck box
che id
Ġeas iest
Ġbo oting
Ġter rit
ĠAb fragen
Ġdesign ing
zu h
ĠIntegrations problemen
ĠDe ployment
Ġmis guided
ĠBenutzer rechte
Ġfacilit ating
ĠImplement ing
Ġine v
Ġpos it
Ġplay ed
reg istered
Ġtempor Ã¤re
ĠFe b
Ġcommit ment
Ġattract s
imp le
ĠZahlungs plÃ¤ne
Ġconsist s
ĠWork station
Ġaw aiting
Ġges ucht
IM O
ĠDatenanalys ein
Ġexc luded
ĠBes cheid
Ġreflect ed
iell er
wert ungs
zy k
ĠTry ing
Ġviol ates
onne ments
Ġassum es
mon itors
Ġcontr ad
Ġeinge fÃ¼hrt
Ġwid get
Ġbek ann
Any way
Ġencrypt ed
ĠFol low
Ġdemonstr ieren
ĠDiagn osen
Ġbeg un
Ġobtain ed
Ġinser ted
Ġnaht los
ĠpersÃ¶n liche
Le ist
Ġdang er
ĠPlÃ¤ nen
ĠDatenaufbereitung stools
ĠWel come
ĠBenutz erk
Ġunw anted
ĠVerein fachung
Ġaccum ulated
Ġstar ke
ĠBro sch
ĠScreenshot s
Ġgoog ling
Dienst en
ĠFF mpeg
Ġheads ets
Ġstatt gefunden
Ġbevorzug te
rest art
Ġshor ter
Ġzusammenzu hÃ¤ngen
ĠÂ »
ĠÃ¤hn liche
Ġlangfrist igen
ĠVork omm
Ġgeleg entlich
Ġarrang ed
Ġunre liable
Ġconvent ions
Ġbottlen ecks
ĠerwÃ¤h nt
esley David
ĠWebse ite
Ġfat ig
Ġdiscre tion
ĠtÃ¤tig en
ĠRen ame
Therm ometer
ĠSoph os
Ġundef ined
Ġoverha ul
! --
( '
* )
. *
5 6
G A
G race
M A
S yn
T ime
b at
c ss
d ir
g ab
k arte
m os
o ordin
p owershell
t aking
u ern
y brid
en ing
es x
re fer
Ġd uck
Ġw ins
is sues
or se
Ġf oul
Ġin n
as ure
ĠS ide
ĠS plit
Ġre inst
Ġre cht
Ġre gex
un sch
un kte
ur ance
ur pose
Ġun its
Ġun changed
Ġg ib
Ġl aden
Ġl ousy
ver kehr
ver teilung
ĠT ab
ag ers
ĠW o
Ġit al
ĠD ark
ul ative
Ġex em
iz on
ĠC ustom
ach tet
ĠU til
ĠIn t
ĠE ink
ĠE van
Ġer st
Ġer folgen
ĠF inding
Ġsh ipping
Ġsp ite
Ġsp ark
ĠPro ceed
ĠPro gnose
ĠK urs
Ã¼r den
Ġge h
ber ichte
Ġcl i
ĠR O
Ġch rome
Ġch unk
Ġch atty
ĠL G
ĠL ots
ĠZ irak
Ġinter change
be isp
ĠSt unden
men te
me aning
Ġguid ed
etw een
ik rot
Ġgreat est
ĠRe place
ĠServer Ã¼ber
utz t
Ġinv isible
med ia
Ġvar ies
Ġown ed
ĠZu verlÃ¤ss
ĠEr fahrung
Ġbl indly
ĠMarketing bemÃ¼hungen
Ġsearch able
Ġmir ror
ĠSh aring
ex change
Ġmethod ologies
Ġi Mac
ĠX code
Ã¤n de
Ġworking s
ĠOr dn
Ġspam my
10 58
ph ase
Ġwel chen
Ġblog ged
Ġbetroffen er
Ġorgan isieren
ĠbeeintrÃ¤chtig te
Ġbu gg
Ġsubject ivity
Ġla ugh
Ġclean ups
Ġvalid ity
ĠZiel s
ler nen
Ġaus prob
ĠĠĠĠĠĠĠĠĠĠĠĠĠĠĠĠ ĠĠ
Ġproceed ing
gin ner
Ġmis interpre
ĠSit es
Ġsafeguard s
Ġpop s
Ġsho oting
Ġdro pping
ĠBer Ã¼cks
Ġra w
Ġpos itions
Ġelect ronics
Ġprec a
ĠCon gratulations
ĠRechnungs fehler
Ġlif t
bere iche
Ġargu ed
Ġverbesser ter
Ġamong st
comm erce
ĠMarkenwachstums strategien
swe isen
Ġmag ically
Ġvague ly
Ġzusammen hÃ¤ngt
Ġdat acenter
ĠAud iting
ĠInhalts strategie
ĠAu ft
Ġpen etration
Ab out
Ġcell ular
ĠDoc s
ĠDown vote
ĠNeed ed
Ġeinz ule
Ġdistrib utions
Ġinterpret ations
ĠAnlage entscheidungen
Ġangemess en
gener ated
Des ktop
Ġisol ated
ĠFree BSD
ĠSicherheitsvor kehrungen
Ġluck y
ĠverstÃ¤r ken
sm art
Ġstrugg le
ĠJav a
Ġce lebr
ĠNetzwerks icherheit
Ġobl ig
fass ung
ĠSol utions
Ġconvin cing
Ġrenew als
Ġaffil iated
Ġrad io
OOOO OOOO
Ġfehl geschlagen
Ġaktiv ieren
ĠKey board
ĠBerichts funktionen
optim ierungen
Ġgoog led
ĠWartungs arbeiten
ĠVerkaufs zahlen
Ġmaschin elles
Ġshar es
sect ion
Ġbarr ier
Ġexpend it
ĠUpd ating
ĠDatenÃ¼ber tragung
ĠErmit tl
zufried enheit
Ġoverr ide
Ġdeprec ated
OF H
Ġverpflich tet
Ġkur ze
Ġdetriment al
ĠKing ston
ĠKorre ktur
ĠbewÃ¤l tigen
Ġbene ath
VerschlÃ¼ssel ung
Ġterrit ory
ikrot ik
ĠOrdn ung
0 7
A tt
D S
D ef
E G
G ehÃ¶rte
H A
H abe
K E
M an
M Ã¶chten
S ub
X E
Z XT
c os
c ost
d irect
d essen
l ights
l Ã¼cken
m ight
n F
n ger
r outer
t w
Ġt ier
re ts
Ġthe ater
Ġb orn
Ġan gry
Ġp m
ed ed
Ġm ask
an alytik
Ġf iguring
Ġu pper
al ter
Ġh Ã¤lt
Ġh iding
Ġand eren
ĠS am
Ġre balancing
Ġe lektron
Ġe cho
Ġg Ã¼nst
ĠT R
ĠW ard
ĠW unsch
us es
ess ing
Ã¼ hr
Ġha bits
Ġr ack
pt ive
Ġnot ices
Ġat m
Ġen vision
Ġme at
ĠC oding
ach richt
ĠU ltimately
oo ps
Ġim per
ĠB ab
ĠB locked
ĠE ind
Ġer warten
ĠF ull
Ġsh it
Ġ( [
ĠK I
ĠK enn
ĠK abel
ĠV arious
sist ent
Ġcont rovers
Ġrec onsider
ĠH A
Ġpl ate
ĠN ormally
ĠN ZXT
ps on
ĠG est
ĠG oog
de fault
Ġpr ime
view s
ĠSt ate
Ġall quixotic
Ġact s
Ġno vice
Ġar n
ste igerung
ĠÃ¼ber arbeiten
ans atz
Ġbesp rochen
ĠSoftware p
ĠRe levant
ĠServer neustarts
Ġro llen
ĠSicherheits standards
Ġtechn ician
Ġconc lude
get E
Ġnow adays
Ġ3 7
Ġsub tract
Ġbit ch
ĠVor schlag
Ġins ecure
Ġel it
fol low
Ġdef ines
Ġreal m
Ġreal izing
ĠMarken strategien
ha ppy
Ġprefer ably
app le
Ġ7 1
ĠCl ient
Ġcontin ually
ĠWhen ever
Ġenc oding
ĠGr amm
what s
Ġcontain er
oint ment
ĠBenutzer freundlichkeit
Ġsynonym ous
ĠGe orge
See k
ĠFall es
leg ung
no ise
ĠFe atures
ĠSk etch
ĠRechnungs daten
wir ken
comp any
Ġber ichtet
Server fault
Ġsubst it
ĠDatenschutz verstoÃŁ
Ġhum ble
eto ol
ĠAbrechnungs d
ugg ed
ĠPerson en
ĠPot enzial
Ġexc luding
Ġparam eter
Ġze igte
Ġcoun ting
Ġevalu ations
Ġtransfer red
ĠInhalts ersch
vide o
ĠLÃ¶sungs prozess
Ġcomplain ed
ĠTrans aktions
Ġtem pted
Ġclos est
89 0
Ġkonf likt
ĠEntscheid ung
ĠLike wise
Ġformul ate
ĠSynchronis ation
ĠEntscheidungs prozesse
ĠFre ue
iti ativen
stÃ¶r ung
ĠPasswort sicherheits
ĠSure ly
Ġreward ed
Ġpain t
Ġpain ful
ĠGrund ursache
check ed
Ġsalv age
pun kten
Med ien
Med izin
Ġemer gency
ĠES G
ĠDev Ops
ĠBro ad
ĠCrash es
ĠDok ument
oper ating
ĠVerkehr s
Ġunterschied liche
Ġchron ologically
het or
ĠDatensynchronis ation
ĠDateneing aben
Ġfing er
Ġbrack et
Ġinfr inge
ccas ionally
Ġgeb eten
Kont onummer
mechan ismen
Ġconsum ption
ĠrÃ¼ck gÃ¤ngig
ĠBehand lung
Ġeinzule iten
ĠInhaltsersch affung
8 50
9 3
> ;
C C
C onnect
D N
D ue
G uten
O per
R esponse
T ry
V or
V ide
W esleyDavid
Z ertifizierungen
] ).
b rowser
b ugging
c aps
c onstructive
d ifferent
e w
e ig
h opefully
i ative
k amera
n Z
n If
o ols
u he
v ia
v oretaq
w all
Ġs ende
Ġs napshot
re in
it ial
Ġd ir
Ġw ise
Ġb ounds
Ġb umps
Ġm oun
Ġf ruit
ĠS witches
ĠS orgen
Ġn it
Ġn ull
Ġe g
Ġun tagged
Ġun reasonable
Ġfor ces
Ġl aufenden
ver zÃ¶gerungen
ĠT K
Ġthat s
Ã¼ bers
ĠP odcast
ĠD adurch
su pp
ec ademy
ail ability
sw arn
Ġv ent
Ġal t
Ã¤ m
our ces
Ġen orm
Ġab rupt
Ġres yn
ĠC O
ĠM aking
ĠM ove
Ġver sch
ind er
Ġse ason
ĠE OL
Ġer ster
Ġde fen
Ġsp are
ite in
ĠAn stieg
Ġte il
Ġrec alcul
ĠH at
ĠH orror
ĠL ife
Ġpl acing
Ġsch affen
ib li
Ġrep et
Ġden ied
Ġein fach
ĠVer abredung
ho le
ens tell
ens itive
Ġ- --
ĠÃ¼ber zeugt
ra ud
ward ed
Ġhe ightened
Ġpo d
esser ung
ĠSoftware update
ĠSoftware kompatibilitÃ¤t
ĠRe mote
ĠRe installing
Ġbre itere
osp here
ein formationen
Ġcons iders
Ġlog out
tt ably
ĠEx cept
od d
iss ens
ĠAl pha
Ġverein bare
Ġdel imited
ĠMarketing werkzeuge
Ġprof it
Ġform ally
Ġdef enses
ron os
Ġfr iction
Ġreal ised
Ġreal istic
ĠInvestitions prognosen
ob viously
Ġweb hooks
Ġcompreh end
ienstleist ung
tra ffic
ĠNot fall
Ġass ets
ĠDatens atz
Ġsynchron izing
gre ed
As king
Re member
ĠLet s
ĠĠĠĠĠĠĠĠĠĠĠĠĠĠĠĠ ĠĠĠ
Ġword press
Ġsuspect s
ĠIm proving
Ġprior isieren
ichtig ung
ĠPre vious
Ġ: -
Ġexplan atory
Ġbed ro
ĠKonto einstellungen
ĠSc anner
Ġdist ro
ĠPr Ã¤senz
part ic
ogn ito
Ġsent iment
ĠKonf likten
ĠPassw Ã¶rtern
Ġsuper fic
ĠUms atz
200 9
AM E
Ġloc ate
ĠArbeits prozesse
Ġunderperform ed
Ġswitch ed
mittel t
Ġrespect ively
gest altung
Ġtrig gers
=" -
ifi able
Ġdev iate
Ġleid et
Ã¼cks etzungen
ĠExam ining
27 3
ĠDat end
Ġalign s
computer s
Ġlaunch ing
ĠBr ief
Ġlaw y
ĠEinsch Ã¤tzung
Ġeinz ud
Ġmen us
Ġlik el
Ġindex ed
Ġelimin ated
Ġdemonstr ated
Ġdemonstr ating
87 0
ĠDatensystem en
Ġemphas ize
run ning
Ġtoler ated
Ġobl iv
Ġgrav atar
Ġprint ed
Ġwiederhol te
Ġprofess ionally
ĠDep ending
== ==
Ġcontract s
ĠBestÃ¤tig e
Ġgold en
Ġinterf acing
Ġpir ated
AL P
ĠAnn iversary
ĠMetro SE
ĠplÃ¶tz lichen
ĠZwischenzeit lich
bru ch
Ġbegrenz te
ĠRemo ved
Ġvolunte er
ĠverzÃ¶ger te
ĠMarkenbewusst sein
ĠSM TP
Ġunterschied lichen
Br ille
Ġineffekt ive
ĠIde ally
Ġsuppl ies
Ġprohib ited
Ġstruct ures
Ġannounce ment
ĠWorkar ound
po or
Ġgesp e
Ġlauf en
qual ified
Ġcrow d
Unter stÃ¼tzung
CI I
Ġindustr ies
Ġerrone ous
ĠCod ecademy
ĠBeeintrÃ¤chtig ung
Ġbenutzerdefin ierte
Ġbeteil igten
ĠVertra uen
Ġoverlook ed
Ã³ n
othe ken
Ġrechtzeit ig
Ġrepro cess
Ġhinwe g
beding ungen
ĠSystemverlangsam ungen
Ġff mpeg
Ġstudio hack
Ġsucc inct
Ġsod ass
ĠZuverlÃ¤ss igkeit
Ġatm osphere
ĠGramm arly
ibli otheken
6 2
9 40
? :
C onc
C rypt
G re
K A
M T
O ld
P ER
S A
S ecurity
S witch
T X
T otal
T asks
b esp
b alls
c am
c ool
c ape
c rap
d igest
e asy
h me
j o
m c
m gt
n W
n one
n Please
n ektivitÃ¤t
r f
s ys
t C
t ry
u ate
on ze
Ġs ink
re aten
it zen
or iented
Ġan ec
Ġp ane
ĠI IS
Ġh amper
ar c
as soc
ent liche
et he
et roffen
ic orn
ĠS et
Ġre plicate
il er
om ing
Ġpro l
Ġun av
id elines
Ġl ib
Ġl esser
ver suchen
ol ing
ĠW ie
ĠW rong
ĠA P
ĠP OS
ĠP oint
ĠD D
ĠD L
ĠD iffer
ĠD igest
ĠD ifferenzen
Ġr as
Ġwh im
Ġzu verlÃ¤ss
ke ys
Ġk urz
ul a
hr te
Ġst Ã¼rzt
Ġnot ing
Ã¤ ge
ĠWe ise
Ġmo ves
Ġne hme
Ġcan on
ill ions
Ġab using
ĠC hris
Ġdis inc
ĠM uch
ĠM aÃŁ
Ġim gur
Ġapp ox
ĠB re
ĠB ot
ĠB etter
ĠE DT
Ġsp elled
ĠPro file
ĠK lÃ¤rung
ĠO pin
Ġge geben
ser v
Ġ" [
ber g
pl us
ĠR et
ĠR uhe
ĠH uman
Ġinvest ors
Ġpl ays
Ġuns icher
Ġrep utations
Ġj Ã¤hr
ĠG uten
Ġwhich ever
ĠDaten vol
de letion
Ġinter nen
ĠVer wenden
ĠUn able
ho de
ens ion
ens ible
ens chaften
eh en
Ġall er
ĠSo fort
ied ene
Ġusers cript
Ġsc ored
Ġsc rap
pro xy
chn ungen
Ġcle ver
Ġcontact s
Ġgen annten
Ġpo ke
cr iption
Ġdele t
ĠSoftware v
ĠRe aktion
ges ichts
Ġback wards
Ġnum er
akt ur
ĠKunden zufriedenheit
ĠFehler protokolle
Ġvers ichern
Ġsub t
av a
fe atures
pd f
Ġvor nehmen
Ġexp ire
User name
Ġmetr ic
Ġpoin ters
Ġslow ness
ĠCh ar
down vote
Ġumf ang
Ġla id
ĠRec ord
Ġmeld et
ocus ed
ĠBen Q
Ġorganization al
ĠGesundheits organ
val ue
ĠIm agine
Ġstor es
Ġappear ance
Ġempf ind
Ġhost ility
wier ig
Ġgest o
Ġsho ck
Ġparticip ant
St one
ĠPassw ord
ĠAns icht
sc ore
ĠLeistungs problemen
ĠLeistungs indikatoren
imm ungen
Ġdownload ed
Ġprodu ces
gment ierung
Problem s
apt cha
ĠAbrechnungs system
des cending
gesch wind
gesch lossen
Be i
Be ing
ĠProzess es
ĠSpe icherung
Ġcircum vention
ret ch
Ġalloc ations
ok ed
Ġescal ation
ĠausfÃ¼hr licher
bel ongs
Ġforec ast
Ġrepresent ing
ufact urer
ĠerhÃ¶h ter
oter ic
hÃ¤n g
Ġunerlaub te
Ġunnecess arily
ĠBack ups
Ġunk orre
Ġspot ted
Ġcor rupted
Ġaktuell es
syn onym
ĠSicherheitsvor falls
Ġpun ct
ĠRetag ging
36 1
ĠEntwicklung steam
Ġreconc iliation
ĠPortfolio analyse
Ġsalv aged
ĠLeit fÃ¤den
ĠSkal ierungs
Ġ29 13
Ġbi ased
Ac cept
ĠKÃ¼rz liche
pip e
isiert es
ĠShare Point
Ġshor ten
Ġpunish ment
ĠverzÃ¶ger ten
ĠVorhers agen
ĠBu ilding
Ġep is
Ġstyles heet
ĠGesundheitsversorg ungs
administr ation
Ġdistract ing
vorg Ã¤nge
Ġgeograph ic
ĠSoftwareinkompatibilit Ã¤ten
Ġmarginal ize
phot oshop
Jo hn
ĠGrav atar
cur ial
material ien
Ġsing ular
Ġbroch ure
Bed rohungen
zed ur
Ġverantwort lich
Ġspect rum
achver halt
adv ant
Ġbog us
Beteil igung
Tim Stone
Ġvacu um
ĠBerÃ¼cks ichtigung
! ),
! ",
/ .
3 65
B X
M S
N AS
N IX
S cript
T ests
V ulner
W I
W RT
Y esterday
` `
a j
c asts
d ose
e gg
e vol
f Ã¤ll
i Ã³n
l s
l ate
l ted
l ooking
p es
r imin
s icherung
s icherheit
t a
v y
y et
z w
â Ĩ
Ġ _
Ġt orrents
Ġa uss
Ġa ven
re move
it ivity
Ġd ienen
Ġd irty
Ġw ettbewerbs
is her
is ons
Ġc um
Ġb eseit
Ġp itch
le ge
an frage
an alyt
te ch
ar es
ar io
as ant
as suming
ic on
ic ating
Ġn vidia
un ately
om anagement
st ant
qu ot
Ġpro tot
ur rect
im me
im prove
Ġl i
ver lust
ĠT urn
ĠT etsujin
ag it
Ġas sem
ĠW ait
for um
am pt
ĠP SU
Ġr ig
Ġr ansomware
Ġr hetor
su mer
Ġzu zug
ĠTh underb
th read
th em
Ġsu do
Ã¤ d
Ġres ort
ĠU EFI
ĠM erk
ĠM ath
and os
Ġver fÃ¼
ge ek
oo bs
ystem en
ĠE V
Ġ< <<
Ġdetail ing
ĠF iles
Ġdisc ount
ĠPro tocol
ite ktur
ĠAn bi
ĠO perationen
ser tion
Ġtr icks
pl ed
ĠR T
Ġcomp eting
ĠN ove
Ġmy ster
so red
ĠG ame
ĠG Mail
de vice
Ġste pping
ast ically
urr ing
Ġpre val
Ġ- --------
ck dose
sch wer
Ã¼ber prÃ¼fung
Ġar rows
ord ers
bl es
Ġaccoun ting
Ġrel o
fr esh
Ġdele tes
lie gt
lo cking
ĠSystem Ã¼berlastung
ĠSystem anforderungen
Ġwhy yyyy
olog ien
Ġlog itech
Ġmod ification
ĠUm gang
ĠEx ist
Ġes oteric
ĠFehler bericht
ruf e
ĠAl ways
ĠBe gin
fe el
iven er
Ġreal ign
ĠProjekt aktualisierungen
ĠProjekt managements
Ġend point
wach stellen
Ġgr ant
Ġgr ab
ĠSp orts
ger ufen
zus prechen
zuf Ã¼gen
Ġweb master
Ġpol ish
Ġpur view
ĠZugriffs bemÃ¼hungen
ĠComm and
ĠCl ass
ĠSm all
Ġschnell er
the ir
ĠCan vas
tr aSh
sh aring
âĶĢ âĶ
Re ad
ĠTr aining
ĠĠĠĠĠĠĠĠĠĠĠĠĠĠĠĠ ĠĠĠĠ
ĠDatenver stoÃŁ
Ġpower point
Ġnach fragen
ĠDe vice
ĠDe leted
Ġtit led
Ġencour agement
dr iver
Ġleg ally
Ġperiod ic
teil t
ĠTrotz dem
system en
inter face
SO D
ĠInit ially
ĠzukÃ¼nft ig
Ġindivid uellen
Ã¤s st
ĠFinanz invest
ĠFe ature
Ġsporad isch
Ġbuild s
Ġhal ves
ĠFehl konfigurationen
la ptop
Ġabs ence
Ġstay ed
SU PER
And roid
Ġ25 5
ĠPower Direct
Ġmeasure ment
19 6
ER E
Ġeager ly
Ġcollect ive
ĠnÃ¶tig en
appro ved
Ver y
Ġstem s
ĠKonfigurations einstellungen
De lete
De velop
graph ics
wert ungen
Ġrepresent ed
Stack Exchange
usern ame
ĠUp grading
Ġfault y
ĠDigital marketing
Ġink ompatible
ĠPort fol
Ġskalier bar
Ġlar gest
Ġstructure d
ĠDatensperr verletzung
TF Y
AN D
Ad resse
Ġumfas ste
andon ed
Ġappe aling
Ġfort gesetzt
Ġliter al
ĠFre ude
ĠCyber Link
bu ild
ĠIdent ifikation
Ġid le
Ġeye balls
Ġdialog ue
ĠstÃ¤r k
Ġintermitt ierende
Ġroutine ly
Ġrat sam
Ġtun nel
ĠPlan ung
Ġmangeln den
ĠLast ly
ĠErfolgs mess
Ġev olved
Ġerwarte te
Optimierung stool
ĠVorgehen sweisen
Ġempfohlen en
Ġhyper link
MMMMMMMM MMMMMMMM
AMP P
Ġrestric ting
ĠMonitor ing
Ġrant ing
ĠSkalierbarkeits funktionen
Web comic
versorg ung
Ġbehand elt
Ġdiv ision
Ġunivers al
main tain
mar king
âĶĢâĶĢâĶĢâĶĢâĶĢâĶĢâĶĢâĶĢâĶĢâĶĢâĶĢâĶĢâĶĢâĶĢâĶĢâĶĢ âĶĢâĶĢâĶĢâĶĢâĶĢâĶĢâĶĢâĶĢâĶĢâĶĢâĶĢâĶĢâĶĢâĶĢâĶĢâĶĢ
ĠMigr ating
Ġcolle ge
Ġimproper ly
ĠEnh ancing
Ġdemo cr
ĠFix ing
Ġcp u
Ġdisallow ed
Ġshar p
ĠMarkenbewusst heit
ĠSynchronisations probleme
Ok ay
Ġsnipp ets
Ġsuppl ied
modell ierung
establ ishing
ĠBurn inate
Ġdict ate
ĠspÃ¤ter en
ĠUl traSh
Ġsupplement ary
Ġumfassend ere
ĠScr ivener
ĠInform ieren
Ġsubnet ting
elieb ter
Ġdeliber ately
ĠEss entially
Inc ident
ĠDatenmen gen
ĠJe gliche
advert ently
ĠGipf el
Ke ep
Ġnic er
Ġphenomen on
ĠVorkomm nisse
Grace Note
beisp iele
Ġausprob iert
Ġexpendit ure
ĠAbrechnungsd ifferenzen
Ġanec d
Ġdelet ions
ampt on
Ġzuzug reifen
Ġwhyyyyy yy
SUPER USER
ĠPowerDirect or
ĠUltraSh arp
% ,
H ey
K Ã¼
L ow
L icht
M ate
N O
N et
N utzer
O ut
R aten
S omething
T A
U ST
\ "
\ ",
b ash
b order
d or
d ru
h ad
h istor
m ay
o ption
p aus
p ann
s atz
t imes
v oters
z if
z iert
Ġa ffor
en vironment
at ient
Ġs ke
Ġs and
Ġs lo
Ġs icht
Ġd row
Ġw ont
Ġw ikipedia
is n
Ġc ul
Ġc aut
Ġb anning
ed aten
ed ule
ch arge
Ġf ell
al ways
al gorithmen
as m
as ures
ent lichen
et reten
ĠS achverhalt
Ġre iter
ie fen
il ver
Ġn un
Ġbe l
st abl
st udio
qu otes
ur able
Ġun ified
Ġun gelÃ¶st
id et
im ages
Ġl aser
Ġl Ã¤sst
ver letzungen
ter t
ut ral
ess ion
if orm
Ġus able
ĠP unkte
ĠD omain
Ġr asch
ail ed
Ġzu greifen
ys ql
sw erkzeuge
Ġv ice
ul ich
Ġnot ably
Ġal ien
ac counts
iz ont
Ġres ident
ĠC ors
Ġdis position
Ġdis respect
Ġdo omed
ystem e
ystem s
ĠIn halt
ĠB uch
ĠB ash
ĠB ott
ĠB etroffen
ĠE int
ĠE xt
Ġer g
Ġer bit
Ġ< !--
ĠF ive
Ġsh ots
Ġsp o
ĠK yle
ĠK anÃ¤le
ĠK redit
ĠK odak
ĠAn schluss
ĠV ERY
Ġimp air
aus falls
Ġge ms
Ġge hen
Ġ" ...
Ġcl ust
pl ug
ain s
Ġrec ording
ĠH ot
Ġinvest itions
ĠL oad
Ġhas h
Ġsch wach
Ġsch wierig
Ġthere of
ign ed
Ġam ate
rec ord
Ġj avascript
se ly
ĠDaten pipelines
ure d
de velop
ĠVer halten
Ġpr inting
.. )
ĠSt abilitÃ¤t
Ġpre jud
Ġ1 10
pr Ã¤
Ġwork able
pro posed
ĠAd mittedly
ungs fehler
Ġdown s
int ention
bl ack
Ġset t
Ġmet as
Ġpot ent
ik A
Ġhe at
bar ung
Ġdec l
Ġrel uct
Ġrel oad
Ġrecommend s
und heits
ĠRe gre
ĠSicherheits einstellungen
akt iv
Ġensure d
Ġmeas urable
ĠEx p
Ġ3 3
ert ifik
ne x
ĠAl most
Ġ20 23
Ġsign als
ĠMarketing bÃ¼
In ternet
Ġuna uthor
ĠAnruf termin
Ġincre ment
Ġbeh ave
vers ions
Ġ5 5
Ġgew Ã¤hren
Ġide ally
Ġpres erved
ger Ã¤ten
Ġcrit ique
Ġrefer ral
Ġweb server
itt y
back ground
ĠComm ons
unt agged
ĠzurÃ¼ck fÃ¼hren
answer ing
Ġminim izing
Ġ7 0
Ġpoin ter
ĠCh atty
Ġmer ges
Ġcontrib utes
cl usion
Ġfest gestellten
sh ops
ĠDatenver waltung
Ġsk im
Ġsho ot
ĠBenutzer erlebnis
unter schied
Un clear
Ġaltern atively
ump ed
Ġcollabor ating
Ġemploy ment
inter esting
leg ungen
vor schlÃ¤ge
Ġpack ets
Ġvari ieren
log o
uer ung
Ġdringend es
sc ape
Ġhar ass
ĠKompatibilitÃ¤ts problem
ĠIP s
Ġcombin ations
!! !
Ġattack ed
Ġtouch screen
ĠfÃ¼ gen
bed enken
mess en
ĠFirst ly
ĠAbrechnungs fehler
Ġgraph s
ĠEinricht ungs
new est
ĠVerschlÃ¼sselungs protokolle
Ġsatisf y
con version
Ġeinges etzten
lÃ¤uf ige
Ġalloc ate
rid ay
Ġstupid ity
Ġcompet ent
Ġclaim ed
ĠOff ering
flag ged
Er le
ĠMer curial
Ġcut ting
Ġshe er
Ġnu ances
Ġcalcul ate
Ġisol ating
ĠFr ankly
Ġdisconnect ed
ĠAutom atically
Sicherheits maÃŁnahmen
anbi et
Per formance
Ġrecalibr ated
gestell te
Ġtroll s
ĠvorlÃ¤uf igen
format ted
olic ited
sol ution
ĠBl ue
ĠAS CII
Ġdemand ing
Ġassure d
Ġfehl ende
Ġausge legt
Ġzugeschnitten e
Ġaccum ulate
ĠPartic ularly
Dr ive
ĠzÃ¼ gig
ĠkÃ¤mp fen
Ġanhalten d
ĠDate ien
Ġsock p
Ġbarr iers
Ġrephr ased
Ġlangfrist ige
Ġram bling
ĠungewÃ¶hn liche
ĠTechnik team
Ġschem a
Ġbetr achten
Ġkorrig ieren
ĠSicherheitsris iko
MG TFY
ĠHopeless N
ĠVerschlÃ¼sselungstechn iken
Ges undheits
Ġcir cle
Imp lement
Ġscient ific
Ġeinbe ziehen
ĠSn agit
ĠTeammitgl ieder
ĠRisikobe wertung
Ġrud eness
ĠPred ator
weil igen
zuh elfen
ĠEink lang
ĠErmittl ungen
ĠPasswortsicherheits richtlinien
Conc ern
nW enn
ĠverfÃ¼ gen
ĠCors air
Ġerbit ten
3 60
7 1
8 4
B el
C O
H ost
H onestly
U nex
Y I
b udget
c op
e xt
f ound
g a
g ung
h an
h el
h Ã¤lt
i etools
k arten
k ampagne
n B
n ames
o ys
r umente
s v
s end
s ometimes
t xt
t ask
v ar
v ider
x ic
Ġ ie
Ġt ighten
Ġt umbleweed
er ation
Ġth reaten
re mo
it eren
Ġw is
Ġc ro
Ġc art
Ġc rypt
Ġb ol
Ġb are
Ġan hand
Ġp ed
Ġm itein
Ġf ly
Ġin advertently
ĠS R
ĠS amsung
ĠS ettings
ĠS ATA
Ġn hinkle
Ġbe at
Ġbe ig
Ġbe ziehen
st op
qu ite
ig art
Ġfor med
ver ein
ut ive
ĠA utor
Ġz entral
ĠP lex
ĠP ublikums
ir th
Ġwh ining
out ing
Ġk it
Ġk illing
Ġk lar
Ġk lare
Ġv ig
Ġsu ffice
Ġst retch
Ġal beit
Ġab zuschlieÃŁen
ort ar
ĠC annot
ĠC licking
Ġdis advant
ĠU SE
ĠM DMarra
and id
and roid
ard en
Ġim ag
ĠIn konsist
ĠB lock
ĠF aktur
he alth
Ġsh ed
Ġdisc ipl
ĠV o
Ġtim ed
ain er
Ġout s
ĠH idden
ab teilung
ĠL ess
ĠL if
ĠL auf
ĠL ock
ĠL OT
Ġcomp aring
ĠZ ertifizierungen
Ġuns olicited
Ġein iger
Ġste pped
Ġauf genommen
Ġgu te
ffect ed
ru ment
com put
Ġact ed
Ġqu o
ak ed
Ġproject ors
we i
ll ite
ĠTe ach
ĠSch lÃ¼ssel
Ġpo pping
esser ungen
bs d
fr iend
ĠRe ach
ĠRe ading
ĠRe ferenz
ĠSicherheits praktiken
Ġtechn ischer
Ġent ertain
Ġwhere ver
ĠZeit punkte
Ġforward ing
Ġconc lus
Ġconc lusive
Ġfol genden
Ġspe ichern
Ġweiter zuhelfen
Ġdr astically
Ġco dename
Ġbl urb
An forderungen
Ġbesser en
Ġcr ude
Ġacc used
Ġ5 000
Ġ5 870
ĠInvestitions portfolios
Ġpass ion
Ġexp ose
ha ving
Ġ6 9
Ġpol ice
Ġerforder n
Ġwel ches
ĠCl ar
gu idelines
ĠAb frage
Ġoverload ed
ĠnÃ¤ch ste
ĠProjektmanagement funktionen
Ġange wiesen
fehl ungen
âĢĿ ?
Ġsynchron ized
ĠRec s
ĠKampagnen analyse
Ġtrans ient
Ġpast ing
Ġscre ens
Up grade
Ġmind set
Ġgest atten
Ġ... "
Ġsynonym ize
ĠSc ience
Ġdist ance
Ġvol le
Ġemploy ing
Ġann oys
Ġpresent s
Ġhal ted
ĠFehl konfiguration
Sp am
Sp ark
Ex ample
ĠErgeb nis
bere inst
Ġactiv ation
Ġfilter ed
Ġextens ively
ues te
hand ed
Ġextra ordin
Ġfund iertere
ĠregelmÃ¤ÃŁ igen
bed ded
Problem en
Ġiniti ative
Ġgraph ical
19 2
ĠFehlern achricht
Ġburn ing
Ġburn ed
ĠDatensper ren
Ġlegit imately
Ġlay ers
Ġ> =
con ference
Ġreflect ing
ĠgewÃ¼nsch te
ĠPatienten versorgung
ĠUp grade
27 20
ĠDoc umentation
mon key
chang ing
Ġinstit utions
Ag ain
ĠLike ly
add ing
ĠNetzwerkver kehr
Add ing
Any thing
Vers ionen
Ġcontroll ed
Ġarchitect ures
Ġelimin ating
Ġcounter productive
Ġgeziel ter
ĠSub net
ĠFehlerbehebungs schritte
ĠDream Spark
Ġretrie ving
ĠStrateg ietools
ĠVersuch s
Ġmotiv ated
Ger Ã¤t
ĠAnmeld e
ĠAnmeld ef
Fin ally
Ġspreadsheet s
Ġblo at
Ġansp rechen
Ġabst ract
ĠverdÃ¤ch tigen
Ġenfor cing
Ġland scape
Ġintellig ent
ĠMigr ation
ĠRol len
Ġbench marks
Ġreinfor ced
Fe atures
Ġcolour s
ĠCyberan griffe
Ġvorher igen
ĠProduktintegration en
Optim ization
prom otion
Ġaggreg ation
ĠTrue Crypt
Ġadvoc ate
Ġeingesch rÃ¤nkt
Ġveran lassen
ĠSubscr iber
ĠScan Mate
Ġtemper ature
Ġsam ples
abre den
Ġkalibr ieren
Ġrecurs ive
ĠzugehÃ¶r igen
Ġausreich end
ĠNav igation
Ġsust ain
Ġsofor tigen
Ap ache
Ġexha ust
ĠKenn zahlen
Ã¤m men
mgt fy
ĠDatenvol umen
Ġpunct uation
Ġwettbewerbs fÃ¤hig
ĠRegre ttably
Unex pected
Ġmitein ander
. ]
6 1
B oth
B esch
C E
D A
F ind
H D
K B
L ook
S ure
T om
T ER
W Ã¤hrend
c a
d os
d iv
d ont
d eck
d rop
f avorite
l osed
l iness
m at
m ulti
n S
n or
p f
p rep
r i
r at
r ise
s imilar
t ips
t lung
u itive
y outube
á ´
Ġ ]
Ġt ip
Ġt erse
Ġa professional
in put
re me
re che
Ġd ell
ou pled
Ġw ade
or iginal
Ġc ry
Ġb ill
Ġb ud
Ġb oring
Ġb atches
Ġp df
Ġp iled
an leitungen
Ġf illing
as ier
ĠS A
ĠS ingle
ĠS ysadmin
il ly
il ter
Ġn atively
un fall
Ġun just
Ġun einheit
ag ree
ĠA U
if ul
Ã¼ re
ate llite
ĠP aint
ĠD B
ĠD i
Ġr er
Ġr ising
su lt
ir ts
Ġk ommun
are er
Ġv en
Ġv an
Ġso ld
Ġst icks
Ã¤ he
ĠWe ge
Ġen l
ĠM igrate
Ġver fein
ĠB SOD
ĠE arn
op ens
ĠK it
ĠK auf
ĠV S
ĠO N
Ġtr im
Ġtr aten
Ġtr ails
pl aced
Ġte h
Ġrec y
ĠR ob
ĠH appy
ab il
ĠL MGTFY
aten z
ĠN oted
ĠN AT
Ġsch eit
Ġsch reiben
Ġbet reff
Ġj un
ĠUn icode
be ginner
Ġste ts
Ġpr Ã¤sent
ĠWh atever
ĠSt r
ĠSt yle
ĠSo ft
Ġmat rix
gen utzt
ang ing
Ġfre ed
rit ical
ĠY ES
ste hen
pro tected
int uitive
ss es
we ch
we ist
Ġhe y
Ġdec ade
up voted
ans ible
cr ash
cr ibe
ĠRe ference
ĠSicherheits merkmale
ĠSicherheits protokoll
ĠSystem neustart
ĠSystem ressourcen
Ġent wed
ade on
Ġdurch zugehen
get ting
Ġlog ically
Ġco aching
vel ope
prÃ¼ n
Ġfin ance
Ġbefore hand
ĠMarketing anstrengungen
Ġplace holder
Ġverb ose
rep ort
An wendungen
Ġacc ord
ex tens
Ġhat ten
Ġsm o
Ġsm ell
ĠInvestitions analysen
Ġvor zusch
Ġ4 04
Ġorigin ate
Ġ8 00
Ġbas ierend
Ġinstall er
Ġtelefon ischen
ĠLe ad
ĠZugriffs versuch
Pro duct
ĠVers org
10 5
res st
ĠRÃ¼ck gabe
Ġcour ses
Ġfirm ly
onym ous
letz t
etr agen
Ġaus genutzt
Ġtra vel
ĠĠĠĠĠĠĠĠĠĠĠĠĠĠĠĠ ĠĠĠĠĠĠĠĠĠ
Ġsicher er
ster isk
ierungs probleme
Ġstud y
weis ung
alt y
Ġliefer t
Ġsk ipping
Ġwa ited
ĠBenutzer zugriff
Ġobject ions
Ġeing etreten
ĠQu ery
ĠImplement ierungen
Ġunternommen en
Ġlack ed
12 5
Ġsepar ation
ĠFinanz datenanalyse
ĠRechnungs unterschiede
merk malen
ĠZahlungs plÃ¤nen
Ġmac book
Ġsw earing
sc ale
Ġhar assing
ĠReg elmÃ¤ÃŁige
ĠHardware produkte
Ġwarn ed
Ġers tellt
Ġbesteh ender
Ġjud gment
bas is
Ġconfer encing
Ġinterrupt ing
Ġfinal ize
Ġze igten
Ġris king
ĠInc re
ĠInc luding
ĠInhalts marketing
Ġment al
Ġaccompl ished
Ġbegr enzen
ĠgrÃ¼nd lichen
Er ikA
Ġalign ment
ĠDown load
ĠOver all
Ġremind ed
ĠDatensperr ungen
Ġsimpl est
aud its
Ġeinz igart
ĠAnt worten
Ġrew riting
Ġsplit ting
57 361
ĠSe agate
bad ge
ĠbemÃ¼ ht
ĠPrÃ¼ f
Post s
Sch wachstellen
some one
ĠBel ieve
dn s
Ġtwe et
etre uer
ĠQual itÃ¤t
Ġkennen lernen
Ġredund ancy
ĠStrateg y
Ġphot os
Ġintens iven
Ġsuff ering
Ġtoler ate
Ġineff izient
ĠAnmeld einformationen
Ã¤nder n
Fin anz
ĠSol ution
ĠVersch iedene
Ġeth ernet
ĠRead er
ĠRisiko analyse
Ġtransl ation
Ġobserv ation
ĠvorÃ¼ber gehende
ĠMedizin ische
Ob viously
ĠUs enet
expl ain
ĠSkalierung soptionen
Ġrend ers
Ġperipher al
Ġbegrenz t
ĠVal ve
Ġbevorzug ten
Ġconstit ute
Ġsnipp et
Ġrephr ase
Ġgegebenen falls
Ġniedr ig
ĠVork ommen
doc ument
Kompatibilit Ã¤t
xxxxxxxxxxxxxxxx xxxxxxxxxxxxxxxx
ĠCho pper
ĠZe its
Ġvert iefen
Ġ== >
Ã¶ff entlich
Ġschwerwieg enden
Ġnomine es
Ġegreg iously
ĠMax im
ĠHar vey
ĠÃľberwach ungs
tim ers
Ġdivid ed
ĠLI NE
Ġverring ern
Ġoffiz ielle
Ġidi ot
Ġcompress ion
Ġweiterz ud
Ã¼s se
Ġinterfer ing
Enter prise
Ġconce iv
Ġveter an
Ġsynonom ized
Enh ance
Ġclip board
Ġaccus ations
sekt or
Ġunilater ally
Ġacquire d
Ġbekann te
ĠBrosch Ã¼re
eig enschaften
Ġdefen se
Ġeinzud Ã¤mmen
Ġobliv ion
Ġprejud ice
Gesundheits dienstleister
ortar board
comput ing
Ġentwed er
Ġvorzusch lagen
' ;
- ,
2 50
3 000
B C
B ieten
B lock
G E
L Y
L ately
P ip
R O
R andom
R OM
R OR
R TFM
S M
U R
V iele
b urn
c ible
c onfiguration
d p
e ffor
f illed
g ere
g ative
h ab
k al
l ierte
m g
m id
m igrate
n Furthermore
r ather
s low
s tellt
s orry
u it
w indow
z er
} .
Ġ lying
Ġt ally
Ġt ight
Ġt iefer
re m
it ts
Ġd are
Ġw o
Ġw lan
is y
Ġp assen
ch ecking
Ġm ount
Ġm acht
Ġm esh
Ġu ltimate
Ġh art
ic o
ĠS T
Ġn ec
st ag
st uf
qu ery
Ġpro long
ur red
Ġun ethical
Ġg un
Ġg Ã¤n
Ġl iving
ĠT witch
ag ically
ag ram
ut ional
ĠW Ã¤hrend
Ġquestion ing
ĠA ES
for schung
el Ã¶sungen
ĠP ack
ĠP IX
ĠD E
ĠD el
ĠD ist
ĠD SL
out h
Ġzu g
Ġk no
Ġk udos
Ġv nc
ul gar
Ġso andos
ect ion
Ġal ive
Ã¤ gen
Ġres ize
Ġres izing
Ġres urrect
ĠC at
ĠC ampaign
Ġdis ambig
ĠU K
ĠM aus
ĠM ap
Ġver abreden
Ġdo ct
ĠB ank
ĠB OFH
ĠB ibliotheken
ĠF edora
Ġsh ift
Ġde utlich
Ġsp in
act er
act or
ĠPro per
ĠPro tokoll
ĠV iber
Ġge mÃ¤ÃŁ
Ġtr ip
Ġte aching
ĠR DP
ack ed
Ġout look
Ġcomp ile
Ġsol ic
ib ing
du plic
Ġein igen
Ġman if
Ġman uell
ĠG rease
ĠDaten unterschiede
de p
Ġste er
Ġauf ge
Ġpr oud
ful l
stand en
ak a
ak s
Ġuser base
Ġmit igation
rit er
Ġbr id
Ġbr onze
pro zedur
Ġsched ules
ra wing
Ġset tle
hen ce
ans Ã¤tze
Ġsomet ime
ap ed
Ġdele g
ĠSicherheits fall
Ġsens itivity
Ġlog on
Ġconsider ably
ze ige
tect or
arch ive
Ġspez ial
ĠMarketing ziele
Ġdef ending
Ġtool bar
Ġ5 4
ex am
ex act
ĠProjekt s
Ġend orse
Ġ4 4
Ġ4 5
au pt
knowled ge
Ġdefin itively
ĠCan on
tr icks
Ġverurs achten
ĠKon text
Ġfit ting
Ġref use
uff le
Ġnach dem
Ġfl u
Ġfl ame
Ġpar allel
Ġpar aphr
ichtig keit
Ġsensib les
Ġengine ers
ivers ity
Un der
ivid ual
Ġint roduction
ĠInteress iert
ĠRed dit
Ġra id
Ġequ ation
Ġsl am
ĠUS A
Ġelect rical
Ġcommit ting
Ġrespond s
Ġtask bar
halt ungs
Ġumfass ender
Ġernst haft
imm ung
Ex pl
ĠBest and
Ġvisual izations
Ġvirtual box
ĠAg ree
ibr ary
Ġjud ging
lang uage
Ġ* .
Ġges amte
professional s
NS WER
Ġcontest s
Ġdev iates
Ġfast est
Ġhu bs
Ġsn ob
Ġnarrow ly
Ġcyber att
EA D
untern ehmen
Ġviol ating
ĠNew s
Ġqual ifies
Ġeduc ating
Ġinvalid ate
ĠInst agram
eth ernet
Ġentwick elt
Ġodd s
TF S
Ġsimpl ified
Ġworry ing
iber n
Ġnu ked
Ġphys ically
Ġinstit utional
Ġdistrib uted
Ġpress ed
Ġcompar isons
fix ed
Ġpix el
gener ation
OT E
Any one
ĠPrÃ¼ fen
Ġerweiter ter
Ġlogo Image
Ġvast ly
spe ed
Ġanzu fordern
ĠBad ges
Ġev il
ĠDef ine
Ġreprodu ced
lÃ¤r t
power ed
agn ostic
ĠMo zilla
Off ensive
ĠConnect ions
Ġgetroffen en
Ġincorpor ated
Ġbesond ere
ĠunverzÃ¼glich e
Ġrad ar
Dokumentation en
ĠTar if
ĠVerlust en
Ġstatt dessen
Ġtheoret ically
Ġgering e
ĠKron os
ĠVerbesserungs bereiche
ĠDM A
aly st
Ġcitiz en
bÃ¼ cher
ĠSper re
ĠSound karte
ĠTable t
Act ually
ĠDisplay Port
ari ably
ĠWorkar ounds
ĠSoftwareinkompatibilit Ã¤t
evalu ate
edul er
ĠEm ploy
ĠNetzwerksicherheits maÃŁnahmen
Ġdauer hafte
Ġrealloc ating
Ġcave at
Ġcave ats
zur Ã¼cksetzungen
ĠClean up
Ġimplicit ly
zie ht
Ġtack le
ĠQU EST
Ġgar ant
clar ity
XY Z
ih ood
Ġsy mp
Ġproport ion
Ste ckdose
past ed
ĠWhite papers
ĠCybers icherheits
Ĳâķ Ĳâķ
Ġmild ly
ĠTempor ary
Ġnecessit ating
ĠAFAI K
bild ung
Ġbomb arded
MDMarra answered
Ġinn oc
Ġimper ative
Ġplate au
WesleyDavid answered
Ġlikel ihood
Ġ<<< <
ĠPortfol i
ĠErfolgsmess ung
pann e
Ġaffor d
Ġslo ppy
Ġcaut ious
Ġbeig etragen
ErikA answered
effor t
' ).
A PI
C H
D OS
D ifferent
G r
H TML
P res
P lan
R ed
T alk
V is
a ur
a uthent
b ound
c onsider
f eh
i y
j ob
k b
k es
l ied
m obile
n Unser
p ine
p anel
q ade
r age
r end
r ive
r ings
s ho
s imple
u ing
v oc
w ahl
â Ħ
Ġ row
Ġt ax
Ġt endency
Ġa st
er ver
en ough
es oftware
Ġs un
Ġs elling
Ġw i
Ġw arten
Ġw aves
Ġthe FAQ
Ġc orpor
Ġan gle
an ach
an itor
Ġf u
Ġf raud
al tern
al tete
te lefonnummer
Ġh p
ĠS ven
ĠS ounds
Ġbe aut
Ġbe achtet
st atic
ly sses
ur t
Ġun ge
Ġg it
Ġg as
Ġg aps
im ents
Ġl s
ag t
ag net
Ġas c
ĠW P
ĠW ave
ĠW Ã¼rden
ĠW issens
Ġz oom
for th
ĠP ict
ĠP inn
Ġr ar
ec ycle
form itÃ¤t
Ġwh e
Ġwh ol
Ã¶ gen
Ġzu gÃ¤n
th reading
Ġv oretaq
Ġv ulgar
Ġst ubb
Ġprov ed
ĠC ap
Ġdis gu
ĠU lysses
ĠM ot
ĠM aschin
and o
end erson
ge legt
ĠB atch
ĠB ox
ĠB etreff
ĠE E
ĠE t
Ġer teilen
Ġ< <
Ġsh ine
Ġsp oon
act ual
Ġany time
Ġdisc losure
ĠPro perties
ĠO F
ĠO pt
Ġtr ained
pl ans
Ġte mp
ue ue
ĠR esp
ĠR GB
ĠR Pi
ĠH TC
ĠH aupt
Ġtime z
Ġinvest ing
ĠL ater
ĠL AMP
ĠN TFS
Ġby te
Ġam az
ink s
Ġuns ecure
Ġj anitor
Ġein heit
Ġanal og
ĠG eliebter
ient en
be i
Ġconf idence
sch w
pr imarily
Ġem ot
Ġar ises
âĢ ĵ
me an
ste ering
pro tection
bl ah
Ġmehr stuf
ĠDetail lierte
bo ld
Ġrel ax
Ġprom inent
Ġag ent
ĠSoftware plattformen
Ġro ck
ĠSicherheits probleme
Ġsim ulations
ĠAs ide
ĠSystem integrations
Ġent stehen
Ġbes chÃ¤ft
Ġgener ates
Ġcons c
wo ks
etz ungs
Ġvers a
Ġsa ves
unkt ions
Ġevery day
Ġco in
Ġco ld
griff s
ienst en
ĠVor lÃ¤ufige
Ġins ane
Ġincident al
ĠMarketing dienstleistungen
In stead
ex plan
Ġmon o
Ġend ang
Ġ4 2
ĠX ML
ĠX AMPP
Ġfact o
ĠNe ueste
inst ant
Ġfree ze
Pro vide
ĠComm unication
res et
Ġcompl ies
Ġdam n
by design
Ġbo at
gefÃ¼hr ten
ĠSm oke
Ġslow ed
Ġclar ifies
war es
Ġaktualis ierte
Ġho hen
ĠProjektmanagement fÃ¤higkeiten
zu w
Ġass urance
Ġfest legen
letz ungs
ream ing
ĠNum mern
PA P
ĠDatenver luste
ild sch
Ġref ined
Ġsicher gestellt
Ġda em
did n
MM M
geb ungen
ĠBenutzer hand
Ġfacilit ates
met hode
Un authorized
ĠQu ote
ĠAuf stellung
ump ing
Ġguess es
Team s
ĠPr Ã¤
ĠTechn ically
Ġtempor Ã¤ren
Ġunsu itable
ĠFinanz daten
Ġred hat
Ġir re
ĠPra x
ĠKonf id
ĠLeistung sein
imp ly
ĠWith in
Ġhar ry
Ġlic ence
Ġsur ve
Ġconvers ations
App arently
Ġvirtual ized
Ġactiv ate
ĠMost ly
Ġrev oked
Ġdeb ated
Ġsupposed ly
15 7
ĠProject or
Ġrespect ful
ĠLog o
Ġiniti ating
des k
ĠAbst Ã¼rzen
Ġeffizient en
find en
Ġeffektiv sten
ĠZugangs daten
Ab st
Ġflood s
ĠVM s
Ġcommunic ating
ĠBas ierend
bereit ung
Ġinvalid ated
ĠInst it
mon th
ĠGeschÃ¤fts ziele
ĠSyn ergy
Ġnu anced
ĠRecommend ation
ĠAnlage analyse
Ġbek lagen
Ġunk ind
ĠDatensicherheits lÃ¶sungen
ĠWerbe kampagnen
bu ÃŁen
arm ic
ĠLa unch
Cl Y
ĠPasswort zurÃ¼cksetzungen
ĠBel kin
Ġanzu wenden
gew iesen
ĠInvestitionsoptimierungs prozesse
Ġconstrain t
Ġunreg elmÃ¤ÃŁ
Ġexcl usion
Ġobl iter
Ġjump ing
sl hck
bro ad
lan gen
ĠES X
ĠAss ign
Ġrad ically
Web masters
Ġmotherboard s
ĠBran che
anÃ¤ len
âģ µ
ĠTele gram
ĠhÃ¶ch sten
verwalt ungssystem
Ġunterdurchschnitt lich
Ġremed iation
recommend ed
recommend ation
connect ed
ĠZeitra hmen
ĠVal ued
Ġvolunte ers
elect ronic
ĠBranchen standards
Ġdetr act
Ġinsp ir
ĠÃ¤hn licher
Ġdut y
Ġforb idden
Ġstabil ize
Ġchron ological
Ġpul led
Ġpul ling
ĠGraph ics
Ġwild ly
Ġmistaken ly
ĠÂłĠÂł ĠÂłĠÂł
ĠDatenaus wertungs
ĠEvent ually
Ã§ Ã£o
ĠConcern ing
ĠConcern ed
Ġwiederkehr enden
bes org
col or
ka answered
diagn ose
Ġbran ch
Ġirrit ating
ĠExperienc ing
ĠfrÃ¼her en
Ġtroubl es
ĠSystemabst Ã¼rze
ĠAnnoun cer
uk ClY
ĠPreismod elle
Ġdritt anbieter
ĠFormat ting
Ġskal ieren
Ġschlech te
Ġsubstit ute
enstell end
poor ly
Ġras che
ĠRuhe zustand
ĠGesundheitsorgan isationen
hÃ¤ng igkeiten
ĠNove mber
KÃ¼ chen
irth day
Ġconclus ions
Ġzug ute
ĠMap le
âĦ ¢
ĠPinn acle
Ġstubb orn
C ontrol
D NS
F ound
G et
P M
R FC
S ec
T ype
V irtual
a uen
b ec
b art
b ount
c enter
d est
f m
f ast
h enden
k n
l ienten
n am
n ored
s on
s ave
t om
t ake
u ce
v in
y les
z es
Ġ Ã¤ndern
Ġa while
er ving
in o
in tens
in itely
in ternet
in sert
on sist
at tempt
Ġs ought
Ġs amsung
Ġs rc
re write
Ġd omin
ou tern
Ġw ifi
Ġthe ft
or row
Ġb acking
Ġan fallen
Ġp ays
Ġto ss
Ġto this
Ġf lick
Ġf etch
al o
al ready
ĠI RC
ar ma
as se
Ġy ellow
ic an
ic ted
ĠS chn
ĠS answered
ĠS ecure
Ġre de
Ġre plic
Ġre actions
ie ved
Ġn oobs
un er
om ble
st aff
Ġe licit
Ġun icorn
ig ert
im ary
Ġl ights
ver ter
ĠA bo
ĠA ustausch
ess ions
Ġz Ã¤hlen
ate ways
ĠP en
ĠD iamond
Ġr ul
Ġr ational
su fficient
ec utive
out put
Ġzu dem
Ġwe ar
th ese
th umb
Ġk ommen
Ġk osten
Ġk ombin
ul s
Ġsu ffic
ad o
tem p
our se
Ġab geschlossen
Ġres ub
Ġres pected
ĠC ross
ĠC ampagnen
ĠC losure
ĠU AC
Ġver such
Ġver tra
Ġver fassen
Ġse ed
ĠB ing
ĠB ind
ĠB eit
ĠE arly
Ġ< =
ĠF irew
ĠF YI
Ġad b
Ġad ware
uf fer
Ġdisc rimin
ĠV alid
ĠO NE
ĠO fficial
uss ed
ĠThe ory
aus gaben
Ġge zeigt
Ġassist ieren
ant a
der n
ĠR E
ĠR espond
ack ers
Ġout we
ĠH old
ab wicklung
ab onnements
ĠL Q
ĠL ion
ĠL yn
Ġhas t
ib a
ĠZ us
rec ise
Ġden y
ĠG IS
Ġreg ain
ĠDaten ex
ĠVer wir
ĠUn fall
ĠUn fÃ¤lle
Ġauf weist
Ġpr akt
ho ver
Ġed ition
ĠSt ud
icher te
Ġqu it
sch alt
pro f
pro file
Ġav atars
Ġdif fers
ik el
we bsites
Ġpart itions
ah re
Ġdec oration
ĠSch edule
up grades
Ġag ile
Ġbesp reche
bs ystem
ĠRe ady
Ġaddition ally
Ġro pes
... ).
ade mic
ĠStack Over
Ġdurch gesehen
Ġgener ically
ĠKunden engagement
ekt ion
od es
av our
ze alous
Ġco ff
ĠBe fÃ¼r
ĠBe quem
Ġbl unt
Ġcr acking
ipt ables
Ġmon osp
Ġstand alone
Ġbount ied
Ġpass ive
Ġvor teil
ĠSp itzen
Ã¤n gel
ger ichtet
not iced
Ġcrit ically
Ġfact ory
zus ehen
Ġstr ikes
ĠLe vel
Ġcustom izations
ĠZugriffs beschrÃ¤nkungen
Ġview er
Pro tokolle
Pro perties
Ġstandard ized
Ġscal ed
Ġless on
gorith mus
Ġcour t
Ġbrow sed
gre if
cal ing
âĶĢâĶĢ âĶĢâĶ
Ġaus gefÃ¼hrt
Re ject
richt ungen
Ġpast ed
Ġfl ip
Ġpar se
** ,
Ġpriv ately
ĠGr oup
ĠWeb apps
upp ets
ĠBere chtigungen
dr ivers
ĠProm ot
teil ungen
ĠGe achte
ĠRed und
12 7
SO N
Ġroom ba
heet s
Ġconfus es
iden ced
leg it
Ġpack et
Ġvari ation
ĠCon clusion
ĠComp atibility
ĠComp uting
Ġinsu lted
geh enden
Projektmanagement lÃ¶sung
ĠLeistungs maÃŁ
ĠRest ore
Ġactiv ated
Ġexpand s
Ġglad ly
ĠVerbindungs stÃ¶rungen
Ġexec ut
Ġfam ous
22 2
Ġsubstant ively
Ġtouch pad
Ġattrib utes
ĠIM AP
ĠEinricht ungsprozess
vol ume
atur day
ĠMon at
Ver b
Ġcred ential
ĠStand ort
Ġunde leting
Ġment oring
Ġnarrow ed
Ġclaim ing
Ġreli ably
Ġtw ist
ĠEnt wick
Ġviol ated
Er ror
cont ained
Campaign s
Ġconsequ ence
frame work
Ġcompar able
gener ic
ĠUrg ently
Ġkonfigur ierten
Ġcult ural
ĠFre qu
bu ying
bu ilding
ommunik ation
85 50
Ġblacklist ing
itz ung
Ġaccident al
Ġev idenced
ĠWieder installation
ĠwÃ¼nschen swert
Ġexcess ively
Ġtoler ance
Ġtoler ant
Ġobl igation
ĠDVD s
Ġcal m
ĠComment ing
Off er
Ġineff iziente
ĠAccept able
bro ken
ĠBetriebssystem s
rÃ¤ umen
?? ?
verse ly
Ġmisle ad
Ġunw elcome
ĠSearch ing
Ġkonk reten
iction ary
Ġpenal ize
gangen en
ĠplÃ¶tz lich
Ġcolle ague
Ġcolle agues
Ġgepl ante
rest ore
Ġbench marking
IR C
Ġmaschin elle
Ġcp anel
Techn ology
kenn zahlen
ĠProcess ing
Ġkick ed
ĠBar code
Such e
Ġansprech ende
Mo pp
Ġmonat liche
Ġwiederkehr ende
ĠSay ing
Ġnomine e
research ed
ĠVerlangsam ung
Ġcertific ate
Ġhobby ist
Ġwhit espace
Ġverl oren
Ġdisturb ances
ĠDatenanalysed iensten
uft rein
Ġinvent ory
Ġawk ward
Ur l
ĠRecogn izing
ĠSV N
Bes ucher
Ġbatt le
Ġrelig ious
Ġinterchange ably
Ġmisinterpre ted
ĠEind ring
Vide o
partic ularly
Gre etings
besp rechung
Ġprol ific
geschwind igkeit
paus kaanswered
ĠBott om
Ġclust ers
Ġsett led
Ġunauthor ised
ĠInkonsist enzen
Pip eline
Ġprolong ed
ĠPIX MA
Ġkno ck
Ġernsthaft es
nored irect
ĠBefÃ¼r cht
! âĢĿ
' )
1 10
A G
C le
C aches
C rash
C PAP
D one
F U
F irefox
G est
L uftrein
M etriken
N Q
P h
S V
S how
S witches
T E
T O
T Y
W ord
W erkzeugen
] .\
b ten
c atch
c isco
c ores
c raw
d igital
g reat
h av
h ones
m is
m its
m ode
m Ã¶gen
o ft
r ont
t v
t wo
x ious
y ears
Ġt aught
in to
in itiativen
at im
Ġs le
Ġs ick
Ġs agen
Ġs ane
Ġd arn
is tern
or ate
or um
Ġc oupled
Ġp y
Ġm ikrotik
le cks
Ġf ilen
Ġin ability
Ġin fin
Ġh erstellen
ar rt
ĠS ec
ĠS aturday
Ġre lying
Ġn est
Ġn oob
Ġbe ide
om eh
st upid
Ġe cos
Ġpro c
Ġun install
Ġun zip
Ġl en
ver mÃ¶gen
ĠW id
ĠW ere
ĠW ichtigkeit
Ġquestion and
Ġz ip
am ount
Ġcon ve
Ġcon descending
ĠP F
ĠP o
ĠP ublic
ĠD irect
Ġr ace
Ã¶ ÃŁer
out ine
Ġsu pers
um in
Ġab genommen
ort ed
iz ar
Ġres on
Ġdis posal
Ġver zÃ¶
ĠE aster
ĠF Ã¤l
ĠF lex
Ġad mittedly
Ġsh op
Ġde em
Ġdisc ord
ĠK lienten
Ġum gehende
ĠV ir
ĠV tC
ĠV OTE
Ġtr iv
ĠH aben
ĠL Ã¼cken
ĠN otes
ĠN omin
ĠN amen
Ġman agers
ĠG aining
ĠG RE
ĠDaten sp
Ġdes c
Ġhow to
Ġwhat not
esp an
be z
Ġper pet
Ġcomm end
ens ical
glich er
com ed
com par
Ġall erdings
tig ung
Ġbr ight
Ġsc anned
pro per
pro ved
pro fit
Ġover run
Ġtheir s
Ġoff end
ward ing
Ġdec ades
ular ity
ĠQ uellen
hal te
Ġback sl
Ġeven ing
ĠInvest ition
ĠKunden n
Ġinv ariably
Ġfollow up
br ingen
Ġweiter zure
Ġdar stellt
od ore
Ġprompt s
unkt ional
Ġhigh lights
ne te
ptim e
ĠâĢ ĺ
vel er
Ġmedizinisch es
ĠTeam k
gle ct
Ġverein bart
Ġhand lers
Ġlist ings
Ġright ly
ĠEn cry
pd own
Ġel aps
Ġdetaill iertes
Ġbeh arrt
fa ults
lect ual
Ġfr agen
nowled ge
ored ache
ĠInvestitions strategie
Ġgr at
Ġgr an
Ġ4 7
Ã¤n glich
Ġcol l
Ġexp orting
Ġexp enses
Ġgeneral ized
ĠLe g
ĠComm unities
IT Y
ĠData Tra
Ġ7 4
Ġbro ther
Ġstandard ize
ĠCh rom
ompatib len
Ġjed e
cl osing
sh ut
Ġsynchron isiert
par itÃ¤ten
Ġvalid ated
21 3
etr ic
ĠSome body
Ġenvironment al
ĠEmp feh
Ġtrans parent
ĠCont roller
Ġchar ger
ĠGr and
50 2
Ġprior ities
Ġbehav es
Ġorder ed
Ġmind ful
Ġpop ulation
Ġsubscr ibe
Ġ... )
Un befug
ĠMe asures
Ġcollabor ations
Ġcollabor atively
inc lude
Ġsl ots
Ġstack s
of ten
Ġwar s
press ing
Ġred act
Ġhind ers
Ġhal te
log in
eff izienz
ĠComp lete
ĠComp iler
Ġdou b
ĠZahlungs bedingungen
Ġmac ro
TC P
Ġ15 00
kon zept
Ġconsu ming
ĠHe y
Ġdeser ving
Sh are
Ġmalfunction ed
Ġmechan ics
konf likt
Ġquery ing
apt ics
Ġannoy ance
ĠGeschÃ¤ft swachstum
set up
Ġpriorit ized
Al gorithmen
ĠIns ider
ĠEinb lick
con om
Ġeinges tellt
Ver bindung
Ġintern als
De ploy
ĠDienst unterbrechung
ĠEd ge
ĠerhÃ¶h tem
Ġsil ent
Ġcond itional
Ġfinanz ieller
Ġwalk through
ĠgroÃŁ art
ĠDatenverlust s
ĠĠĠĠĠĠĠĠĠĠĠĠĠĠĠĠĠĠĠĠĠĠĠĠĠĠĠĠĠĠĠĠ ĠĠĠĠĠĠ
aud it
Ġwarrant y
Ġlik ethis
Ġche at
Ġtrick le
Ġconsult ant
network s
Ġkennen zul
lÃ¤r ungen
lements By
Ġverw and
Ġintu it
rag s
CA L
Ġfehlerha ft
Ġintens ive
ichte te
ĠSecond ly
Ġscroll ed
ĠZielp ublikums
Ġincent iv
Ġhor izont
ĠMem rise
autom atisierung
Ġinspect ion
Ġtrad ition
ĠplÃ¶tz liche
ĠHDD s
ĠServerkapaz itÃ¤ten
Angriff e
Ġencompass es
ĠArch itektur
Ġbench mark
ĠZugangssteuer ung
ĠÃ¤u ÃŁ
Ġreven ge
Ġflo at
Ġbenutzer freund
ĠgrÃ¶ÃŁ ter
Ġanhalten den
ĠDu o
Ġvac ation
Ġalter ed
Ġforb ids
Ġziel fÃ¼hrende
Ġmock ups
ĠDatenerfass ungs
Ġquiet ly
Ġremark s
Ġretro actively
ĠBenachrichtig ung
Bu ilt
Ġegreg ious
Ġobst ruct
**************** ****************
Ġcancell ation
produkt ion
Ġwachs ende
Ġadverse ly
Ġca ution
ĠKampagn endaten
Ġfragment ation
ĠSoftwarekompatibilit Ã¤ts
Ġkomplex er
Ġsal ary
Ġcas ual
Ġvamp ires
ĠCL I
freiheit answered
Fol lowing
ategor ien
Ġinev itable
ĠBenutzerk on
Ġfatig ue
Ġexem pl
Ġspark ed
ĠAuft reten
nF alls
ĠBab bel
getE lementsBy
Ġbedro ht
Ġsuperfic ially
ĠMaÃŁ nahme
Ġumfang reiche
Ġprotot ype
ĠTraining s
ĠMarketingbÃ¼ ro
Ġvig il
Ġgarant ieren
Ġunsecure d
Ġoutwe igh
ĠBequem lichkeit
Ġweiterzure den
Ġelaps ed
ĠDataTra veler
Ġkennenzul ernen
" -
. ".
: <
> >
A bs
A RE
C lust
E E
G ive
I Z
J e
L ear
L eit
O X
O ptionen
P G
P ot
P age
Q uer
R auch
S earch
T V
Z u
a way
b etween
c ers
c ards
c reen
c irc
c md
d ang
d ienstleistungs
f ache
f aces
g v
g iven
g rowth
h ouse
k ter
k und
l Z
l ost
l ab
m b
n ekt
n Der
p ath
p urpose
s f
s etzung
s etting
u i
u bs
v d
w arn
Ġ ....
Ġt orn
en ior
in ese
Ġth ier
Ġs ony
Ġs atellite
Ġd um
Ġd oubl
Ġd ub
Ġw ipe
is ier
Ġc am
Ġb oun
Ġan gen
ed ge
ch te
Ġm ap
Ġm ug
le i
Ġf oc
Ġf allen
Ġf ax
al og
Ġin fer
Ġin activity
ro ying
ar en
as ia
ent h
ent ed
et ic
ic y
Ġyou ng
ĠS AN
il brow
Ġbe ur
Ġbe zieht
un ser
un nel
om bie
Ġe conom
Ġun read
Ġun happy
ig ence
ig ger
Ġl u
ĠT M
ĠT ype
Ġas us
ĠW indow
ĠW AMP
ĠW estern
Ã¼ bersicht
el b
ĠP ilbrow
Ġr ush
Ġr ichtige
su me
form ate
Ġwh ilst
os mos
ad get
Ġst one
gr ay
gr av
Ġal i
Ġal pha
Ã¤ us
Ġmo od
Ġne utral
Ġne glect
Ġex e
ac iÃ³n
iz zieren
ay ing
ĠC amt
ĠC reating
ĠC osmos
and a
Ġver suche
Ġup hold
Ġim men
Ġapp ointment
ĠIn con
ĠB ose
ĠB ody
per fect
Ġer geben
ĠF est
ĠF Ã¼hren
he y
act ually
ĠAn fragen
ĠAn strengungen
ĠV ive
ĠO EM
art s
aus gleich
Ġinc oming
ser ved
ser kenn
Ġrec ip
Ġrec reate
ĠR el
ĠR esponse
ĠH ampton
ab weichungen
fer encing
ear ly
ĠL as
ĠL ately
Ġresol ver
Ġpl aus
Ġpl astic
Ġpl ural
Ġcomp le
Ġcomp act
Ġcomp ose
Ġcomp leting
ign ored
ĠZ ust
so d
so ptimierung
Ġrep os
Ġj um
Ġj ack
Ġman uelle
se lect
se ems
og ent
og ene
ĠDaten fluss
Ġwhat s
ĠVer folgung
ĠUn befug
yt ime
ak eten
sch eduler
Ġno isy
Ġbr ill
Ġsc oring
pro fil
chn et
Ġoff load
Ġmess ed
Ġdown side
ehl ern
we ek
Ġbest re
Ġdec lines
Ġpo ds
Ġrece ptive
fr ames
ĠSicherheits system
ĠSicherheits systeme
ĠSicherheits bedenken
Ġconvenient ly
... ".
Ġinst alls
Ġwor ries
ĠInvest oren
Ġgener ous
yp en
acc ording
ĠFor ums
plic it
Ġsyn ergy
ĠEr nst
Ġplace ment
An geb
red ict
Ġ5 9
Ġdisrupt s
Ġfix able
Ġbereit gestellte
Ġ4 6
ĠSp ec
Ġstr ings
Ġbas ieren
Ġprogram m
au ge
ĠLe aving
Ġfound ational
app ear
app lications
Ġapproach ed
Ġview points
ĠComm odore
Ġchat ting
Ġ7 7
Ġthought less
ĠCh ecking
ĠCh ina
ĠAb hÃ¤ngigkeiten
ĠAb teilungen
ĠCan ada
ĠIntegrations einstellungen
tr ue
sh uffle
21 6
ĠService ausfÃ¤lle
Ġnon etheless
Is sue
Re quire
fl air
ĠAr range
ĠCont inu
ĠGesundheits ein
Ġnach gehen
Ġfl avor
ĠDe letion
ĠDe bugging
ĠTer mine
Ġx xx
geb Ã¼hren
Ġmiss p
ĠInvestment analysen
ĠInvestment datenanalyse
ĠRat ge
ĠImp ortant
Ġgest altet
Ġsubscr ib
Ġign ores
Ġobject s
schlÃ¤ gen
Ġreturn ing
Ġnote books
ĠGe fahr
miss ing
Ġredu ces
Ġsect ors
inc orrect
ĠBer ichten
ĠRed uz
ĠSte p
ĠDes cribe
ĠTag ged
Ġsl ope
ĠPr iv
ĠPr inter
St rategie
ĠNach richten
imp ort
ĠFehl funktionen
Ġposter ity
ĠZahlungs abwicklung
Ġmac os
__ _
Ġrecogn ise
ĠAc ademy
Ġdisagree ing
ĠAp olog
box es
When ever
ĠVerbindungs ab
Ġsumm aries
ath an
Ġmechan ical
rÃ¤n kung
ĠbewÃ¤hr ter
Ġâ ķ
Tag Name
45 6
ĠBes ucher
Ġfall ing
appro ve
Ġdeliver ed
Ġdeliver ability
Ġauft raten
Ã¶ch te
ok es
ĠKeep ing
uc id
Ġje weiligen
Ġescal ating
ĠDienst es
ĠInc orrect
Ġlower ed
ĠPatienten akten
Ġfa ults
ĠEd ition
") [
Ġmass ively
ads ets
Ġflood ed
Ġcategor ize
Ġnav igating
ĠDa zu
ĠFort unately
Ġbook marks
Ġmanufact uring
ĠOver clock
Ġaccomplish es
Ġremind ers
Ġconsequ ently
Ġsimpl ifying
Ġwid ers
Ġinappropriate ly
ĠĠĠĠĠĠĠĠĠĠĠĠĠĠĠĠĠĠĠĠĠĠĠĠĠĠĠĠĠĠĠĠ ĠĠĠĠĠĠĠĠĠĠĠĠĠĠ
Ġeinz ub
lau ber
Ġren aming
ĠPreis struktur
Ġalle ged
Sicherheits kamera
Cl osing
Ġmor al
ĠTop ical
Rep utation
ĠMan ual
ĠMan ufacturer
Ġtwe aking
ĠBad ge
Ġeinzu gehen
ĠRoom ba
nv oll
Ġnaht losen
reason ably
co al
Ġemphas izes
que ues
ĠAbrechn ungen
Ġinher ent
Ġgrundleg ender
EN T
Ġspons ors
Ġrele asing
Ġdiv ide
Gener al
ĠNatur ally
Ġcolum ns
Ġremed y
ĠImplementierungs prozess
cp u
Ġlisten ing
ĠEnh ance
ĠEnh anced
oper ability
ĠVerbesserungs mÃ¶glichkeiten
ĠReport ing
ĠPar ent
ĠDu oling
bedÃ¼rf nissen
las tet
Ġniedr ige
ĠDatensynchronis ierung
ontinu ed
exist ing
Ġinkonsist ente
âĢĭâĢĭâĢĭâĢĭ âĢĭâĢĭâĢĭâĢĭ
Ġinfect ion
ĠBenachrichtig ungen
ĠFeuerw Ã¤nde
Konfigurations fehler
Consider ing
Ġnut s
sa fe
Ġsin nvoll
Ġbein halten
aby te
Ġcertific ates
ĠYOU R
Ġwra pping
ĠZielgruppense gmentierung
GH z
Ward answered
Ġger aten
anpass ungen
Stand ards
frequ ently
nive au
Ġrecom end
ĠTeamkol laboration
Ġposit ives
ĠDatenanalysein tegration
zyk len
bat tery
Ġreinst ated
Ġital ic
ĠInt rodu
ĠZiels etzungen
Ġcelebr ation
Ġlawy er
ĠjÃ¤hr liche
Accept ed
WI W
analyt ischen
Ġrelo ading
ĠstÃ¤rk ere
ĠEint rag
Ġspo ken
Ġdecl ared
Ġreluct ant
Ġsockp uppet
cop ying
Ġbol ster
ĠVo IP
Ġkommun izieren
ĠVersorg ung
Ġplateau ed
ĠMaschin elles
Ġ<< >>
Ġzugute kommen
ĠDatenex position
Ġvorteil haft
Luftrein iger
omeh ow
getElementsBy TagName
Abs olute
Ġbeur teilen
ĠPilbrow answered
ĠCamt asia
ĠDuoling o
) -
A uth
B Y
D is
D ep
D oc
D isk
D etails
H ar
H ackintosh
M igr
M ichael
R I
R ober
S et
S ven
W elcome
Y eah
a ven
a wn
c ar
c annot
g aming
i at
j it
j et
k armic
m as
n es
p ublic
p olicy
t ung
t ick
t orrent
w ent
w Ã¶rter
z t
Â ¹
Ġ ).
Ġt ens
Ġt ile
en ed
on en
Ġs ac
Ġs lic
it ation
Ġd ated
Ġd ba
Ġw get
Ġw ave
Ġb ast
Ġb ub
Ġb aby
Ġp p
Ġp ink
Ġp aging
an atic
Ġf ig
Ġf ans
Ġu ptime
al ld
al uable
Ġin experienced
ro tt
Ġh urry
Ġh ibern
ar lier
Ġo wing
ent ra
Ġn ast
om pl
st ufen
Ġe ight
Ġpro akt
Ġof this
ur als
Ġun in
Ġun patch
Ġun accepted
Ġun maintain
Ġg auge
ot us
id d
id ay
im edia
Ġl ives
Ġl Ã¤u
ce ive
ich ter
ich ere
ol ving
ĠT or
ĠT our
ag ic
ĠW ant
ĠW PA
ĠW TF
ĠW itness
ĠA wareness
ĠA greed
ĠA ffected
Ġz ombie
for ums
Ã¼ p
pp el
Ġcon te
ĠP PT
Ġr m
form a
Ġk bd
Ġk arma
Ġv iel
ul ierungen
Ġsu ms
ad ow
ad ata
Ġst icking
Ġat i
Ã¤ ss
um achen
Ġen velope
ĠC our
ĠC orporate
ĠM B
ĠM ouse
ĠM otherboard
Ġse perate
ge gangen
Ġdo cker
ĠB an
per ren
ĠE l
ĠE ver
ĠE pson
Ġder ived
Ġer mittelt
ĠF ine
ĠF riday
Ġac ademic
op lay
Ġde aktiv
Ġ( âĢľ
Ġsp ree
ĠPro s
ĠK ill
ĠK nowledge
ĠAn sp
ĠV irus
ĠO dd
Ġimp lying
Ġimp recise
Ġge messen
Ġinformation al
Ġtr ail
Ġtr iple
iv ated
Ġour s
ĠR a
ĠR ich
ĠR unning
ĠH ALP
ab r
ire ction
Ġch ip
ĠL E
ĠL inking
Ġcomp uls
ĠN FS
Ġspec ulative
Ġj ur
Ġein sch
Ġein zusetzen
Ġein zusch
Ġwir tschaft
Ġspecific ation
Ġapprec iation
de ployment
view er
ru ed
ĠSt range
ck ets
men u
Ġar beite
Ġedit ions
Ġover t
Ġover kill
int age
ĠÃ¼ber w
ord nen
Ġset backs
ĠSer ial
ss h
Ġpart ner
Ġmehr fach
Ġhe x
bar r
Ġdec lare
Ġimplement ierten
ap ters
fr ied
ĠRe f
ĠServer neustart
Th ough
utz ungs
ĠSicherheits stellungen
ĠSicherheits besorg
... ?
Ġinst inct
ĠKunden inter
Ġinv aluable
Ġdoesn t
ne eds
Ġmult if
Ġsyn ony
Ġfac ilities
ĠJ BL
ĠBe k
Ġwrit ers
thing s
mer ged
Ġhand ed
Ġins ign
ĠEr lÃ¤uter
ĠMarketing werkzeugen
In f
Ġpatient ly
Ġverb atim
Ġcr us
Ġcr ack
ĠSE CT
ĠSh rew
Ġtool kit
ex c
Ġfr ames
heb t
itor ies
Ġstand point
Ġvor an
Ġ4 00
Ġret ained
Ġ8 5
Ġarr ived
ict ly
ger Ã¤t
Ġfact ually
zeit plan
Ġinstall ers
ĠLe opard
Ġ6 5
ĠAkt iv
ee ze
Ġpur ge
Ġdidn t
Pro bably
lin er
res olution
ph an
Ġwel comed
Ġexam ination
Ġblog gers
folg t
bers ome
ĠbeeintrÃ¤chtig ten
down voted
Ġlast ing
Ġnever theless
Ġla z
Ġbring t
Ġtroubleshoot en
ĠIntegrations ein
Ġkey caps
cl usive
ĠNetzwerk konfigurationen
rech tz
Te xt
Ġreject ions
Ġposting s
Ġautomat isieren
21 9
anz en
Ġaus gerichtet
Re ceived
ĠTr ack
ĠverfÃ¼g t
ĠDatenver kehr
Ġfl at
Ġcommun icated
ĠPl ay
ĠPl esk
Ġstud ieren
Ser vers
ĠInvestment daten
Ġsk izzieren
ĠProdukt ivitÃ¤ts
Un autor
ĠAnalyse ergebnisse
ĠQu oting
ĠAuf schlÃ¼sselung
Ġvol t
Ġsl im
Ġsl ap
ĠAltern ative
ĠPr icing
Ġlocal host
Ġpack aging
Ġmaintain s
ĠFinanz analyse
Ġir on
Ġhind eut
Ġmisc on
Ġtrack er
ĠNach dem
Ġattract ive
Ġ200 7
ĠAns prache
Do S
sequ ently
sequ ente
Ġpredict ion
ane ous
ĠHardware komponenten
Ġrestrict ive
ĠKompatibilitÃ¤ts konflikte
200 2
En t
On line
ĠHe althcare
ĠDatenb earbeitung
ĠiP hones
ĠAnpass ungs
ĠVerbindungs problem
ask ubuntu
ĠDatenanalys elÃ¶sungen
ĠNutzer erlebnis
Al tern
ĠBes tell
Ġarch ived
Ġlove ly
Ġmag net
Ġinterpre ting
Ġalloc ated
Ver bindungs
Ġtele com
Ġtele conference
Ġunautor isierter
Ġclass ified
ĠDienst unterbrechungen
Ġtransfer ring
product ion
Ġpatch ed
ĠPatienten ver
ĠInhalts produktion
Ġyield s
ĠLÃ¶sungs findung
Ġcomplain s
ĠArbeitsablauf s
EA A
flag ging
Ġcell s
ĠEnt deck
Ġstick y
achr ichtigen
Ġsil icon
Ġwin ner
SS L
see king
host s
Ġmid night
ĠCode Med
Ġeinz el
ĠAnt i
Ġhur ts
Ġunerlaub ter
Ġwarrant s
bad ges
OT OH
Ġche ating
ĠFr ame
sub ject
ĠUnder stood
ĠAutom atic
Ġgenutz te
bre iten
Ġbrief ly
ĠAufgaben verwaltung
Ġfore ign
ĠPasswort Ã¤nderungen
Ġreward ing
Ġpun ished
Ġgeziel tere
ĠâĨ Ĳ
Ġprem ature
data base
termin al
ĠStrateg ies
ĠTH IS
55 5
ĠAuthentifizierungs methoden
ĠLeit linien
Ġcal ibr
Ġjump ed
ĠLear ning
Ġhier mit
Ġhier zu
Ġsqu arely
ĠWart ung
Ġenforce ment
ĠTest ing
ĠAnlagen analyse
ĠÂł Ġ
ĠBestÃ¤tig en
ĠVerm ut
Ġblank et
scha ften
haft igkeit
ĠMarktwachstum s
Ġwert voll
Ġunrespons iveness
Ġquant ify
achrichtig ungen
mar kt
ĠTra vis
Ġip hone
Ġnons ensical
ĠgrÃ¶ÃŁ eren
Ġrevamp ing
char acter
Program m
Ġzun ehm
ĠStream ing
Ġsoft warerecs
ĠDatenspe icher
Eng agement
pol it
exper ten
Ġ! =
rob at
Ġcraft ing
Ġcraft ed
Ġve in
vorg ang
Ġcru ft
ĠUpd ated
ĠDatenaus wertung
ĠErmit tlung
edul ing
Ġgesp annt
Ġgovern ment
Ġsponsor ship
Ġrealloc ate
Ġunkon st
Ġjeopard izing
Ġschem es
fail ure
ĠUl tra
ĠDatenab gleich
ĠSus p
ĠMen gen
Ġbund le
ĠPut ting
Ġsymb ol
ĠÃĦnder ung
ĠMicro services
ĠAdjust ments
rad io
Ġacceler ate
Ġshif ts
ĠLang uage
ĠSupp ly
Ġgeste igert
Ġthumbn ail
ĠPA CS
ĠUtil ize
Ġgeh Ã¶ren
ĠRO I
Ġpreca utions
Ã¼bers ch
Ġrepet itive
Ġsuccinct ly
ĠSoftwarev ulnerabilitÃ¤ten
Ġshock ed
Ġepis ode
evol ving
Ġaven ue
ĠKredit karten
ertifik ate
verein barung
ĠLif eh
Ġextraordin arily
Ġrecy cled
Ġjun ior
ĠprÃ¤sent ieren
Ġmanif est
ĠQUEST ION
Ġbeaut iful
ĠzugÃ¤n glich
ĠOpt ane
Ġdaem on
ĠVerwir rung
ĠPromot ions
ĠEntwick ler
Ġdoub ts
Quer y
Ġdum my
ĠReduz ierung
jit su
entra le
ĠlÃ¤u ft
! ".
7 20
7 80
: (
: -
: [
> ".
? -
B l
C K
C al
C opy
G u
G eek
H mm
L ist
N V
N one
O RE
S ource
U pd
V ulnerabilit
a ved
c ams
c ogent
d am
e ffect
e ze
g able
g mail
h h
h Ã¼
j ail
k re
m ade
n otes
o ot
p od
r ude
s us
s now
s ound
s olved
s eln
s ynchronis
s ided
t witter
t rying
x e
y ear
y alty
z ut
z oom
} ,\
Ġt ree
Ġt ape
Ġa wards
er es
er st
er able
in ue
on sored
at las
Ġs now
Ġs ift
Ġs arc
Ġd im
Ġd oll
Ġd ots
Ġw alking
Ġc amp
Ġan g
Ġan sehen
Ġto xic
an weisungen
Ġf ence
Ġf ired
Ġf edora
Ġu l
te ous
ar geting
Ġy ahoo
ic ke
ĠS l
ĠS w
ĠS now
ĠS pr
ĠS elf
ĠS etting
Ġn er
Ġn immt
Ġbe auft
st al
st ro
st ra
Ġe leg
Ġun icode
id ding
Ġfor ese
Ġfor dern
Ġl ighter
ver lauf
Ġon topic
ol t
ol ite
ĠT ro
ĠT asks
Ġas sert
Ġas sertion
ĠW WW
Ġquestion I
ĠA uff
ĠA NSWER
ate way
ĠP L
ĠP ol
ĠP akete
ĠD ay
ĠD DoS
Ġr u
Ġr ubb
Ġund erne
su ited
Ġwith d
os cript
Ġv im
hr ist
Ġst Ã¤ndig
tem ple
Ġmo ot
ac ific
ill ance
Ġen de
iz enzen
Ġres em
ĠC E
ĠC OM
Ġdis h
ĠU dem
ĠU NIX
ĠM aterial
Ġver zeich
ĠE R
ĠF our
ĠF AT
ĠK han
ĠV NC
ĠO p
Ġimp art
Ġinc lusive
Ġinc ognito
Ġcont ention
Ġtr aces
Ġwas h
Ġrec reation
ĠR X
ĠR ate
Ġout standing
ĠH o
ĠH och
Ġch icken
Ġpost fix
ĠL icht
Ġpl ugged
Ġam d
ĠG D
ehr en
Ġreg rets
Ġdig its
Ġdig ging
Ġdes perate
de leting
Ġinter mediate
ĠVer hÃ¼
Ġzur zeit
ĠUn gen
Ġper miss
Ġste al
Ġste uern
Ġauf gefÃ¼hrten
Ġpr ank
Ġpr one
ho c
urr ency
Ġconf ront
ak ers
Ġ1 80
pr inter
rit es
tig er
chn ung
ĠAd Block
Ġover zealous
Ġrest oration
Ġdown times
read er
read sheet
ĠÃ¼ber arbeitet
Ġsuch t
ip hone
bl ank
Ġhe ur
Ġpo pped
ĠIntegr ating
ĠSoftware upgrades
Th ose
Ġpat rol
ĠSystem leistung
Ġent ity
Ġident ities
Ġconc entr
Ġcons ecutive
ĠUm t
ĠEx c
Ġes cape
other wise
od ed
ĠbenÃ¶tig ten
Ġ20 20
ĠJ on
mit ting
Ġvis ually
man ager
arch y
Ġerhalten en
Ġmain frame
Ġmain stream
Ġbelie f
Ġbelie ving
Ã¤t ten
ĠKr aken
Ġacc use
ron ically
ex port
lÃ¤ ufen
eter min
swer te
Ġhat te
Ġvor zustellen
Ġvor hers
Ġvor liegt
Ġ4 3
ĠX T
li ps
Ġautom agically
Ġneu es
Ġpres um
Ġet ern
ĠNe ue
Ġgee k
ĠZugriffs logs
mÃ¶glich keit
20 19
ĠSmart watch
ĠÃľber legungen
Ġlow est
Ġdirect ing
ĠProjektmanagement werkzeuge
ons or
cl ing
most at
Ġange forder
tr ack
fo ld
fo lder
ĠRec overy
Ġinitial en
Re ally
ĠQuestion naire
Ġworks heet
ĠĠĠĠĠĠĠĠĠĠĠĠĠĠĠĠ ĠĠĠĠĠĠĠĠĠĠĠĠĠ
ĠAr qade
Ġpower ed
Ġref lex
Ã¤h l
Ġfl esh
Ġerle idet
ĠInter aktion
ĠPl urals
play ing
Ġda wn
ĠPre tty
Ġmis read
over load
Ġsk illed
ĠProdukt abonnements
Ġblock quotes
Un tern
Un less
Ġuner lauber
ĠAuf bau
Ġassess ed
ĠTermin al
AP TC
Ġkon zip
ĠGesprÃ¤ch s
ĠPr Ã¤sent
St art
Ġdra ht
bin ed
pre m
ID I
warte te
Ġsw ag
ĠAc robat
ĠLeistungs fÃ¤higkeit
Ġlif espan
la w
Ġthreshold s
Ex per
En d
17 7
ĠiP ads
geben e
Ġartic ulate
my ear
Ġher z
ĠDatenschutz verletzungen
Ġwichtig en
Ġwichtig sten
Ġdecre asing
Ġdeb ating
ĠMod el
15 4
Ġtouch ed
entr ic
Ġhonest y
ĠMarkenwachstums strategie
port folio
ĠProgram me
Ġarch ives
let ives
mod ified
head er
head ers
con suming
con sumer
Ġcred ible
=" #
Ġtele health
Ġunde letion
ĠMeld en
Ġclass es
Ġexpress ions
Ġspeak s
Ġrepresent ation
Ġbal pha
ĠDuplic ates
Ġcategor ization
ĠRep e
Ġeduc ated
89 1
ĠMer ged
Ġintrodu cing
Ġbesorg nis
Ġwin ning
itect ure
Ġnomin ated
Ġhur ting
ĠIntegrationsprozess es
ĠSoll te
ĠErk und
ĠErk ennung
ĠFortsch ritts
Ġhop ed
Ġmode ms
Ġvertraulich en
Ġhistor ies
Ġwiederher gestellt
ĠSto cken
ĠBel astung
ĠDV I
ĠStart ing
Ġinser ting
Ġreprodu cible
rd s
reason s
ĠSicherheitsaud it
Ġadapt able
Ġhyper links
ĠBis her
room s
cast ing
str ay
Ġmotiv ate
Ġfan atic
ipher ie
He ad
Ġreve als
Ġcit ation
With out
Ġglo b
Ġinteract ing
gÃ¤n z
ĠDep ends
ĠDritt anwendungen
Ġadopt ed
Ġunw illing
AR T
Ġpartition ing
Ġangewend eten
Ġspons oring
Ġcat ers
Ġinsight ful
forward ing
Ġhor se
09 14
Ob wohl
domain s
autom ation
fÃ¤h ige
Ġtrad itionally
Angriff s
Ġsimultane ous
Sk ip
connect ion
cp anel
Ġpair s
Ġinsp ired
Ġdebug gen
ĠBar r
Ġheading s
Eng lish
enzial itÃ¤t
zul Ã¤ss
gesehen e
Act ive
ĠCho ose
mind ed
pract ices
Synchronisations fehler
Ġinkonsist enten
Ġintel lectual
Mon key
Ġhon or
Ġquot ation
Ġbund led
Ġliber ally
suggest ions
Ġbreat h
Ġbreat he
Ġtid y
ĠTeil nahme
ĠSchw ere
Iain answered
tar get
Ġware z
Ġoverchar ges
Ġdiagram s
fÃ¤n gliche
zub auen
Ġreag iert
ĠWo chen
Ġcontrovers ial
Medizin sp
Ġresyn cing
Ġgespe ichert
Ġreprocess ing
Ġunav ailability
Ġscrap ing
Ġempfind liche
Vulner abilitÃ¤t
Ġbeseit igen
Ġpreval ent
Ġamate ur
friend liness
ĠClar ification
Ġverfein ern
Ġsmo other
Ġinnoc ent
Ġfu jitsu
ĠESX i
Sec Ops
kn Ã¼p
intens ive
ĠAbo ve
ĠLQ P
Ġexecut ables
Ġecos ystem
Ġtriv ially
ĠÃ¤uÃŁ ern
Ġrepos itories
Ġbestre bt
Ġeinzub inden
ĠTopical ity
ĠPPT P
ĠSECT ION
Ġhindeut en
Ġcalibr ation
ĠVermut ung
cogent co
Ġforese e
Ġunderne ath
temple os
ĠUdem y
ĠPlurals ight
APTC HA
Ġkonzip iert
) (
- *
B ody
D V
E thernet
F l
F ree
H EL
I ts
K ey
M et
O ften
O IP
P ower
P atches
R s
R v
T reiber
U ner
U TC
V m
W or
Z eit
b iting
c re
c orporate
c oding
d l
d etail
d rome
e ed
f i
f ont
f onts
f irefox
g one
g ert
g win
g ithub
g mente
h istory
i pro
j ekte
j avascript
k r
l aden
m n
m ens
m icro
m aker
n ung
o perationen
p y
r ific
s izing
t utorial
t ube
t Ã¤us
y ware
z z
Â ³
Ã ¨
Ġ ^
Ġ ics
Ġt ap
Ġa ver
Ġa question
Ġa ug
Ġa uthent
er min
er reg
en cry
en cies
on ce
at ics
re iten
Ġd av
Ġd ynamics
Ġw en
Ġw ip
or ger
Ġc ensor
Ġb ag
Ġb irthday
Ġan ch
Ġan erk
Ġp ause
Ġp aged
Ġto es
Ġto sh
le ierung
al m
al ert
te kt
ar ound
ic ations
ĠS ke
ĠS ave
ĠS cript
Ġbe iz
un ken
Ġpro x
Ġof t
Ġun zusammen
Ġg utes
ig ieren
Ġl Ã¤n
Ġl oud
Ġl asts
Ġl vm
Ġl oses
Ġl Ã¤d
ol ph
ĠT ages
ĠT ask
ĠA cc
ĠA lex
am ily
Ã¼ l
el se
Ġha ir
ĠP e
ĠP ress
ĠP aket
ĠD umb
ĠD rawing
Ġr ay
Ġr age
Ġr aten
Ġr amp
ir men
Ġwe ed
Ġk Ã¼nft
Ġk ids
Ġv agrant
Ġso bre
ad apter
Ġst ation
Ġst alled
gr enz
gr Ã¶ÃŁ
gr ats
tem plate
Ġmo vie
Ġne ustarten
Ġab und
ĠC ard
ĠC hrist
ĠM ass
ĠM UST
Ġver stÃ¤nd
Ġver knÃ¼p
end um
Ġapp end
ĠIn fo
ĠB ear
ĠB UT
per missions
Ġabout managing
ĠF ern
ĠF ocus
ĠF OR
Ġac er
he ight
he mer
Ġde ine
Ġde vol
Ġsp ends
Ġsp onsored
Ġdisc ontinued
ĠPro posed
ĠK op
ĠK Ã¶n
Ġum pte
ĠAn omal
ĠAn aly
ĠAn ker
ff f
ĠV ol
aus richtung
Ġinformation s
Ġtr ace
Ġtr action
ud den
pl anned
ant rag
Ġrec s
ĠR y
ĠR ules
ĠR ode
ĠR DS
Ġintegr al
ĠH ope
ĠH mm
ĠH istor
ĠH ybrid
ĠH enderson
ĠH NQ
Ġch un
fer ably
Ġcomp osed
ib re
rec iative
og o
ĠDaten panne
Ġinter ne
Ġinter val
Ġinter operability
be hav
Ġste ad
Ġcomm a
lic ks
Ġpre em
Ġmat ure
ak y
Ġ1 60
sch ancen
ang abe
Ġno des
ĠY ear
ĠY esterday
Ġsc atter
ĠUnter schied
ĠUnter performance
Ġunter perform
Ġmess y
up grade
Ġben achrichtigen
Ġprom ise
Ġag es
ap ing
ĠSoftware probleme
ĠSoftware program
Ġbre eze
ĠServer ausfall
Ġpat ron
lo ved
ĠSicherheits lage
Ġapplic ability
Ġob no
Ġent tÃ¤us
Ġinform iertere
akt ivitÃ¤t
Ġlo yalty
ash ed
Ġgrow n
wh ite
Ġaud itor
iss es
Ġaccept ability
ĠAl arm
ĠJ S
ĠBe wer
ĠZugriff versuch
fe ed
ĠSU B
rep air
Ġocc up
Ġhtt pd
leit faden
ĠSE DE
Ġph ases
red dit
ex cerpt
ex ternal
Ġfr ag
Ġfr action
lÃ¤ nger
Ġsm arter
oc ation
rib ute
ĠInvestitions ziele
Ġvor stellen
ĠSp ecial
Ġret rying
Ġprotect ive
Ġpres erving
repanc ies
ĠSF TP
Ġinstall ations
Ġcustom izing
inst rument
Ġfree zes
ĠZugriffs versuchen
ĠGes am
10 1
res ultate
ĠRÃ¼ck meldungen
ĠzurÃ¼ck sch
ph ony
by e
ĠTelefon besprechung
sp ecial
Ġorgan isation
Ġbu cket
ĠdurchgefÃ¼hr ter
Ġkey stro
ĠAus kunft
ĠDatens icherungs
Âł Âł
sh irts
fo lders
Ġproper ties
As sist
Ġaus gesetzt
ĠKon nekt
ĠKampagnen einstellungen
Re ason
last ungs
ĠGesundheits information
ĠGesundheits branche
ĠGesundheits dienstleistungs
Ġref used
Ġfl uff
ĠDe ep
ĠDe ploy
ĠDe veloper
." )
admin s
ĠPre isk
Ġmiss es
Ġmis used
Ġsensib el
Ġwa ff
Ġblock quote
ĠAnalyse werkzeuge
ĠQu ant
Ġdro pdown
ĠMe aning
Ġlead ership
ĠGe meinsam
Ġdist ros
Ġverhind ert
ĠInit i
13 7
Ġsl ang
Ġsl ip
Ġspecial ised
part ition
Ġprec ious
kontrol le
uck ed
Ġsporad ically
zug ang
ĠCon sole
ĠCom o
analys etools
ĠZahlungs informationen
Do cker
Marketing kampagnen
Ġprogress ion
14 0
14 4
ĠSee ing
Ex ec
Ex cel
bere chtigungen
plan en
ĠWork shops
Ġcur ate
Sh og
bas ic
ĠAct ivity
Ġincomp et
Ġremember ing
Ġges endet
list s
ĠRo ck
ĠRes earch
ĠLog dateien
Ġâ ī
Ġgroup ed
Ġenthusi asm
Be amer
port al
Ġlight weight
ok ay
De ployment
ĠHin weis
Ġdisapp ears
ĠInhalts erstellung
Ġnarrow ing
hol fen
Ch ange
Ġaid s
ĠUp votes
ĠLÃ¶sungs schritte
ĠDigital strategien
ĠTrans fer
Ġdiscover ing
Ġoptimal en
Ġdest ruction
Ġanonym ity
mo vie
Ġeduc ational
cont roller
Ġsil ver
best immungen
ĠSyn c
ĠSyn onyms
ĠLink ed
aut o
Ġnu ance
Ġdistrib ute
Ġrollback ed
ĠRisik omanagement
Ġredirect ing
ĠPreis gestaltung
Ġche aper
ĠfrÃ¼ here
ĠVis io
ĠVis ualisierung
Ġfortschritt lichen
## #
Ġhesit ant
free bsd
Ġintr ins
Ġspread ing
Ġcounter part
kompatibilit Ã¤ten
Ġmangeln der
moder ation
ĠverstÃ¤r kte
Ġhot test
ĠDef ender
ops a
Ġmail ing
Ġadher ing
ĠVersuch te
ĠAuthentifizierungs protokolle
ĠMo dule
Cont act
Ġsummar ized
ĠAccept ing
pper y
Ġbackt ick
Ġadvantage ous
boot able
hard y
Ġten ant
ĠMein er
ĠElect ronics
schl oss
AR Q
ĠInd ikatoren
ĠVersch leierung
uz zy
Ġendless ly
ĠDev SecOps
Ġindividuell ere
Ġtransl ated
Gener ierung
Ġunivers ally
Ġeventuell er
Ġhor ribly
Ġtweak ed
ĠUs age
avil ion
ĠVideo konferenz
Ġignor ant
Ġaggress ively
Ġsum mer
Ġpros pect
ĠVal uable
ĠDevelop ers
ĠAlgorithmus Ã¤nderungen
Ġcivil ly
ĠAddress ing
experienc ing
Ġvorher ige
ĠMiss ing
Eng ine
Second ly
custom s
custom ization
ĠBudget s
Kompatibilit Ã¤tsprobleme
Ġstruct ural
Ġziel ger
pract ical
Fr ame
Fr ankly
ali as
ĠDatenÃ¼ber trag
Ġjeopard ize
Ġcorrel ation
Ġaggreg ate
ĠKomp onenten
brand ed
Ġadvoc ating
reject ed
Mon itor
Ġcancell ed
ĠHar ry
ĠSicherheitsris iken
ĠVerschlÃ¼sselungstechn ologien
pot ential
Ġoffiz iellen
Inst all
Ġsli ppery
ĠLic ense
ĠLic ensing
ĠExact ly
Ġcurs or
ĠThem atik
Ġunr ar
Ġcoinc idence
Ġfro zen
ĠAmer ican
Ġkontinuier lich
Ġvorgeschlagen en
ĠServerÃ¼ber lastungen
ĠSoftwarep aket
Ġinfringe ment
Ġenorm ous
Ġversch Ã¤r
Ġpod cast
Ġ:- (
ĠMerk male
ĠAnbi eter
ĠRT M
ĠClass ic
Ġanecd otal
border line
prÃ¤ z
Ġharass ment
anbiet ern
Concern ing
Ġtighten ing
Ġwis dom
Ġcart oon
Ġeinzigart igen
ĠMaxim izing
Ġresurrect ed
duplic ates
Ġcyberatt acks
sho ot
agnet ic
Ġjanitor ial
ĠKonfid enzialitÃ¤t
KÃ¼chen gerÃ¤te
ĠBind ungen
ĠBeit rag
ĠLyn da
Ġcoff ee
Ġlen ient
izar re
ĠverzÃ¶ gert
ĠGRE AT
Ġintuit iver
ĠAuftreten s
dang erous
Ġimmen sely
Ġrecip ient
ĠZust and
ĠErnst haftigkeit
ĠRatge ber
Rober t
Ġfig ures
Ġconte xts
ĠVerhÃ¼ tung
ĠUmt ausch
Ġbesorgnis erreg
Head set
Ġtosh iba
hemer al
. '
. ",
/ "
2 32
> [
> ),
B ad
B etr
B oost
C he
C onf
C ampagnen
E stabl
F ox
G reat
I NE
K Ã¼rz
L h
L ic
L Ã¶s
M okubai
N A
N etworking
P E
P ut
P ra
R U
R etag
S upp
S itzung
T hing
T orrent
V otes
W H
W N
W X
W erkzeuge
] ),
a is
a ways
a udio
a uthentifizierung
b ine
b ree
b anken
c or
c all
c able
c up
c cr
c ert
d el
e ach
f u
f ield
f edora
f ocused
g w
g ame
g oc
h aben
k ument
l c
l ife
n al
n At
o j
p i
p ic
p asting
r ic
s d
s i
s ur
s ec
s besondere
s ales
t d
t ru
t Ã¤ten
u ge
u ated
v i
v p
w elcome
x s
y te
z ogen
Ġ ere
Ġ iptables
Ġt ro
at ivity
Ġs heet
Ġs adly
Ġs enior
re it
re ce
re chnungs
Ġd ad
Ġd ictionary
or Ã¶ff
Ġc ow
Ġc ash
Ġb aff
Ġp aus
Ġp se
ch ing
ch ecks
Ġm ud
Ġm illions
ĠI IRC
Ġh ides
ar agent
as ive
Ġyou tube
Ġre h
Ġre app
Ġn ail
Ġbe legen
Ġbe aring
Ġbe hebt
un ing
un ct
st or
st uff
st hat
st ests
Ġe at
Ġe igen
Ġun com
Ġun eff
Ġun ple
Ġun zufried
Ġun limited
Ġun zulÃ¤ss
Ġg am
Ġg host
im it
im um
Ġl ing
Ġl ange
ver stÃ¤nd
ĠT ues
ut ure
ut lichen
us ual
ĠA part
ĠA BC
if ting
Ġz entrale
am ous
ĠP or
ĠP avilion
ĠD C
Ġr g
Ġund ers
form itÃ¤ts
form ula
Ġzu zu
Ġwe ist
ist ically
sw erkzeugen
Ġk il
Ġk ne
Ġv oid
ide a
Ġat om
Ġmo vies
Ġex t
ac s
Ġprov es
Ġen um
Ġab dec
ĠC reation
ĠM P
ĠM ortarboard
ĠM Ã¤ngel
ĠM IDI
and ing
Ġver gangenen
end ous
Ġdo able
oo f
oo per
Ġim m
ĠIn box
ĠB Y
ĠE du
Ġder og
Ġer a
ĠF er
ĠF un
ĠF ox
ĠF ury
ĠF ilter
Ġde pr
Ġsp acing
Ġdisc overy
ĠPro vider
ĠV CS
Ġle an
Ġle agues
ĠO Auth
art ed
Ġimp lements
Ġimp eded
Ġimp olite
ud ging
Ġte lev
ant t
ĠR adeon
ab lÃ¤ufen
ĠL ay
ĠL arge
ĠL uck
ĠL az
ĠL atest
ĠSu ccessful
Ġhelp desk
Ġpl ight
Ġcomp r
ĠN ginx
ĠN ormal
Ġsch ritt
Ġbet ra
du pe
Ġam ple
Ġspec ifies
Ġadd itions
rec ent
Ġj oy
Ġein s
Ġwir ksam
ĠG ig
ĠG ern
ĠG od
ĠG PO
ĠG MT
ĠG antt
se em
ĠDaten integr
Ġinter connected
ĠVer tre
ĠVer Ã¶ffentlich
ĠVer altete
ook ies
Ġed ges
ast ungen
ĠSt ruktur
ĠSt Ã¼rze
Ġqu ix
Ġqu orum
ang es
ual ity
Ġmit igating
Ġem b
Ġar rog
anc er
Ġbr ick
Ġlook up
Ġover charge
ungs verfahren
Ġdur ations
Ġmet ro
Ġgen ius
Ġbere in
ss l
we ite
ĠSch ad
Ġpo king
up vote
Ġrel ief
ound ed
Ġprom o
00 2
ĠAdd ed
bs cript
ĠRe lev
Ġro ok
Th oughts
hal tet
ĠSicherheits aktualisierungen
>. \
ĠSystem crash
Ġfol gen
ug u
Ġinv ites
Ġthr ust
Ġnumber ing
br ic
fÃ¼g barkeit
plic ity
auf kommen
ĠJ ed
ĠJ SON
ĠVor lagen
Ġvis ion
ĠZugriff ss
Ġverein bar
Ġbl u
Ġbl ast
In sp
rep id
An t
Ġcr imin
Ġrun ner
Ġbeh aving
vers orger
ĠSE R
Ġduplic ating
ĠSh ows
ex press
quir es
Ġi Cal
ĠProjekt leit
ĠProjekt planung
ĠProjekt leitung
oc on
ĠInvestitions entsche
Ġvor ant
Ġvor auss
Ġ4 1
Ġcert ification
Ġcol oring
Ġshow c
Ġstr ip
Ġstr ipped
Ġadv ising
Ġbas es
User Script
Ġ6 7
Ġweb app
ĠAkt uell
inst rumente
Ġpur su
10 8
res ult
Ġdeter ior
Ġchat bot
sp ec
sp ecifically
Ġscal es
20 2
20 15
ĠAb teilung
ĠÃľber gang
Ġresult ierenden
Ġclean er
Ġful fill
ĠIntegrations konflikten
Ġsupp ress
ĠNetzwerk kon
Ġange gebene
ĠunterstÃ¼tz ten
ĠAus fÃ¼hrung
ĠDatens Ã¤tzen
Ġclick able
cal c
Ġautomat isierten
21 2
ĠKon versions
ĠĠĠĠĠĠĠĠĠĠĠĠĠĠĠĠ ĠĠĠĠĠ
ĠDatenver bindungen
ĠDatenver stÃ¶ÃŁe
ĠGesundheits k
ĠGesundheits system
ĠGesundheits versorger
Ġref using
?" ).
vis ible
** *
ierungs fehler
Ġstud ents
Ġoption ally
ĠAll gemeine
Ġconst rued
ĠprÃ¼ ft
Ġentire ty
ĠKontakt nummer
ĠDisk utieren
Ġweek ly
Ġdetect or
Ġdetect ing
Ġempf angen
ĠSchutz medizin
Ġcho oses
Ġbenefit ed
pass ungen
Ġ# [
ĠdurchgefÃ¼hrt es
Ġtechniqu e
Ġcomprom ises
Un answered
Ġdring ender
Ġbed ienen
Ġretag s
[...]
