{
  "version": "1.0",
  "truncation": null,
  "padding": null,
  "added_tokens": [
    {
      "id": 0,
      "content": "<pad>",
      "single_word": false,
      "lstrip": false,
      "rstrip": false,
      "normalized": false,
      "special": true
    },
    {
      "id": 1,
      "content": "<s>",
      "single_word": false,
      "lstrip": false,
      "rstrip": false,
      "normalized": false,
      "special": true
    },
    {
      "id": 2,
      "content": "</s>",
      "single_word": false,
      "lstrip": false,
      "rstrip": false,
      "normalized": false,
      "special": true
    },
    {
      "id": 3,
      "content": "<unk>",
      "single_word": false,
      "lstrip": false,
      "rstrip": false,
      "normalized": false,
      "special": true
    }
  ],
  "normalizer": null,
  "pre_tokenizer": null,
  "post_processor": null,
  "decoder": null,
  "model": {
    "type": "BPE",
    "dropout": null,
    "unk_token": "<unk>",
    "continuing_subword_prefix": null,
    "end_of_word_suffix": null,
    "fuse_unk": false,
    "byte_fallback": false,
    "ignore_merges": false,
    "vocab": {
      "<pad>": 0,
      "<s>": 1,
      "</s>": 2,
      "<unk>": 3,
      "\n": 4,
      " ": 5,
      "!": 6,
      "\"": 7,
      "#": 8,
      "$": 9,
      "%": 10,
      "&": 11,
      "'": 12,
      "(": 13,
      ")": 14,
      "*": 15,
      "+": 16,
      ",": 17,
      "-": 18,
      ".": 19,
      "/": 20,
      "0": 21,
      "1": 22,
      "2": 23,
      "3": 24,
      "4": 25,
      "5": 26,
      "6": 27,
      "7": 28,
      "8": 29,
      "9": 30,
      ":": 31,
      ";": 32,
      "<": 33,
      "=": 34,
      ">": 35,
      "?": 36,
      "@": 37,
      "A": 38,
      "B": 39,
      "C": 40,
      "D": 41,
      "E": 42,
      "F": 43,
      "G": 44,
      "H": 45,
      "I": 46,
      "J": 47,
      "K": 48,
      "L": 49,
      "M": 50,
      "N": 51,
      "O": 52,
      "P": 53,
      "Q": 54,
      "R": 55,
      "S": 56,
      "T": 57,
      "U": 58,
      "V": 59,
      "W": 60,
      "X": 61,
      "Y": 62,
      "Z": 63,
      "[": 64,
      "\\": 65,
      "]": 66,
      "^": 67,
      "_": 68,
      "`": 69,
      "a": 70,
      "b": 71,
      "c": 72,
      "d": 73,
      "e": 74,
      "f": 75,
      "g": 76,
      "h": 77,
      "i": 78,
      "j": 79,
      "k": 80,
      "l": 81,
      "m": 82,
      "n": 83,
      "o": 84,
      "p": 85,
      "q": 86,
      "r": 87,
      "s": 88,
      "t": 89,
      "u": 90,
      "v": 91,
      "w": 92,
      "x": 93,
      "y": 94,
      "z": 95,
      "{": 96,
      "|": 97,
      "}": 98,
      "~": 99,
      " ": 100,
      "¡": 101,
      "¢": 102,
      "£": 103,
      "§": 104,
      "©": 105,
      "«": 106,
      "­": 107,
      "®": 108,
      "¯": 109,
      "°": 110,
      "±": 111,
      "²": 112,
      "³": 113,
      "´": 114,
      "µ": 115,
      "·": 116,
      "¹": 117,
      "º": 118,
      "»": 119,
      "½": 120,
      "¿": 121,
      "Á": 122,
      "Ä": 123,
      "É": 124,
      "Ö": 125,
      "×": 126,
      "Ü": 127,
      "ß": 128,
      "à": 129,
      "á": 130,
      "ã": 131,
      "ä": 132,
      "å": 133,
      "æ": 134,
      "ç": 135,
      "è": 136,
      "é": 137,
      "ê": 138,
      "ë": 139,
      "ì": 140,
      "í": 141,
      "ï": 142,
      "ð": 143,
      "ó": 144,
      "ô": 145,
      "õ": 146,
      "ö": 147,
      "÷": 148,
      "ù": 149,
      "ú": 150,
      "ü": 151,
      "ý": 152,
      "ą": 153,
      "č": 154,
      "ď": 155,
      "ē": 156,
      "ě": 157,
      "ġ": 158,
      "ģ": 159,
      "ĩ": 160,
      "ı": 161,
      "ľ": 162,
      "ŀ": 163,
      "ń": 164,
      "ň": 165,
      "ŏ": 166,
      "ő": 167,
      "ś": 168,
      "ţ": 169,
      "ŧ": 170,
      "ų": 171,
      "ơ": 172,
      "Ƭ": 173,
      "ư": 174,
      "ɑ": 175,
      "ɔ": 176,
      "ə": 177,
      "ɛ": 178,
      "ɪ": 179,
      "ɴ": 180,
      "ɹ": 181,
      "ʀ": 182,
      "ʇ": 183,
      "ʊ": 184,
      "ʜ": 185,
      "ˈ": 186,
      "ˌ": 187,
      "ː": 188,
      "˙": 189,
      "̀": 190,
      "́": 191,
      "̂": 192,
      "̃": 193,
      "̄": 194,
      "̅": 195,
      "̆": 196,
      "̇": 197,
      "̈": 198,
      "̉": 199,
      "̊": 200,
      "̋": 201,
      "̌": 202,
      "̍": 203,
      "̎": 204,
      "̏": 205,
      "̐": 206,
      "̑": 207,
      "̒": 208,
      "̓": 209,
      "̔": 210,
      "̖": 211,
      "̗": 212,
      "̘": 213,
      "̙": 214,
      "̚": 215,
      "̜": 216,
      "̝": 217,
      "̞": 218,
      "̟": 219,
      "̠": 220,
      "̡": 221,
      "̢": 222,
      "̣": 223,
      "̤": 224,
      "̥": 225,
      "̦": 226,
      "̧": 227,
      "̨": 228,
      "̩": 229,
      "̪": 230,
      "̫": 231,
      "̬": 232,
      "̭": 233,
      "̮": 234,
      "̯": 235,
      "̰": 236,
      "̱": 237,
      "̲": 238,
      "̳": 239,
      "̵": 240,
      "̶": 241,
      "̷": 242,
      "̸": 243,
      "̹": 244,
      "̺": 245,
      "̻": 246,
      "̼": 247,
      "̽": 248,
      "̾": 249,
      "̿": 250,
      "́": 251,
      "͂": 252,
      "̓": 253,
      "̈́": 254,
      "ͅ": 255,
      "͆": 256,
      "͇": 257,
      "͈": 258,
      "͉": 259,
      "͊": 260,
      "͋": 261,
      "͌": 262,
      "͍": 263,
      "͎": 264,
      "͏": 265,
      "͐": 266,
      "͑": 267,
      "͒": 268,
      "͓": 269,
      "͔": 270,
      "͕": 271,
      "͖": 272,
      "͗": 273,
      "͘": 274,
      "͙": 275,
      "͚": 276,
      "͛": 277,
      "͜": 278,
      "͝": 279,
      "͞": 280,
      "͟": 281,
      "͠": 282,
      "͡": 283,
      "͢": 284,
      "ͣ": 285,
      "ͤ": 286,
      "ͥ": 287,
      "ͦ": 288,
      "ͧ": 289,
      "ͨ": 290,
      "ͩ": 291,
      "ͪ": 292,
      "ͫ": 293,
      "ͬ": 294,
      "ͭ": 295,
      "ͮ": 296,
      "ͯ": 297,
      "Έ": 298,
      "ΐ": 299,
      "Κ": 300,
      "Ρ": 301,
      "ά": 302,
      "ί": 303,
      "α": 304,
      "δ": 305,
      "ε": 306,
      "ι": 307,
      "κ": 308,
      "λ": 309,
      "ν": 310,
      "ο": 311,
      "π": 312,
      "ρ": 313,
      "ς": 314,
      "σ": 315,
      "τ": 316,
      "υ": 317,
      "ω": 318,
      "ϋ": 319,
      "ό": 320,
      "Р": 321,
      "Я": 322,
      "а": 323,
      "в": 324,
      "г": 325,
      "д": 326,
      "е": 327,
      "з": 328,
      "и": 329,
      "л": 330,
      "м": 331,
      "н": 332,
      "о": 333,
      "п": 334,
      "р": 335,
      "с": 336,
      "т": 337,
      "у": 338,
      "ф": 339,
      "х": 340,
      "э": 341,
      "ѕ": 342,
      "҉": 343,
      "࢐": 344,
      "ಠ": 345,
      "ᴀ": 346,
      "ᴄ": 347,
      "ᴇ": 348,
      "ᴊ": 349,
      "ᴍ": 350,
      "ᴏ": 351,
      "ᴘ": 352,
      "ᴜ": 353,
      "ᴡ": 354,
      " ": 355,
      " ": 356,
      " ": 357,
      "​": 358,
      "‑": 359,
      "–": 360,
      "—": 361,
      "‘": 362,
      "’": 363,
      "“": 364,
      "”": 365,
      "„": 366,
      "†": 367,
      "‡": 368,
      "•": 369,
      "…": 370,
      " ": 371,
      "″": 372,
      "›": 373,
      "‽": 374,
      "⁴": 375,
      "⁵": 376,
      "⁶": 377,
      "⁷": 378,
      "⁸": 379,
      "™": 380,
      "←": 381,
      "→": 382,
      "↓": 383,
      "↪": 384,
      "⇒": 385,
      "⇥": 386,
      "−": 387,
      "∙": 388,
      "∞": 389,
      "≈": 390,
      "≠": 391,
      "≤": 392,
      "≥": 393,
      "⊞": 394,
      "─": 395,
      "│": 396,
      "┌": 397,
      "┐": 398,
      "└": 399,
      "┘": 400,
      "├": 401,
      "┤": 402,
      "┬": 403,
      "┴": 404,
      "┼": 405,
      "═": 406,
      "║": 407,
      "╔": 408,
      "╗": 409,
      "╚": 410,
      "╝": 411,
      "╠": 412,
      "╣": 413,
      "╦": 414,
      "╩": 415,
      "╬": 416,
      "╭": 417,
      "╮": 418,
      "╯": 419,
      "╰": 420,
      "▶": 421,
      "▸": 422,
      "►": 423,
      "○": 424,
      "☆": 425,
      "☺": 426,
      "♡": 427,
      "♦": 428,
      "♩": 429,
      "♪": 430,
      "♬": 431,
      "✓": 432,
      "✗": 433,
      "❍": 434,
      "❤": 435,
      "ツ": 436,
      "ꜰ": 437,
      "준": 438,
      "표": 439,
      "": 440,
      "️": 441,
      "﻿": 442,
      "：": 443,
      "😀": 444,
      "😉": 445,
      "😊": 446,
      "😡": 447,
      "😩": 448,
      "🙂": 449,
      "🤔": 450,
      "e ": 451,
      "er": 452,
      "s ": 453,
      "en": 454,
      "in": 455,
      "t ": 456,
      "th": 457,
      "d ": 458,
      "on": 459,
      "an": 460,
      "ti": 461,
      "ou": 462,
      "es": 463,
      "or": 464,
      ". ": 465,
      ", ": 466,
      "o ": 467,
      "g ": 468,
      "the ": 469,
      "re": 470,
      "y ": 471,
      "te": 472,
      "ch": 473,
      "en ": 474,
      "tion": 475,
      "al": 476,
      "ar": 477,
      "to ": 478,
      "ing ": 479,
      "er ": 480,
      "un": 481,
      "it": 482,
      "ro": 483,
      "le": 484,
      "is": 485,
      "at": 486,
      "and ": 487,
      "a ": 488,
      "for": 489,
      "r ": 490,
      "as": 491,
      "m ": 492,
      "f ": 493,
      "us": 494,
      "you": 495,
      "is ": 496,
      "di": 497,
      "pro": 498,
      "at ": 499,
      "il": 500,
      "tion ": 501,
      "om": 502,
      "et": 503,
      "qu": 504,
      "ed ": 505,
      "ic": 506,
      "ac": 507,
      "ec": 508,
      "el": 509,
      "su": 510,
      "es ": 511,
      "ow": 512,
      "I ": 513,
      "in ": 514,
      "st": 515,
      "ur": 516,
      "ve ": 517,
      "as ": 518,
      "of ": 519,
      "on ": 520,
      "ol": 521,
      "ques": 522,
      "ch ": 523,
      "ab": 524,
      "oul": 525,
      "men": 526,
      "  ": 527,
      "l ": 528,
      "wi": 529,
      "ma": 530,
      "ould ": 531,
      "you ": 532,
      "for ": 533,
      "ly ": 534,
      "are ": 535,
      "id": 536,
      "it ": 537,
      "ag": 538,
      "k ": 539,
      "li": 540,
      "al ": 541,
      "ver": 542,
      "an ": 543,
      "con": 544,
      "me": 545,
      "zu": 546,
      "that ": 547,
      "si": 548,
      "le ": 549,
      "os": 550,
      "be ": 551,
      "Th": 552,
      "ha": 553,
      "up": 554,
      "op": 555,
      "com": 556,
      "wh": 557,
      "ed": 558,
      "ra": 559,
      "ste": 560,
      "or ": 561,
      "ted ": 562,
      "th ": 563,
      "be": 564,
      "res": 565,
      "s. ": 566,
      "ig": 567,
      "ter": 568,
      "your ": 569,
      "mp": 570,
      "te ": 571,
      "ge": 572,
      "zu ": 573,
      "ad": 574,
      "die ": 575,
      "pp": 576,
      "with ": 577,
      "und ": 578,
      "ere ": 579,
      "dat": 580,
      "no": 581,
      "tions ": 582,
      "of": 583,
      "this ": 584,
      "ble": 585,
      "sw": 586,
      "ce ": 587,
      "ow ": 588,
      "ex": 589,
      "ent ": 590,
      "se": 591,
      "ase ": 592,
      "ail": 593,
      "s, ": 594,
      "out ": 595,
      "have ": 596,
      ".\n": 597,
      "ung": 598,
      "teg": 599,
      "Si": 600,
      "prov": 601,
      ". W": 602,
      "answ": 603,
      "en, ": 604,
      "au": 605,
      "rec": 606,
      "ne": 607,
      "ing": 608,
      "ser": 609,
      "ting ": 610,
      "me ": 611,
      "ung ": 612,
      "oo": 613,
      "issu": 614,
      "ter ": 615,
      "ta": 616,
      "would ": 617,
      "ity ": 618,
      "? ": 619,
      "per": 620,
      "lease ": 621,
      "de": 622,
      "ate ": 623,
      "ri": 624,
      "provid": 625,
      "hr": 626,
      "eit": 627,
      "der ": 628,
      "ts ": 629,
      "the": 630,
      "dis": 631,
      "um": 632,
      ".  ": 633,
      "question ": 634,
      "ff": 635,
      "bu": 636,
      "not ": 637,
      "In": 638,
      "tw": 639,
      "en. ": 640,
      "'s ": 641,
      "cl": 642,
      "forma": 643,
      "det": 644,
      "ein": 645,
      "ist": 646,
      "ment ": 647,
      "Sie ": 648,
      "ke ": 649,
      "provide ": 650,
      "sh": 651,
      "der": 652,
      "sp": 653,
      "yste": 654,
      "we ": 655,
      "ich ": 656,
      "sch": 657,
      "ass": 658,
      "all ": 659,
      "can ": 660,
      "ess": 661,
      "to": 662,
      "pl": 663,
      "ul": 664,
      "all": 665,
      "'t ": 666,
      "vi": 667,
      "about ": 668,
      "ing the ": 669,
      "tic": 670,
      "ten ": 671,
      "enc": 672,
      "ther ": 673,
      "den ": 674,
      "An": 675,
      ". Th": 676,
      "cus": 677,
      "acc": 678,
      "Pro": 679,
      "if": 680,
      "da": 681,
      "fü": 682,
      "tr": 683,
      "e, ": 684,
      "app": 685,
      "ca": 686,
      "any ": 687,
      "iz": 688,
      "ance ": 689,
      "t, ": 690,
      "du": 691,
      "n ": 692,
      "data ": 693,
      "num": 694,
      "but ": 695,
      "um ": 696,
      "po": 697,
      "pos": 698,
      "oftw": 699,
      "wor": 700,
      "proble": 701,
      "s and ": 702,
      "answer": 703,
      "ves": 704,
      "oun": 705,
      "bes": 706,
      "ore ": 707,
      ". We ": 708,
      "ir ": 709,
      "am ": 710,
      "ill ": 711,
      "y, ": 712,
      "tz": 713,
      "hel": 714,
      "our ": 715,
      "questions ": 716,
      "of the ": 717,
      "tel": 718,
      "mo": 719,
      "re ": 720,
      "som": 721,
      "so ": 722,
      "will ": 723,
      "question": 724,
      "p ": 725,
      "us ": 726,
      "lo": 727,
      "syste": 728,
      "informa": 729,
      "ation ": 730,
      "detail": 731,
      "ard": 732,
      "if ": 733,
      "discus": 734,
      "na": 735,
      "aly": 736,
      "ar ": 737,
      "ent": 738,
      "vic": 739,
      "ic ": 740,
      "ge ": 741,
      "kn": 742,
      ". I": 743,
      "ungen ": 744,
      "ally ": 745,
      "tim": 746,
      "ach": 747,
      "one ": 748,
      "cont": 749,
      ", and ": 750,
      "ind": 751,
      "pre": 752,
      "able ": 753,
      "s to ": 754,
      "form": 755,
      "integ": 756,
      "igh": 757,
      "more ": 758,
      "vo": 759,
      "king ": 760,
      "sec": 761,
      "w ": 762,
      "Please ": 763,
      "_num": 764,
      "issue ": 765,
      "was ": 766,
      "ark": 767,
      "tu": 768,
      "fe": 769,
      "do": 770,
      "resol": 771,
      "medi": 772,
      "ön": 773,
      "softw": 774,
      "analy": 775,
      "e to ": 776,
      "inves": 777,
      "önn": 778,
      "like ": 779,
      "itte ": 780,
      "_num>": 781,
      "he": 782,
      "ber": 783,
      "gh": 784,
      "in the ": 785,
      "sol": 786,
      "ten": 787,
      "por": 788,
      "ver ": 789,
      "ier": 790,
      "on the ": 791,
      "ation": 792,
      "comp": 793,
      "please ": 794,
      "anc": 795,
      "age": 796,
      "lich": 797,
      "fl": 798,
      "secur": 799,
      "ess ": 800,
      "dig": 801,
      "ite ": 802,
      "lin": 803,
      "Sup": 804,
      "bet": 805,
      "de ": 806,
      "tig": 807,
      "my ": 808,
      "Dat": 809,
      "information ": 810,
      "answer ": 811,
      "use ": 812,
      "fi": 813,
      "spec": 814,
      "could ": 815,
      "has ": 816,
      "am": 817,
      "ist ": 818,
      "by ": 819,
      "    ": 820,
      ". I ": 821,
      "we": 822,
      "rom ": 823,
      "Proble": 824,
      "ther": 825,
      "ed to ": 826,
      "tom": 827,
      "wa": 828,
      "time ": 829,
      "ven": 830,
      "für ": 831,
      "user": 832,
      "hr ": 833,
      "ese ": 834,
      "tes ": 835,
      "ment": 836,
      "from ": 837,
      "The ": 838,
      "discuss ": 839,
      "and": 840,
      "ust ": 841,
      "gu": 842,
      "do ": 843,
      "Ver": 844,
      "reg": 845,
      "im": 846,
      "a c": 847,
      "\" ": 848,
      "specif": 849,
      "sa": 850,
      "imp": 851,
      "which ": 852,
      "ank ": 853,
      "software ": 854,
      "tel_num>": 855,
      "<tel_num>": 856,
      "been ": 857,
      ") ": 858,
      "en Sie ": 859,
      "know ": 860,
      "en und ": 861,
      "top": 862,
      "rateg": 863,
      "clos": 864,
      "man": 865,
      ". Please ": 866,
      "details ": 867,
      "ati": 868,
      "ough": 869,
      "solu": 870,
      "es, ": 871,
      "das ": 872,
      "We ": 873,
      "ration ": 874,
      "should ": 875,
      "könn": 876,
      "vie": 877,
      "fur": 878,
      "digit": 879,
      ": ": 880,
      "reci": 881,
      "inter": 882,
      "erh": 883,
      "Un": 884,
      "appreci": 885,
      "they ": 886,
      "ted": 887,
      "I'": 888,
      "ant ": 889,
      "tag": 890,
      "jec": 891,
      "ight ": 892,
      "to discuss ": 893,
      "chan": 894,
      "\\n": 895,
      "br": 896,
      "ad ": 897,
      "security ": 898,
      "tool": 899,
      "ber ": 900,
      "mö": 901,
      "ms ": 902,
      "n't ": 903,
      "so": 904,
      "arket": 905,
      "qui": 906,
      "ges": 907,
      "our": 908,
      "with the ": 909,
      "fin": 910,
      "how ": 911,
      "tar": 912,
      ". A": 913,
      "i ": 914,
      "conven": 915,
      "what ": 916,
      "ap": 917,
      "wir ": 918,
      "eine ": 919,
      "lic": 920,
      "would be ": 921,
      "bo": 922,
      "there ": 923,
      "cur": 924,
      "Ihr": 925,
      "ef": 926,
      "conveni": 927,
      "loo": 928,
      "pr": 929,
      "servic": 930,
      "comm": 931,
      "under": 932,
      "duc": 933,
      "gen": 934,
      "supp": 935,
      "are": 936,
      "act ": 937,
      "To ": 938,
      "off": 939,
      "cre": 940,
      "rategi": 941,
      "tionen ": 942,
      "other ": 943,
      "some": 944,
      "to the ": 945,
      "ll": 946,
      "ffec": 947,
      "and the ": 948,
      "help ": 949,
      "tiv": 950,
      "get ": 951,
      "ru": 952,
      "problem ": 953,
      "specific ": 954,
      "appreciate ": 955,
      "Wh": 956,
      "clu": 957,
      "fre": 958,
      "y to ": 959,
      "system ": 960,
      ", but ": 961,
      "uns ": 962,
      "weit": 963,
      "on't ": 964,
      ". D": 965,
      "optim": 966,
      "dition": 967,
      "pe": 968,
      "S ": 969,
      "some ": 970,
      "ack ": 971,
      "bil": 972,
      "nec": 973,
      "age ": 974,
      "av": 975,
      "ei": 976,
      "commen": 977,
      "err": 978,
      "just ": 979,
      "mat": 980,
      "led ": 981,
      "wer": 982,
      "underst": 983,
      "suppor": 984,
      "inclu": 985,
      "assist": 986,
      "zur ": 987,
      "revie": 988,
      "ll ": 989,
      "ence ": 990,
      "par": 991,
      ". The ": 992,
      "regard": 993,
      "I am ": 994,
      ". Wir ": 995,
      "for the ": 996,
      "ated ": 997,
      "these ": 998,
      "ing to ": 999,
      "min": 1000,
      "St": 1001,
      "assist ": 1002,
      "possi": 1003,
      "name": 1004,
      "tive ": 1005,
      "a call ": 1006,
      "updat": 1007,
      "- ": 1008,
      "ack": 1009,
      "Problem ": 1010,
      "enti": 1011,
      "up ": 1012,
      "about the ": 1013,
      "ard ": 1014,
      "better ": 1015,
      "invest": 1016,
      "manage": 1017,
      "ern": 1018,
      "tomer ": 1019,
      "guid": 1020,
      "ai": 1021,
      "pers": 1022,
      "step": 1023,
      "hl": 1024,
      "<tel_num> ": 1025,
      "auf ": 1026,
      "Informa": 1027,
      "you please ": 1028,
      "isch": 1029,
      "net": 1030,
      "proc": 1031,
      "curr": 1032,
      "en, um ": 1033,
      "ös": 1034,
      "might ": 1035,
      "dow": 1036,
      "e. ": 1037,
      "don't ": 1038,
      "gee": 1039,
      "Ihre ": 1040,
      "ough ": 1041,
      "digital ": 1042,
      "Could ": 1043,
      "produc": 1044,
      "se ": 1045,
      "bl": 1046,
      "ank you ": 1047,
      "thing ": 1048,
      "ure": 1049,
      "Daten": 1050,
      "read": 1051,
      "sion": 1052,
      "see": 1053,
      "ev": 1054,
      "resolve ": 1055,
      "lich ": 1056,
      "user ": 1057,
      "nen ": 1058,
      "tak": 1059,
      "Sa": 1060,
      "Bitte ": 1061,
      "may ": 1062,
      "gre": 1063,
      "analytic": 1064,
      "go": 1065,
      "the issue ": 1066,
      "mit ": 1067,
      "plat": 1068,
      "pu": 1069,
      "Ih": 1070,
      "pec": 1071,
      "sen": 1072,
      "ich": 1073,
      "let ": 1074,
      "cal ": 1075,
      "ank you for ": 1076,
      "sc": 1077,
      "bec": 1078,
      "due to ": 1079,
      "rit": 1080,
      "This ": 1081,
      "strategi": 1082,
      "Se": 1083,
      "ke": 1084,
      "commun": 1085,
      "Saa": 1086,
      "system": 1087,
      "investment ": 1088,
      "fig": 1089,
      "?  ": 1090,
      "ject ": 1091,
      "work ": 1092,
      "peri": 1093,
      "when ": 1094,
      "market": 1095,
      "stell": 1096,
      "issues ": 1097,
      "thin": 1098,
      "Informationen ": 1099,
      "und": 1100,
      "integration ": 1101,
      "it's ": 1102,
      "medical ": 1103,
      "ear": 1104,
      "fu": 1105,
      "post": 1106,
      "des ": 1107,
      "optimiz": 1108,
      "site ": 1109,
      "ron": 1110,
      "?\n": 1111,
      "cle": 1112,
      "work": 1113,
      "ell": 1114,
      "requi": 1115,
      "temp": 1116,
      "form ": 1117,
      "ear ": 1118,
      "Ser": 1119,
      "name>": 1120,
      "ble ": 1121,
      "<name>": 1122,
      "ben": 1123,
      "investig": 1124,
      "Unter": 1125,
      "chn": 1126,
      "dur": 1127,
      "Cus": 1128,
      "ungs": 1129,
      "Sich": 1130,
      "end": 1131,
      "also ": 1132,
      "ütz": 1133,
      "upda": 1134,
      "need": 1135,
      "fol": 1136,
      "mess": 1137,
      "no ": 1138,
      "es and ": 1139,
      "ved ": 1140,
      "bei ": 1141,
      "their ": 1142,
      "ally, ": 1143,
      "Suppor": 1144,
      "set": 1145,
      "tial ": 1146,
      "Syste": 1147,
      "von ": 1148,
      "das Problem ": 1149,
      ", um ": 1150,
      "Te": 1151,
      "men ": 1152,
      "sure ": 1153,
      "very ": 1154,
      "ank": 1155,
      "peop": 1156,
      "ck": 1157,
      "like to ": 1158,
      "ost ": 1159,
      "Customer ": 1160,
      "amp": 1161,
      "sched": 1162,
      "recent ": 1163,
      "ob": 1164,
      "ach ": 1165,
      "0 ": 1166,
      "post ": 1167,
      "Ihnen ": 1168,
      "ving ": 1169,
      "enh": 1170,
      "es. ": 1171,
      "happ": 1172,
      "figur": 1173,
      ":  ": 1174,
      "est ": 1175,
      "abil": 1176,
      "only ": 1177,
      "marketing ": 1178,
      "with": 1179,
      "..": 1180,
      "ask": 1181,
      "If ": 1182,
      "such ": 1183,
      "fac": 1184,
      "analytics ": 1185,
      "e the ": 1186,
      "iel": 1187,
      "hab": 1188,
      "goo": 1189,
      "think ": 1190,
      "further ": 1191,
      "ay": 1192,
      "ep": 1193,
      "reques": 1194,
      "ial ": 1195,
      "look ": 1196,
      "geehr": 1197,
      "ause ": 1198,
      "add": 1199,
      "you please provide ": 1200,
      "reas": 1201,
      "avail": 1202,
      "problem": 1203,
      "mit": 1204,
      "tt": 1205,
      "Sch": 1206,
      "s. We ": 1207,
      "ating ": 1208,
      "des": 1209,
      "poten": 1210,
      ". If ": 1211,
      "ie ": 1212,
      "glich": 1213,
      "I would ": 1214,
      "out": 1215,
      "schedu": 1216,
      "experi": 1217,
      "ity": 1218,
      "rel": 1219,
      "project ": 1220,
      "diff": 1221,
      "over": 1222,
      "stütz": 1223,
      "such": 1224,
      "edi": 1225,
      "its ": 1226,
      "people ": 1227,
      "bereit": 1228,
      "ser ": 1229,
      "ktu": 1230,
      "eng": 1231,
      "affec": 1232,
      "das": 1233,
      "ently ": 1234,
      "sti": 1235,
      "dec": 1236,
      "error ": 1237,
      "ailed ": 1238,
      "bre": 1239,
      "tation ": 1240,
      ", we ": 1241,
      "new ": 1242,
      "Integ": 1243,
      "indow": 1244,
      "because ": 1245,
      "answers ": 1246,
      "schedule ": 1247,
      "ros": 1248,
      "ous ": 1249,
      "row": 1250,
      "x ": 1251,
      "includ": 1252,
      "fir": 1253,
      "is a ": 1254,
      "ign": 1255,
      "Lös": 1256,
      "mail": 1257,
      "eits": 1258,
      "geb": 1259,
      "inst": 1260,
      "og": 1261,
      "A ": 1262,
      "moder": 1263,
      "accoun": 1264,
      "help": 1265,
      "down": 1266,
      "etail": 1267,
      "Sehr ": 1268,
      "Sehr geehr": 1269,
      "el ": 1270,
      "Customer Suppor": 1271,
      "tag ": 1272,
      "yp": 1273,
      "Detail": 1274,
      "dele": 1275,
      "t of ": 1276,
      "management ": 1277,
      "can": 1278,
      "assistance ": 1279,
      "have been ": 1280,
      "Softw": 1281,
      "ely ": 1282,
      "caus": 1283,
      "tions": 1284,
      "make ": 1285,
      "über ": 1286,
      "detailed ": 1287,
      "gra": 1288,
      "wur": 1289,
      "ly": 1290,
      "weitere ": 1291,
      "if you ": 1292,
      "I'm ": 1293,
      "get": 1294,
      "see ": 1295,
      "lat": 1296,
      "prech": 1297,
      "isi": 1298,
      "her": 1299,
      "support ": 1300,
      "ile ": 1301,
      "site": 1302,
      "know": 1303,
      "matter ": 1304,
      "tur": 1305,
      "ments ": 1306,
      "identi": 1307,
      "then ": 1308,
      "recommen": 1309,
      "repor": 1310,
      "esh": 1311,
      "current ": 1312,
      "sid": 1313,
      "s, and ": 1314,
      "Details ": 1315,
      "bitte ": 1316,
      "recei": 1317,
      "a question ": 1318,
      "auf": 1319,
      "ask ": 1320,
      "attemp": 1321,
      "perform": 1322,
      "a call at ": 1323,
      "pri": 1324,
      "require": 1325,
      "lev": 1326,
      "'re ": 1327,
      "users ": 1328,
      "co": 1329,
      "still ": 1330,
      "alread": 1331,
      "sion ": 1332,
      "email": 1333,
      "einen ": 1334,
      "ose ": 1335,
      "ung der ": 1336,
      "t the ": 1337,
      "mel": 1338,
      "imple": 1339,
      "20": 1340,
      "wä": 1341,
      "\\n\\n": 1342,
      "contact ": 1343,
      "platform": 1344,
      "ting the ": 1345,
      "guidance ": 1346,
      "ue ": 1347,
      "besprech": 1348,
      "Ich ": 1349,
      "You": 1350,
      ". This ": 1351,
      "any": 1352,
      "kon": 1353,
      "Re": 1354,
      "führ": 1355,
      "bas": 1356,
      "further": 1357,
      "ug": 1358,
      "experienc": 1359,
      ". To ": 1360,
      "poin": 1361,
      "good ": 1362,
      "Ex": 1363,
      "dass ": 1364,
      "ations ": 1365,
      "ätz": 1366,
      "unter": 1367,
      "restar": 1368,
      "er U": 1369,
      "oubl": 1370,
      "thing": 1371,
      "sel": 1372,
      "you are ": 1373,
      "iti": 1374,
      "them ": 1375,
      "en.\n": 1376,
      "ting": 1377,
      "expl": 1378,
      "camp": 1379,
      "already ": 1380,
      "SaaS ": 1381,
      "oublesh": 1382,
      "oubleshoo": 1383,
      "ted to ": 1384,
      "zu ver": 1385,
      "sy": 1386,
      "inc": 1387,
      "oc": 1388,
      "Fe": 1389,
      "than ": 1390,
      "campa": 1391,
      "ast ": 1392,
      "möglich": 1393,
      "ur ": 1394,
      "Super U": 1395,
      "interes": 1396,
      "error mess": 1397,
      "ten Sie ": 1398,
      "Sicherh": 1399,
      "access ": 1400,
      "into ": 1401,
      "the question ": 1402,
      "ie": 1403,
      "s that ": 1404,
      "IT": 1405,
      "st ": 1406,
      "regarding the ": 1407,
      "isier": 1408,
      "team ": 1409,
      "Unterstütz": 1410,
      "where ": 1411,
      "ek": 1412,
      "ulti": 1413,
      "need ": 1414,
      "ing a ": 1415,
      "moderat": 1416,
      "sug": 1417,
      "ise ": 1418,
      "sugges": 1419,
      "utz": 1420,
      "ddition": 1421,
      "review ": 1422,
      "low": 1423,
      "troubleshoo": 1424,
      "even ": 1425,
      "pon": 1426,
      "sub": 1427,
      "col": 1428,
      "mich ": 1429,
      "topic": 1430,
      ", I ": 1431,
      "ourc": 1432,
      "let us ": 1433,
      "applic": 1434,
      "information": 1435,
      "might be ": 1436,
      "How ": 1437,
      "t-": 1438,
      "tly ": 1439,
      "t. ": 1440,
      "connec": 1441,
      "devic": 1442,
      "ir": 1443,
      "aul": 1444,
      "great": 1445,
      "community ": 1446,
      "zin": 1447,
      "gi": 1448,
      "You ": 1449,
      "techn": 1450,
      "project management ": 1451,
      "In ": 1452,
      "fr": 1453,
      "tec": 1454,
      "dditionally, ": 1455,
      "to be ": 1456,
      "möch": 1457,
      " and ": 1458,
      "that": 1459,
      "ate": 1460,
      "ance": 1461,
      "pit": 1462,
      "lef": 1463,
      "who ": 1464,
      "ür": 1465,
      "sin": 1466,
      "here ": 1467,
      "appro": 1468,
      "request ": 1469,
      "en D": 1470,
      "should be ": 1471,
      "mehr ": 1472,
      "im ": 1473,
      "potential ": 1474,
      "server ": 1475,
      "mer": 1476,
      "differ": 1477,
      "fter ": 1478,
      "bel": 1479,
      "ward ": 1480,
      "sit": 1481,
      "change ": 1482,
      "met": 1483,
      "brand ": 1484,
      "addition": 1485,
      "log": 1486,
      "want ": 1487,
      "en. Bitte ": 1488,
      "; ": 1489,
      "vote ": 1490,
      "necess": 1491,
      "mis": 1492,
      "besser": 1493,
      "topic ": 1494,
      "web": 1495,
      "ware ": 1496,
      "unden": 1497,
      "hos": 1498,
      "rup": 1499,
      "email ": 1500,
      "being ": 1501,
      "bar": 1502,
      ". S": 1503,
      "en zu ": 1504,
      "available ": 1505,
      "addres": 1506,
      "it is ": 1507,
      "s for ": 1508,
      "ank you for your ": 1509,
      "en, die ": 1510,
      "enst": 1511,
      "ary ": 1512,
      "zinisch": 1513,
      "configur": 1514,
      "ies ": 1515,
      "respon": 1516,
      "Sicherheits": 1517,
      "additional ": 1518,
      "feat": 1519,
      "conc": 1520,
      "ever": 1521,
      "related ": 1522,
      "let us know ": 1523,
      "data analytics ": 1524,
      "were ": 1525,
      "ounter": 1526,
      "Fehl": 1527,
      "convenient ": 1528,
      "        ": 1529,
      "Kunden": 1530,
      "medizinisch": 1531,
      "zus": 1532,
      "pati": 1533,
      "ph": 1534,
      "ues": 1535,
      "greatly ": 1536,
      "reach": 1537,
      "tier": 1538,
      "hmen ": 1539,
      "proto": 1540,
      "integr": 1541,
      "most ": 1542,
      "unser": 1543,
      "gener": 1544,
      "led": 1545,
      "   ": 1546,
      "compu": 1547,
      "ain": 1548,
      "ame": 1549,
      "ell ": 1550,
      "mu": 1551,
      "P ": 1552,
      "Window": 1553,
      "the problem ": 1554,
      "relev": 1555,
      "ful ": 1556,
      "auth": 1557,
      "solution ": 1558,
      "ed by ": 1559,
      "<name>, ": 1560,
      "network ": 1561,
      "persist": 1562,
      "back ": 1563,
      "heb": 1564,
      "ages ": 1565,
      "we can ": 1566,
      "Inves": 1567,
      "solution": 1568,
      "üf": 1569,
      "olog": 1570,
      "find ": 1571,
      "ed, ": 1572,
      "forward ": 1573,
      "et ": 1574,
      "ish": 1575,
      "to resolve ": 1576,
      "on-": 1577,
      "medical data ": 1578,
      "account ": 1579,
      "Kon": 1580,
      "s? ": 1581,
      "hospit": 1582,
      "implemen": 1583,
      "time": 1584,
      "line ": 1585,
      "ling ": 1586,
      "ged ": 1587,
      "Könn": 1588,
      "meas": 1589,
      "sensi": 1590,
      "integra": 1591,
      ".com": 1592,
      "s are ": 1593,
      "fun": 1594,
      "call ": 1595,
      "end ": 1596,
      "ensure ": 1597,
      "ttp": 1598,
      "way": 1599,
      "really ": 1600,
      "Name": 1601,
      "encounter": 1602,
      "alisier": 1603,
      "//": 1604,
      "forward to ": 1605,
      "ref": 1606,
      "issue": 1607,
      "ick": 1608,
      "http": 1609,
      ". Could ": 1610,
      "teil": 1611,
      "zu besprech": 1612,
      "ific": 1613,
      "how to ": 1614,
      "Customer Support, ": 1615,
      "id ": 1616,
      "It ": 1617,
      "helf": 1618,
      "://": 1619,
      "Es ": 1620,
      "does ": 1621,
      "plac": 1622,
      "high": 1623,
      "ran": 1624,
      "review": 1625,
      "tri": 1626,
      "need to ": 1627,
      "ück": 1628,
      "dn't ": 1629,
      "Software": 1630,
      "that the ": 1631,
      "prove ": 1632,
      "bei der ": 1633,
      "data": 1634,
      "possible ": 1635,
      "ein ": 1636,
      "ort": 1637,
      "No": 1638,
      "ing out ": 1639,
      "star": 1640,
      "ash": 1641,
      "Um ": 1642,
      "del": 1643,
      "such as ": 1644,
      "effec": 1645,
      "using ": 1646,
      "close ": 1647,
      "examp": 1648,
      "enhance ": 1649,
      "same ": 1650,
      "What ": 1651,
      "investigate ": 1652,
      "ts. ": 1653,
      "e-": 1654,
      "ari": 1655,
      "suit": 1656,
      "es to ": 1657,
      "ine ": 1658,
      "Lösung ": 1659,
      "en. D": 1660,
      "this": 1661,
      "has been ": 1662,
      "spe": 1663,
      "including ": 1664,
      "effor": 1665,
      "For ": 1666,
      "] ": 1667,
      "does": 1668,
      "closed ": 1669,
      "en wir ": 1670,
      "Our ": 1671,
      "cc": 1672,
      "something ": 1673,
      "und die ": 1674,
      "aktu": 1675,
      "inu": 1676,
      "prüf": 1677,
      "vol": 1678,
      "lik": 1679,
      "would like to ": 1680,
      "suitable ": 1681,
      "hard": 1682,
      "improve ": 1683,
      "ful": 1684,
      "for a ": 1685,
      "alls ": 1686,
      "Dear ": 1687,
      "val": 1688,
      "appreciate your ": 1689,
      "tra": 1690,
      "leist": 1691,
      "umen": 1692,
      "eb": 1693,
      "bility ": 1694,
      "ized ": 1695,
      "en könn": 1696,
      "ord": 1697,
      "e's ": 1698,
      "convenience ": 1699,
      "ßna": 1700,
      ". It ": 1701,
      "dar": 1702,
      "why ": 1703,
      "edit": 1704,
      "orrec": 1705,
      "in a ": 1706,
      "thr": 1707,
      "chec": 1708,
      "digital": 1709,
      "sich": 1710,
      "grow": 1711,
      "meld": 1712,
      "lefon": 1713,
      "s.  ": 1714,
      "will be ": 1715,
      "comment ": 1716,
      "questions": 1717,
      "analys": 1718,
      "ze": 1719,
      "dem ": 1720,
      "ound ": 1721,
      "gn": 1722,
      "Com": 1723,
      "ple ": 1724,
      "reaching out ": 1725,
      "hin": 1726,
      "füg": 1727,
      "understand the ": 1728,
      "ing, ": 1729,
      "tor": 1730,
      "gr": 1731,
      "SE": 1732,
      "ize ": 1733,
      "compati": 1734,
      "accep": 1735,
      "liche ": 1736,
      "offer ": 1737,
      "as a ": 1738,
      "heit ": 1739,
      "those ": 1740,
      "improv": 1741,
      "clear": 1742,
      "edit ": 1743,
      "actu": 1744,
      "fes": 1745,
      "promp": 1746,
      "reason": 1747,
      "ical ": 1748,
      "en Sie uns ": 1749,
      "ong ": 1750,
      "cas": 1751,
      "Windows ": 1752,
      "I have ": 1753,
      "consid": 1754,
      "s the ": 1755,
      "werden ": 1756,
      "this matter ": 1757,
      "bi": 1758,
      "ici": 1759,
      "number ": 1760,
      "Könnten Sie ": 1761,
      "oper": 1762,
      "en. Wir ": 1763,
      "pite ": 1764,
      "ag ": 1765,
      "doesn't ": 1766,
      "s of ": 1767,
      "provide a ": 1768,
      "lec": 1769,
      "Bu": 1770,
      "alt": 1771,
      "lear": 1772,
      "super": 1773,
      "less ": 1774,
      "mar": 1775,
      "steh": 1776,
      "steps ": 1777,
      "syn": 1778,
      "repu": 1779,
      "partic": 1780,
      "sach": 1781,
      "link": 1782,
      "Stack ": 1783,
      "possible": 1784,
      "understand ": 1785,
      "schedule a call at ": 1786,
      "is not ": 1787,
      "asking ": 1788,
      "own ": 1789,
      "forder": 1790,
      "main": 1791,
      "ini": 1792,
      "software": 1793,
      "Integration ": 1794,
      "multi": 1795,
      "äch": 1796,
      "Zug": 1797,
      "ning ": 1798,
      "ruc": 1799,
      "best ": 1800,
      "recommenda": 1801,
      "share ": 1802,
      "error messages ": 1803,
      "way ": 1804,
      "Name]": 1805,
      "over ": 1806,
      "lier": 1807,
      "flag": 1808,
      "could you please provide ": 1809,
      "identif": 1810,
      "knowled": 1811,
      "ality ": 1812,
      "ges ": 1813,
      "keit": 1814,
      "you have ": 1815,
      "glich ": 1816,
      "t's ": 1817,
      ". Ich ": 1818,
      "a convenient ": 1819,
      "En": 1820,
      "can be ": 1821,
      "problems ": 1822,
      "details on the ": 1823,
      "Market": 1824,
      "vari": 1825,
      "indly ": 1826,
      "server": 1827,
      "soon ": 1828,
      "sear": 1829,
      "many ": 1830,
      "resul": 1831,
      "wie ": 1832,
      "wen": 1833,
      "writ": 1834,
      "through ": 1835,
      "look forward to ": 1836,
      "od": 1837,
      "relevant ": 1838,
      "en? ": 1839,
      "mon": 1840,
      "Op": 1841,
      "10": 1842,
      "ide": 1843,
      "ext ": 1844,
      "happy to ": 1845,
      "benö": 1846,
      "campaign": 1847,
      "tell": 1848,
      "you can ": 1849,
      "pres": 1850,
      "ts to ": 1851,
      "performance ": 1852,
      "is the ": 1853,
      "old ": 1854,
      "s, but ": 1855,
      "ability ": 1856,
      "able": 1857,
      "ome ": 1858,
      ", which ": 1859,
      "<br": 1860,
      "doc": 1861,
      "<br>": 1862,
      "SU": 1863,
      "erne ": 1864,
      "mig": 1865,
      "expec": 1866,
      ".com/": 1867,
      "Be": 1868,
      ", the ": 1869,
      "Vor": 1870,
      "had ": 1871,
      "Super User ": 1872,
      "next ": 1873,
      "follow": 1874,
      "typ": 1875,
      "teh": 1876,
      "may be ": 1877,
      "ool": 1878,
      "ably ": 1879,
      "ieve ": 1880,
      "ör": 1881,
      "acros": 1882,
      "für Ihre ": 1883,
      "take ": 1884,
      ". We are ": 1885,
      "Unterstützung ": 1886,
      "too ": 1887,
      "[Name]": 1888,
      "acc_num>": 1889,
      "<acc_num>": 1890,
      "I've ": 1891,
      "ted in ": 1892,
      "fa": 1893,
      ", die ": 1894,
      "hand": 1895,
      "someone ": 1896,
      "Up": 1897,
      "Is ": 1898,
      "besteh": 1899,
      "process": 1900,
      "unserer ": 1901,
      "after ": 1902,
      "unk": 1903,
      "dri": 1904,
      ".   ": 1905,
      "rip": 1906,
      "a b": 1907,
      "s in ": 1908,
      "Daten ": 1909,
      "Fehler": 1910,
      "them": 1911,
      "Er": 1912,
      ", or ": 1913,
      "you provide ": 1914,
      "für die ": 1915,
      "in resol": 1916,
      "Di": 1917,
      "unter ": 1918,
      "flow": 1919,
      "sign": 1920,
      "much ": 1921,
      "regarding ": 1922,
      "different ": 1923,
      "s-": 1924,
      "Plat": 1925,
      "jek": 1926,
      "1 ": 1927,
      "ture ": 1928,
      "at the ": 1929,
      "über": 1930,
      "affected ": 1931,
      "itä": 1932,
      "ence": 1933,
      "ved": 1934,
      "ign ": 1935,
      "dup": 1936,
      "a suitable ": 1937,
      "Projek": 1938,
      "asked ": 1939,
      "Zeit": 1940,
      "Zugri": 1941,
      "ors ": 1942,
      "remo": 1943,
      "There ": 1944,
      "befor": 1945,
      ". Wh": 1946,
      "troubleshooting ": 1947,
      "vent ": 1948,
      "zur Ver": 1949,
      "to discuss the ": 1950,
      "two ": 1951,
      "guidance on ": 1952,
      "protec": 1953,
      "en. Ich ": 1954,
      "other": 1955,
      ". We will ": 1956,
      "a convenient time ": 1957,
      "want to ": 1958,
      "Server": 1959,
      "billing ": 1960,
      "gele": 1961,
      "ßnahmen ": 1962,
      "alth": 1963,
      "updates ": 1964,
      "disrup": 1965,
      "Ques": 1966,
      "at <tel_num> ": 1967,
      "decisi": 1968,
      "Ma": 1969,
      "author": 1970,
      "e of ": 1971,
      "feature": 1972,
      "spez": 1973,
      "taken ": 1974,
      "ular ": 1975,
      "ann": 1976,
      "möchte ": 1977,
      "care ": 1978,
      "concern": 1979,
      "en Dank ": 1980,
      "I don't ": 1981,
      "2 ": 1982,
      "incid": 1983,
      "fehl": 1984,
      "pass": 1985,
      "comment": 1986,
      "einbar": 1987,
      "multiple ": 1988,
      "ous": 1989,
      "zu er": 1990,
      "Mark": 1991,
      "eff": 1992,
      "bess": 1993,
      "prevent ": 1994,
      "On": 1995,
      "--": 1996,
      "across ": 1997,
      "Investi": 1998,
      "s://": 1999,
      "measure": 2000,
      "sow": 2001,
      "Additionally, ": 2002,
      "soon as ": 2003,
      "protocol": 2004,
      "Sehr geehrter ": 2005,
      "ly, ": 2006,
      "engage": 2007,
      "schl": 2008,
      "s.\n": 2009,
      "information on ": 2010,
      "off-": 2011,
      "wir": 2012,
      "en, um die ": 2013,
      "sist": 2014,
      "impac": 2015,
      "beheb": 2016,
      "https://": 2017,
      "as soon as ": 2018,
      "ial": 2019,
      "espite ": 2020,
      "update": 2021,
      "IT-": 2022,
      "freue ": 2023,
      "actic": 2024,
      "cach": 2025,
      "strategies ": 2026,
      "first ": 2027,
      "pas": 2028,
      "inform": 2029,
      "Your ": 2030,
      "t to ": 2031,
      "zu den ": 2032,
      "sowie ": 2033,
      "reason ": 2034,
      "solutions ": 2035,
      "audi": 2036,
      "few ": 2037,
      "you're ": 2038,
      "etz": 2039,
      "tools ": 2040,
      "reaching out to ": 2041,
      "usef": 2042,
      "boo": 2043,
      ".\\n\\n": 2044,
      "invol": 2045,
      "But ": 2046,
      "without ": 2047,
      "'ve ": 2048,
      "cr": 2049,
      "conf": 2050,
      "I think ": 2051,
      "meth": 2052,
      "content ": 2053,
      "situ": 2054,
      "bereitstell": 2055,
      "an answer ": 2056,
      "compatibility ": 2057,
      "comments ": 2058,
      "Platt": 2059,
      "duk": 2060,
      "Marketing": 2061,
      "did ": 2062,
      "contro": 2063,
      "AP": 2064,
      "SaaS": 2065,
      "benötig": 2066,
      "detaillier": 2067,
      "atten": 2068,
      "Viel": 2069,
      "rew": 2070,
      "oder ": 2071,
      ". Please provide ": 2072,
      "update ": 2073,
      "with a ": 2074,
      "details about the ": 2075,
      "documen": 2076,
      "sus": 2077,
      "can't ": 2078,
      "Ein": 2079,
      "dic": 2080,
      "ung und ": 2081,
      "duplic": 2082,
      "ying ": 2083,
      ". Please let us know ": 2084,
      "go ": 2085,
      "resourc": 2086,
      "setting": 2087,
      "able to ": 2088,
      "vor": 2089,
      "sensitive ": 2090,
      "superuser": 2091,
      "Anru": 2092,
      "cause ": 2093,
      "computer ": 2094,
      "war": 2095,
      "incre": 2096,
      "case ": 2097,
      "rank": 2098,
      "prob": 2099,
      "hospital ": 2100,
      "Server ": 2101,
      "various ": 2102,
      "correc": 2103,
      "services ": 2104,
      "Ges": 2105,
      "tex": 2106,
      "now ": 2107,
      "ency ": 2108,
      "besser ": 2109,
      "appropri": 2110,
      "spezif": 2111,
      "-M": 2112,
      "succ": 2113,
      "patient ": 2114,
      "währ": 2115,
      "ima": 2116,
      "run": 2117,
      "ven ": 2118,
      "simp": 2119,
      "sive ": 2120,
      "Analy": 2121,
      "another ": 2122,
      "low ": 2123,
      "owever": 2124,
      "received ": 2125,
      "stu": 2126,
      "ung von ": 2127,
      "flag ": 2128,
      "ty ": 2129,
      "spezifisch": 2130,
      "Goo": 2131,
      "brand grow": 2132,
      "looking ": 2133,
      "ity, ": 2134,
      "hardware ": 2135,
      "Kundenservic": 2136,
      "integration": 2137,
      "ner": 2138,
      "sever": 2139,
      "func": 2140,
      "Ur": 2141,
      "from the ": 2142,
      "Faul": 2143,
      "inqui": 2144,
      "ed the ": 2145,
      "icros": 2146,
      "s. Please ": 2147,
      "Con": 2148,
      "range ": 2149,
      "icrosof": 2150,
      "votes ": 2151,
      "digital marketing ": 2152,
      ". H": 2153,
      "reputation ": 2154,
      "isn't ": 2155,
      "matter": 2156,
      "ks ": 2157,
      "example": 2158,
      "eit ": 2159,
      "down ": 2160,
      "related to ": 2161,
      "tes": 2162,
      "Krank": 2163,
      "this question ": 2164,
      "vis": 2165,
      "mean": 2166,
      "gerne ": 2167,
      ", please ": 2168,
      "ts, ": 2169,
      "leit": 2170,
      "breach ": 2171,
      "here": 2172,
      "Sh": 2173,
      "wan": 2174,
      "include ": 2175,
      "red ": 2176,
      "ain ": 2177,
      "a suitable time ": 2178,
      "tation": 2179,
      "Projekt": 2180,
      "bus": 2181,
      "ated": 2182,
      "L ": 2183,
      "ff ": 2184,
      "ger": 2185,
      "durch": 2186,
      "dated ": 2187,
      "if you could ": 2188,
      "ot ": 2189,
      "necessary ": 2190,
      "beit": 2191,
      "helpful ": 2192,
      "tre": 2193,
      "day": 2194,
      "cap": 2195,
      "probably ": 2196,
      "interested in ": 2197,
      "link ": 2198,
      "Super": 2199,
      "feel ": 2200,
      ",\\n\\n": 2201,
      "schn": 2202,
      "Exchange ": 2203,
      "emp": 2204,
      "sor": 2205,
      "moderator ": 2206,
      "ree ": 2207,
      "s. The ": 2208,
      "Strategi": 2209,
      "believe ": 2210,
      "ation and ": 2211,
      "zur": 2212,
      "used ": 2213,
      "integrating ": 2214,
      "back": 2215,
      "And ": 2216,
      "Datenanaly": 2217,
      "crash": 2218,
      "platform ": 2219,
      "currently ": 2220,
      "mil": 2221,
      "ip": 2222,
      "lie": 2223,
      "5 ": 2224,
      "Produk": 2225,
      "wür": 2226,
      "n Sie ": 2227,
      "sere ": 2228,
      "person": 2229,
      "in resolving ": 2230,
      "agn": 2231,
      "experiencing ": 2232,
      "stand": 2233,
      "load": 2234,
      "times ": 2235,
      "health": 2236,
      "Tool": 2237,
      "ically ": 2238,
      "outdated ": 2239,
      "analysis ": 2240,
      "bit": 2241,
      "practic": 2242,
      "digitalen ": 2243,
      "gelegen": 2244,
      "ve": 2245,
      ". Thank you for your ": 2246,
      "as soon as possible": 2247,
      "dev": 2248,
      "ritte ": 2249,
      "Angelegen": 2250,
      "tru": 2251,
      "question, ": 2252,
      "actually ": 2253,
      "since ": 2254,
      "authorized ": 2255,
      "there are ": 2256,
      "off ": 2257,
      "apolog": 2258,
      "though": 2259,
      "ite": 2260,
      ", dass ": 2261,
      "proces": 2262,
      "än": 2263,
      "comple": 2264,
      "Au": 2265,
      "Do": 2266,
      "aus": 2267,
      "ts": 2268,
      "ing and ": 2269,
      "biet": 2270,
      "abiliti": 2271,
      "tain": 2272,
      "Why ": 2273,
      "erk": 2274,
      "help us ": 2275,
      "right ": 2276,
      "continu": 2277,
      "Goog": 2278,
      "Optim": 2279,
      "ization ": 2280,
      "hen": 2281,
      "it was ": 2282,
      "enough ": 2283,
      "ep ": 2284,
      "en uns ": 2285,
      "sind ": 2286,
      "while ": 2287,
      "neu": 2288,
      "management": 2289,
      ", could you please provide ": 2290,
      "lös": 2291,
      "rep ": 2292,
      "acces": 2293,
      "betwe": 2294,
      ". Bitte ": 2295,
      "taktier": 2296,
      "ouldn't ": 2297,
      "fession": 2298,
      "search ": 2299,
      "bal": 2300,
      "greatly appreciate ": 2301,
      "load ": 2302,
      "ware": 2303,
      "vir": 2304,
      "ick ": 2305,
      "cer": 2306,
      "fahr": 2307,
      "ancial ": 2308,
      "find": 2309,
      "ellen ": 2310,
      "healthcare ": 2311,
      "unauthorized ": 2312,
      "could be ": 2313,
      "t und ": 2314,
      "add ": 2315,
      ", um die ": 2316,
      "schätz": 2317,
      "read ": 2318,
      "opini": 2319,
      "working ": 2320,
      ". Dear ": 2321,
      "mem": 2322,
      "tivity ": 2323,
      "faul": 2324,
      "mir ": 2325,
      "well ": 2326,
      ", so ": 2327,
      "s. To ": 2328,
      "igin": 2329,
      "admin": 2330,
      "Schritte ": 2331,
      "wach": 2332,
      "version": 2333,
      "SE ": 2334,
      "fail": 2335,
      "thank you for ": 2336,
      "top ": 2337,
      "geben Sie ": 2338,
      "gan": 2339,
      "Anleit": 2340,
      "wurde ": 2341,
      "progra": 2342,
      "autom": 2343,
      "ryp": 2344,
      "detaillierte ": 2345,
      "y the ": 2346,
      "urg": 2347,
      "wron": 2348,
      "über die ": 2349,
      "before ": 2350,
      "several ": 2351,
      "try": 2352,
      "e, and ": 2353,
      "! ": 2354,
      "Kindly ": 2355,
      "per ": 2356,
      "zü": 2357,
      "signific": 2358,
      "I can ": 2359,
      "of a ": 2360,
      "isting ": 2361,
      "Sicher": 2362,
      "based ": 2363,
      "between ": 2364,
      "sites ": 2365,
      "at your ": 2366,
      "one": 2367,
      "ure ": 2368,
      "ost": 2369,
      "let me ": 2370,
      "Team": 2371,
      "way to ": 2372,
      "import": 2373,
      "financial ": 2374,
      "Ne": 2375,
      "Ursach": 2376,
      "lit": 2377,
      "strateg": 2378,
      "Sehr geehrte ": 2379,
      "Al": 2380,
      "SF": 2381,
      "s.": 2382,
      "SO": 2383,
      "service ": 2384,
      "s to be ": 2385,
      "enha": 2386,
      "freue mich ": 2387,
      "investment optimiz": 2388,
      "pay": 2389,
      "next step": 2390,
      "Krankenha": 2391,
      "apologize ": 2392,
      "Anruf ": 2393,
      "origin": 2394,
      "version ": 2395,
      "Probleme ": 2396,
      "tags ": 2397,
      "vereinbar": 2398,
      "simil": 2399,
      "Optimier": 2400,
      "tle ": 2401,
      "ts and ": 2402,
      "haben ": 2403,
      "encryp": 2404,
      "My ": 2405,
      "ular": 2406,
      "tige ": 2407,
      "Microsof": 2408,
      "201": 2409,
      "necessar": 2410,
      "sein": 2411,
      "understand": 2412,
      ". To better ": 2413,
      "sich ": 2414,
      "devel": 2415,
      "eas": 2416,
      "sind": 2417,
      "tain ": 2418,
      "s a ": 2419,
      "Investitions": 2420,
      "tion to ": 2421,
      "to discuss this ": 2422,
      "he ": 2423,
      "durch ": 2424,
      "wäre ": 2425,
      "defin": 2426,
      "? We ": 2427,
      "das Problem zu ": 2428,
      "appropriate ": 2429,
      "ves ": 2430,
      "System": 2431,
      "that are ": 2432,
      "en Dank für Ihre ": 2433,
      "en und die ": 2434,
      "address ": 2435,
      "FA": 2436,
      "weiterh": 2437,
      "untersuch": 2438,
      "Rec": 2439,
      "outag": 2440,
      "zusätz": 2441,
      "züglich ": 2442,
      "kol": 2443,
      "have a ": 2444,
      "Angelegenheit ": 2445,
      "direc": 2446,
      "ong": 2447,
      "visi": 2448,
      "ungen und ": 2449,
      "well": 2450,
      "schedule a call ": 2451,
      "ating the ": 2452,
      "improve": 2453,
      "method": 2454,
      "Integra": 2455,
      "on a ": 2456,
      "profession": 2457,
      "allow ": 2458,
      "allow": 2459,
      "wurden ": 2460,
      "discre": 2461,
      "Le": 2462,
      "ric": 2463,
      "d to ": 2464,
      "Kundenservice, ": 2465,
      "Zugriff": 2466,
      "consider": 2467,
      "pol": 2468,
      "put ": 2469,
      "during ": 2470,
      "security protocol": 2471,
      "Met": 2472,
      "busin": 2473,
      "freu": 2474,
      "Marken": 2475,
      "The": 2476,
      "hil": 2477,
      "y-": 2478,
      "flow ": 2479,
      "4 ": 2480,
      "tro": 2481,
      "en. Um ": 2482,
      "again": 2483,
      "Super User": 2484,
      "Dienst": 2485,
      "E-M": 2486,
      "aring ": 2487,
      "resolu": 2488,
      "E-Mail": 2489,
      "es. We ": 2490,
      ". Additionally, ": 2491,
      "3 ": 2492,
      "ul ": 2493,
      "enen ": 2494,
      "options ": 2495,
      "information on the ": 2496,
      "' ": 2497,
      "Over": 2498,
      "both ": 2499,
      "ave ": 2500,
      "bezüglich ": 2501,
      "prompt ": 2502,
      "Google ": 2503,
      "panc": 2504,
      "resolve the ": 2505,
      "future ": 2506,
      "deleted ": 2507,
      "documentation ": 2508,
      "ende ": 2509,
      "ktualisier": 2510,
      "kontaktier": 2511,
      "posted ": 2512,
      "So ": 2513,
      "assist you": 2514,
      "let me know ": 2515,
      "benef": 2516,
      "medizinischer ": 2517,
      "Customer Support, I am ": 2518,
      "made ": 2519,
      "ten, ": 2520,
      "FAQ": 2521,
      "jus": 2522,
      "dies": 2523,
      "decision": 2524,
      "discrepanc": 2525,
      "telefon": 2526,
      "scrip": 2527,
      "t hab": 2528,
      "exact ": 2529,
      "Könnten Sie bitte ": 2530,
      "Krankenhaus": 2531,
      "sm": 2532,
      "pref": 2533,
      "Software ": 2534,
      "[Name], ": 2535,
      "technical ": 2536,
      "System ": 2537,
      "campaign ": 2538,
      "discussion": 2539,
      "etc": 2540,
      "ers ": 2541,
      ". I am ": 2542,
      "systems ": 2543,
      "blo": 2544,
      "Microsoft ": 2545,
      "a good ": 2546,
      "there is ": 2547,
      "recommendations ": 2548,
      "fä": 2549,
      "downvo": 2550,
      "year": 2551,
      "z ": 2552,
      "quality ": 2553,
      "plan": 2554,
      "cri": 2555,
      "e and ": 2556,
      "point ": 2557,
      ". Could you please provide ": 2558,
      "delay": 2559,
      "function": 2560,
      "werd": 2561,
      "trying to ": 2562,
      "zur Verfüg": 2563,
      "Ber": 2564,
      "bind": 2565,
      "useful ": 2566,
      "üs": 2567,
      "keep ": 2568,
      "that's ": 2569,
      "ori": 2570,
      "chron": 2571,
      "sten ": 2572,
      "customer ": 2573,
      "at's ": 2574,
      "compre": 2575,
      "zusätzliche ": 2576,
      "SQ": 2577,
      "cour": 2578,
      "em ": 2579,
      "SaaS-": 2580,
      "weitere Details ": 2581,
      "a lo": 2582,
      "I'd ": 2583,
      "knowledge ": 2584,
      "mark": 2585,
      "I would like to ": 2586,
      "ermin": 2587,
      "Falls ": 2588,
      "flic": 2589,
      "list ": 2590,
      "whe": 2591,
      "genau": 2592,
      "ways ": 2593,
      "boun": 2594,
      "stack": 2595,
      "changes ": 2596,
      "window": 2597,
      "mehr Details ": 2598,
      "optimier": 2599,
      "product ": 2600,
      "00": 2601,
      "es, and ": 2602,
      "say ": 2603,
      "require ": 2604,
      "every ": 2605,
      "they are ": 2606,
      "ry ": 2607,
      "App": 2608,
      "ak": 2609,
      "conflic": 2610,
      "promo": 2611,
      ". Despite ": 2612,
      "report ": 2613,
      "ving the ": 2614,
      "geführ": 2615,
      "open": 2616,
      "clear ": 2617,
      "pur": 2618,
      "Unterstützung": 2619,
      "comprehen": 2620,
      ", it ": 2621,
      "versuch": 2622,
      "closed": 2623,
      "contact us ": 2624,
      "effectiv": 2625,
      "ging ": 2626,
      "remain": 2627,
      "updating ": 2628,
      ". You ": 2629,
      "assistance": 2630,
      "inform ": 2631,
      "d of ": 2632,
      "main ": 2633,
      "might be due to ": 2634,
      "seem": 2635,
      "scal": 2636,
      "Telefon": 2637,
      "install": 2638,
      "8 ": 2639,
      "seems ": 2640,
      "Fi": 2641,
      "adv": 2642,
      "encountered ": 2643,
      "les ": 2644,
      "dit": 2645,
      "ever ": 2646,
      "sier": 2647,
      "there's ": 2648,
      "Ch": 2649,
      "mak": 2650,
      "soon": 2651,
      "geeig": 2652,
      "whether ": 2653,
      "M ": 2654,
      "at <tel_num>": 2655,
      "dates ": 2656,
      "Cl": 2657,
      "ün": 2658,
      "application": 2659,
      "Can ": 2660,
      "this issue ": 2661,
      "tif": 2662,
      "arrange ": 2663,
      "existing ": 2664,
      "cial ": 2665,
      "accur": 2666,
      "custom": 2667,
      "es of ": 2668,
      "configuration ": 2669,
      "and provide a ": 2670,
      "do not ": 2671,
      "User": 2672,
      "least ": 2673,
      "Stack Exchange ": 2674,
      "OS ": 2675,
      "werk": 2676,
      "Aktualisier": 2677,
      "zuführ": 2678,
      "SU ": 2679,
      "que": 2680,
      "ich, ": 2681,
      "mun": 2682,
      "this is ": 2683,
      "er to ": 2684,
      "your current ": 2685,
      "things ": 2686,
      "Servic": 2687,
      "further.\n": 2688,
      "similar ": 2689,
      ". E": 2690,
      "media ": 2691,
      "ze ": 2692,
      "any error messages ": 2693,
      "ied": 2694,
      "ps ": 2695,
      "open ": 2696,
      "your question ": 2697,
      "affecting ": 2698,
      "letz": 2699,
      "come ": 2700,
      "exc": 2701,
      "ish ": 2702,
      "e.": 2703,
      "wend": 2704,
      "Ad": 2705,
      "lan": 2706,
      "ond": 2707,
      "weise ": 2708,
      "to re": 2709,
      "assist you ": 2710,
      "happen": 2711,
      "superuser.com/": 2712,
      "develop": 2713,
      "they": 2714,
      "des Proble": 2715,
      "sicher": 2716,
      "OP ": 2717,
      "ten wir ": 2718,
      "would be happy to ": 2719,
      "fras": 2720,
      "mi": 2721,
      "still persist": 2722,
      "comprehensive ": 2723,
      "frastru": 2724,
      "page ": 2725,
      "elle ": 2726,
      "making ": 2727,
      "consist": 2728,
      "questions, ": 2729,
      "error": 2730,
      "Team ": 2731,
      "Maßnahmen ": 2732,
      "Rück": 2733,
      "viel": 2734,
      "root ": 2735,
      "Kamp": 2736,
      ". In ": 2737,
      "ment, ": 2738,
      "following ": 2739,
      "enden ": 2740,
      "optimize ": 2741,
      "give ": 2742,
      "überprüf": 2743,
      ".  The ": 2744,
      "email regarding the ": 2745,
      "incident ": 2746,
      "that is ": 2747,
      "rich": 2748,
      "cal": 2749,
      "tical ": 2750,
      "zurück": 2751,
      "erforder": 2752,
      "unsere ": 2753,
      "ub": 2754,
      "Ihr ": 2755,
      "roff": 2756,
      "ut": 2757,
      "social ": 2758,
      "earli": 2759,
      "success": 2760,
      "got ": 2761,
      "medical data": 2762,
      "oh": 2763,
      ", as ": 2764,
      "pat": 2765,
      "breach": 2766,
      "Wir ": 2767,
      "convenience": 2768,
      "learning ": 2769,
      "suspec": 2770,
      "sing ": 2771,
      "ously ": 2772,
      "ungen zu ": 2773,
      "erhalt": 2774,
      "we are ": 2775,
      "D ": 2776,
      "keit ": 2777,
      "didn't ": 2778,
      "ligh": 2779,
      "marketing ag": 2780,
      "coun": 2781,
      "diffic": 2782,
      "apologize for the ": 2783,
      "change": 2784,
      "Software-": 2785,
      "sing": 2786,
      "online ": 2787,
      "diese ": 2788,
      "minim": 2789,
      "likely ": 2790,
      "aktualisier": 2791,
      "ak ": 2792,
      "it would be ": 2793,
      "it if you could ": 2794,
      "sigh": 2795,
      "mod": 2796,
      "issue. ": 2797,
      "determin": 2798,
      "details on ": 2799,
      "far": 2800,
      "wel": 2801,
      "owever, ": 2802,
      "ily ": 2803,
      "suggest ": 2804,
      "must ": 2805,
      "rather ": 2806,
      "Informationen zu ": 2807,
      "issue, ": 2808,
      "ensure the ": 2809,
      "ory ": 2810,
      ". For ": 2811,
      "though ": 2812,
      "wird ": 2813,
      "migra": 2814,
      "punk": 2815,
      "Schrit": 2816,
      "'ll ": 2817,
      "fil": 2818,
      "Zugriffs": 2819,
      "ate the ": 2820,
      "recent software ": 2821,
      "neu ": 2822,
      "inste": 2823,
      "ice ": 2824,
      "any additional ": 2825,
      "würde ": 2826,
      "Inter": 2827,
      "questions/": 2828,
      "ony": 2829,
      "usi": 2830,
      "community": 2831,
      "isch ": 2832,
      "often ": 2833,
      "? Additionally, ": 2834,
      "Fehlermeld": 2835,
      "ture": 2836,
      "every": 2837,
      "team": 2838,
      "s. Th": 2839,
      "control": 2840,
      "s. This ": 2841,
      "...": 2842,
      "keiten ": 2843,
      "bad": 2844,
      "interest ": 2845,
      "beein": 2846,
      "che ": 2847,
      "... ": 2848,
      "posts ": 2849,
      "Projektmanagement": 2850,
      "file ": 2851,
      "ound": 2852,
      "falls ": 2853,
      "long ": 2854,
      "word": 2855,
      "restarting the ": 2856,
      "zum ": 2857,
      "viron": 2858,
      "<name> ": 2859,
      "ik": 2860,
      "ern ": 2861,
      "always ": 2862,
      "investigate the ": 2863,
      "ächtig": 2864,
      "self ": 2865,
      "hearing ": 2866,
      "anything ": 2867,
      "https://superuser.com/": 2868,
      "sche": 2869,
      "immedi": 2870,
      "reich": 2871,
      "answered ": 2872,
      "tion, ": 2873,
      "IT ": 2874,
      "original ": 2875,
      "Zeit ": 2876,
      "firew": 2877,
      "moderator": 2878,
      "kin": 2879,
      "getting ": 2880,
      "Pati": 2881,
      "the same ": 2882,
      "does not ": 2883,
      "organ": 2884,
      "Ziel": 2885,
      "telefonisch ": 2886,
      "), ": 2887,
      "environ": 2888,
      "board": 2889,
      "engagement ": 2890,
      "währleist": 2891,
      "tely ": 2892,
      "hospital": 2893,
      "tern": 2894,
      "tried ": 2895,
      "As ": 2896,
      "seem ": 2897,
      "ich möchte ": 2898,
      "ins": 2899,
      ".  I ": 2900,
      "with your ": 2901,
      "Bed": 2902,
      "software and ": 2903,
      "bro": 2904,
      "bly ": 2905,
      "this matter": 2906,
      "lichen ": 2907,
      "es for ": 2908,
      "bod": 2909,
      "tab": 2910,
      "found ": 2911,
      "trächtig": 2912,
      "consider ": 2913,
      "Netz": 2914,
      "protokol": 2915,
      "tun": 2916,
      "leas": 2917,
      "nis": 2918,
      "instruc": 2919,
      "recommend ": 2920,
      "payment ": 2921,
      "7 ": 2922,
      "izier": 2923,
      "going to ": 2924,
      "wenn Sie ": 2925,
      "now": 2926,
      ". If you ": 2927,
      "mer ": 2928,
      "Über": 2929,
      "lä": 2930,
      "arbeit": 2931,
      "betroff": 2932,
      "metric": 2933,
      "rei": 2934,
      "Zeitpunk": 2935,
      "hop": 2936,
      "stat": 2937,
      "us to ": 2938,
      "impacting ": 2939,
      "ulner": 2940,
      "done ": 2941,
      "Bes": 2942,
      "auf, ": 2943,
      "wis": 2944,
      "number of ": 2945,
      "It's ": 2946,
      "so we can ": 2947,
      "abase ": 2948,
      "clar": 2949,
      "we have ": 2950,
      "restarting ": 2951,
      "gl": 2952,
      "ency": 2953,
      "weiter": 2954,
      "for your ": 2955,
      "that you ": 2956,
      "optimizing ": 2957,
      "needed": 2958,
      "check": 2959,
      "effici": 2960,
      "anced ": 2961,
      "ted the ": 2962,
      "twen": 2963,
      "off-topic ": 2964,
      "Fault ": 2965,
      "wik": 2966,
      "not be ": 2967,
      "occur": 2968,
      "within ": 2969,
      "s. Could ": 2970,
      "Dis": 2971,
      "Commun": 2972,
      "Web": 2973,
      "mal": 2974,
      "time and ": 2975,
      "seeking ": 2976,
      "beeinträchtig": 2977,
      "lar": 2978,
      "dro": 2979,
      "discussion ": 2980,
      ". Die ": 2981,
      "char": 2982,
      "insigh": 2983,
      "either ": 2984,
      "einen Anruf ": 2985,
      "B ": 2986,
      "Our team ": 2987,
      "Should ": 2988,
      "notic": 2989,
      "simply ": 2990,
      "aktuellen ": 2991,
      "Verbesser": 2992,
      "min ": 2993,
      ". M": 2994,
      "cli": 2995,
      "uns, ": 2996,
      "schedule a call at your ": 2997,
      "C ": 2998,
      "ließ": 2999,
      "As": 3000,
      "show": 3001,
      "operation": 3002,
      "expected ": 3003,
      "Datenanalyse": 3004,
      "via ": 3005,
      "gori": 3006,
      "gorith": 3007,
      "mögliche ": 3008,
      "Questions ": 3009,
      "kom": 3010,
      "appear": 3011,
      "spezifischen ": 3012,
      "needed to ": 3013,
      "Smar": 3014,
      "was": 3015,
      ". O": 3016,
      "e, but ": 3017,
      "network": 3018,
      "applications ": 3019,
      "at least ": 3020,
      "erä": 3021,
      "üssel": 3022,
      "securing ": 3023,
      "erweise ": 3024,
      "rep": 3025,
      "to a ": 3026,
      "dienst": 3027,
      "ored ": 3028,
      "last ": 3029,
      "agree ": 3030,
      "text ": 3031,
      "Stack": 3032,
      "bald ": 3033,
      "earliest ": 3034,
      "questions are ": 3035,
      "doing ": 3036,
      "Tools ": 3037,
      "untu": 3038,
      "tail": 3039,
      "mehr": 3040,
      "hmen": 3041,
      "pow": 3042,
      "is to ": 3043,
      "gestell": 3044,
      "s. I ": 3045,
      "terna": 3046,
      "ularly ": 3047,
      "a few ": 3048,
      "gewährleist": 3049,
      "Anfr": 3050,
      "uti": 3051,
      "view ": 3052,
      "? This ": 3053,
      "show ": 3054,
      "do I ": 3055,
      "caused by ": 3056,
      ". I would ": 3057,
      "general ": 3058,
      "hinder": 3059,
      "Linu": 3060,
      "view": 3061,
      "to-": 3062,
      "enten": 3063,
      "(and ": 3064,
      "mor": 3065,
      "tly": 3066,
      "umf": 3067,
      "verif": 3068,
      "Plattform ": 3069,
      "y and ": 3070,
      "schließ": 3071,
      "will help us ": 3072,
      "access control": 3073,
      "his ": 3074,
      "fall ": 3075,
      "damit ": 3076,
      "issues with ": 3077,
      "requirements ": 3078,
      "vulner": 3079,
      "Gerä": 3080,
      "Sie, ": 3081,
      "SQL ": 3082,
      "into the ": 3083,
      ")  ": 3084,
      "resh": 3085,
      "erhal": 3086,
      "program": 3087,
      "e.  ": 3088,
      "ource ": 3089,
      "reboo": 3090,
      "schlüssel": 3091,
      "little ": 3092,
      "social media ": 3093,
      "ually ": 3094,
      "ange": 3095,
      "ung, ": 3096,
      "en die ": 3097,
      "website ": 3098,
      "advic": 3099,
      "adjus": 3100,
      "ribu": 3101,
      "zu verbesser": 3102,
      "an answer": 3103,
      "discuss and ": 3104,
      "Ab": 3105,
      "Ursache ": 3106,
      "a-": 3107,
      "long": 3108,
      "hal": 3109,
      "target": 3110,
      "Patienten": 3111,
      "ay ": 3112,
      "computer": 3113,
      "of your ": 3114,
      "durchgeführ": 3115,
      "Aus": 3116,
      "ed and ": 3117,
      "contac": 3118,
      "t werd": 3119,
      "having ": 3120,
      "firm": 3121,
      "Rückmeld": 3122,
      "self": 3123,
      "Updates ": 3124,
      "indi": 3125,
      "Num": 3126,
      "ken ": 3127,
      "vious ": 3128,
      "look forward to hearing ": 3129,
      "purpos": 3130,
      "'d ": 3131,
      "Zus": 3132,
      "is that ": 3133,
      "all the ": 3134,
      "review the ": 3135,
      "pend": 3136,
      "können wir ": 3137,
      "explore ": 3138,
      "erkze": 3139,
      "> ": 3140,
      "notwen": 3141,
      "eine Lösung ": 3142,
      "darauf, ": 3143,
      "hat ": 3144,
      "net ": 3145,
      "conduc": 3146,
      "propos": 3147,
      "seen ": 3148,
      "products ": 3149,
      "scheid": 3150,
      "delete ": 3151,
      "näch": 3152,
      "s, which ": 3153,
      "ond ": 3154,
      "meta ": 3155,
      "jed": 3156,
      "valu": 3157,
      "-b": 3158,
      "sur": 3159,
      "never ": 3160,
      "synchron": 3161,
      "makes ": 3162,
      "ank you": 3163,
      "best": 3164,
      "compli": 3165,
      "confidenti": 3166,
      "elin": 3167,
      "schied": 3168,
      "refer": 3169,
      "einschließ": 3170,
      "contribu": 3171,
      "of our ": 3172,
      "E-Mail ": 3173,
      "Systeme ": 3174,
      ". We have ": 3175,
      "person ": 3176,
      "Nutz": 3177,
      "ting a ": 3178,
      "d-": 3179,
      "support, ": 3180,
      "ted, ": 3181,
      "einschließlich ": 3182,
      "unterstütz": 3183,
      "des Problems ": 3184,
      "edits ": 3185,
      "tool ": 3186,
      "medizinische ": 3187,
      "informier": 3188,
      "ring": 3189,
      "Pr": 3190,
      "of these ": 3191,
      "wrong ": 3192,
      "Netzwerk": 3193,
      "bad ": 3194,
      ". Al": 3195,
      "setz": 3196,
      "I was ": 3197,
      "step ": 3198,
      "Ihrer ": 3199,
      "ruf": 3200,
      "investment optimization ": 3201,
      "en, dass ": 3202,
      "nehmen ": 3203,
      "seri": 3204,
      "<name>, thank you for ": 3205,
      "nächsten ": 3206,
      "body ": 3207,
      "Customer Support ": 3208,
      "questions that ": 3209,
      "setup ": 3210,
      "möglich ": 3211,
      "10 ": 3212,
      "quick": 3213,
      "API ": 3214,
      "offer": 3215,
      "writing to ": 3216,
      "create ": 3217,
      "facing ": 3218,
      "SaaS project management ": 3219,
      "en Dank": 3220,
      "utili": 3221,
      "question is ": 3222,
      "opp": 3223,
      "probleme ": 3224,
      "real": 3225,
      "security measure": 3226,
      "as the ": 3227,
      "voting ": 3228,
      "bereits ": 3229,
      "tal": 3230,
      "Community ": 3231,
      "ursach": 3232,
      "if the ": 3233,
      "firm ": 3234,
      "la": 3235,
      "zustell": 3236,
      "process ": 3237,
      "kann": 3238,
      "can I ": 3239,
      "Vielen Dank für Ihre ": 3240,
      "new": 3241,
      "particular ": 3242,
      "Anfrage ": 3243,
      "Leist": 3244,
      "lass": 3245,
      ". Um ": 3246,
      "for further ": 3247,
      "fix ": 3248,
      "causing ": 3249,
      "s or ": 3250,
      "issue with the ": 3251,
      "interest in ": 3252,
      "tools and ": 3253,
      "Integrations": 3254,
      "possibly ": 3255,
      "connectivity ": 3256,
      "SaaS platform": 3257,
      "hilfre": 3258,
      "geeignet": 3259,
      "digital strategies ": 3260,
      "weiterhin": 3261,
      "brow": 3262,
      "en't ": 3263,
      "sehr ": 3264,
      "unter <tel_num> ": 3265,
      "och ": 3266,
      "rech": 3267,
      "? I ": 3268,
      "brand growth": 3269,
      "ual ": 3270,
      "ent, ": 3271,
      "quite ": 3272,
      ". A ": 3273,
      "activ": 3274,
      "If you ": 3275,
      "capabiliti": 3276,
      "Zeitpunkt ": 3277,
      "tially ": 3278,
      ". L": 3279,
      ". Please let me know ": 3280,
      ". F": 3281,
      "brand growth ": 3282,
      "User ": 3283,
      "inconsist": 3284,
      "itor": 3285,
      "abo": 3286,
      "en. Es ": 3287,
      "ob ": 3288,
      "t and ": 3289,
      "ill": 3290,
      "Stack Over": 3291,
      "atic": 3292,
      "t wur": 3293,
      "red": 3294,
      "ustar": 3295,
      "look forward to your ": 3296,
      "icht ": 3297,
      "ates ": 3298,
      "s/": 3299,
      "jedoch ": 3300,
      "Werkze": 3301,
      "to call ": 3302,
      "ed a ": 3303,
      "vote": 3304,
      "date ": 3305,
      "have not ": 3306,
      "effective ": 3307,
      "resear": 3308,
      "com ": 3309,
      "tagged ": 3310,
      "ziel": 3311,
      "inconvenience ": 3312,
      "response": 3313,
      "Patientendat": 3314,
      "day ": 3315,
      "by the ": 3316,
      "duplicate ": 3317,
      "exper": 3318,
      "call": 3319,
      "passw": 3320,
      "tran": 3321,
      "(or ": 3322,
      "resources ": 3323,
      "s on ": 3324,
      "under ": 3325,
      "verursach": 3326,
      "zu versteh": 3327,
      "informed ": 3328,
      "response ": 3329,
      "accepted ": 3330,
      "increas": 3331,
      "increase ": 3332,
      "ürz": 3333,
      "to get ": 3334,
      "target ": 3335,
      "ität ": 3336,
      "scre": 3337,
      "action ": 3338,
      "Lösungen ": 3339,
      "möglicherweise ": 3340,
      "Ben": 3341,
      "Kom": 3342,
      "table ": 3343,
      "versteh": 3344,
      "workflow": 3345,
      "in this ": 3346,
      "<acc_num> ": 3347,
      "root cause ": 3348,
      "each ": 3349,
      "a lot of ": 3350,
      "zurückzuführ": 3351,
      "Per": 3352,
      "administ": 3353,
      "unauthorized access ": 3354,
      "lead": 3355,
      "maßnahmen ": 3356,
      "helfen, ": 3357,
      "products. ": 3358,
      ". But ": 3359,
      "ance, ": 3360,
      "auf Ihre ": 3361,
      "did not ": 3362,
      "Projektmanagement-": 3363,
      "es, but ": 3364,
      "When ": 3365,
      "configuration": 3366,
      "las": 3367,
      "around ": 3368,
      "ammen": 3369,
      "An ": 3370,
      "alte": 3371,
      "exp": 3372,
      "information about the ": 3373,
      "the issue and ": 3374,
      "off-topic": 3375,
      "Fac": 3376,
      "ung zu ": 3377,
      "re-": 3378,
      "may": 3379,
      "mach": 3380,
      ". We would ": 3381,
      "significant ": 3382,
      "record": 3383,
      "SF ": 3384,
      "discrepancies ": 3385,
      "besond": 3386,
      "high ": 3387,
      "updates and ": 3388,
      "besondere ": 3389,
      "adver": 3390,
      "implement ": 3391,
      "protect ": 3392,
      "strategy ": 3393,
      "play": 3394,
      "within the ": 3395,
      "T ": 3396,
      "algorith": 3397,
      "web ": 3398,
      "particularly ": 3399,
      "instructions ": 3400,
      "scop": 3401,
      "assistance in resolving ": 3402,
      "medizinischer Daten ": 3403,
      "versucht, ": 3404,
      "tent ": 3405,
      "over the ": 3406,
      ".com ": 3407,
      "frequ": 3408,
      "Dienstleist": 3409,
      "vid": 3410,
      "<tel_num> to discuss ": 3411,
      "undh": 3412,
      "to resolve the ": 3413,
      "measur": 3414,
      "ere's ": 3415,
      "instead ": 3416,
      "stor": 3417,
      "account number ": 3418,
      "inten": 3419,
      "tty ": 3420,
      "helpful to ": 3421,
      "to enhance ": 3422,
      "ome": 3423,
      "tivir": 3424,
      ". There ": 3425,
      "leg": 3426,
      "?   ": 3427,
      "deleted": 3428,
      "Gesundh": 3429,
      "-- ": 3430,
      "hour": 3431,
      "ely, ": 3432,
      "Verbind": 3433,
      "inquire ": 3434,
      ". Das ": 3435,
      "the answer ": 3436,
      "example ": 3437,
      "Integration von ": 3438,
      "6 ": 3439,
      "questions and ": 3440,
      "weitere Informationen ": 3441,
      "fest": 3442,
      "──": 3443,
      "tion and ": 3444,
      "besteht ": 3445,
      "specific": 3446,
      "Not ": 3447,
      "tion of ": 3448,
      "synony": 3449,
      "place ": 3450,
      "Mo": 3451,
      "implementing ": 3452,
      "Sicherheit ": 3453,
      "to do ": 3454,
      "en, wie ": 3455,
      "better understand the ": 3456,
      "studi": 3457,
      "fix": 3458,
      "appreciated": 3459,
      "ence and ": 3460,
      "remains ": 3461,
      "t of the ": 3462,
      "contact you ": 3463,
      "en. Bitte geben Sie ": 3464,
      "Meta ": 3465,
      "gets ": 3466,
      "medizinischen ": 3467,
      "to make ": 3468,
      "they're ": 3469,
      "PA": 3470,
      "key": 3471,
      "a new ": 3472,
      "best practic": 3473,
      "fe ": 3474,
      "kindly ": 3475,
      "details about ": 3476,
      "great ": 3477,
      "polic": 3478,
      "single ": 3479,
      "einer ": 3480,
      "requirement": 3481,
      "kind of ": 3482,
      "Clic": 3483,
      "Anforder": 3484,
      "hospital's ": 3485,
      "Funk": 3486,
      "uge ": 3487,
      ". It's ": 3488,
      "                ": 3489,
      "rat": 3490,
      "feed": 3491,
      "protokolle ": 3492,
      ". Kindly ": 3493,
      "patibil": 3494,
      "idea ": 3495,
      "op ": 3496,
      ", we can ": 3497,
      "a convenient time for ": 3498,
      "pecific": 3499,
      "latest ": 3500,
      ").  ": 3501,
      "infrastru": 3502,
      "going ": 3503,
      "crip": 3504,
      "there": 3505,
      "öh": 3506,
      "verfüg": 3507,
      "bezüglich der ": 3508,
      "19": 3509,
      "Emp": 3510,
      "pretty ": 3511,
      "I'm not ": 3512,
      "Boo": 3513,
      "far ": 3514,
      "may have ": 3515,
      "check ": 3516,
      "actual ": 3517,
      "code ": 3518,
      "so, ": 3519,
      "encountering ": 3520,
      "business ": 3521,
      "rier": 3522,
      "bereitstellen? ": 3523,
      "too": 3524,
      "phone ": 3525,
      "professional ": 3526,
      "veralte": 3527,
      "resolved": 3528,
      "en. Falls ": 3529,
      "essourc": 3530,
      "so far": 3531,
      "say": 3532,
      "Ar": 3533,
      "Sy": 3534,
      "aw": 3535,
      "chall": 3536,
      "questions about ": 3537,
      "anyone ": 3538,
      "run ": 3539,
      "zu verbessern": 3540,
      "Res": 3541,
      "ey ": 3542,
      "Qu": 3543,
      "serverfaul": 3544,
      "Ressourc": 3545,
      "secure ": 3546,
      "mehr Informationen ": 3547,
      "Strategien ": 3548,
      "lab": 3549,
      "else ": 3550,
      "learn ": 3551,
      "in my ": 3552,
      "mean ": 3553,
      "it, ": 3554,
      "ative ": 3555,
      "attempted to ": 3556,
      "http://": 3557,
      "click ": 3558,
      "bed": 3559,
      "acknowledge ": 3560,
      "reporting ": 3561,
      "leave ": 3562,
      "you've ": 3563,
      "happy ": 3564,
      "impact ": 3565,
      "assistance in ": 3566,
      "resolution": 3567,
      "successful": 3568,
      "chang": 3569,
      "aus ": 3570,
      "ung des ": 3571,
      "y, and ": 3572,
      "auf die ": 3573,
      "eri": 3574,
      "antly ": 3575,
      "umfass": 3576,
      "technolog": 3577,
      "initial ": 3578,
      "search": 3579,
      "maybe ": 3580,
      "nam": 3581,
      "ately ": 3582,
      "results ": 3583,
      "zeit": 3584,
      "an, ": 3585,
      "used to ": 3586,
      "information and ": 3587,
      "esse ": 3588,
      "können ": 3589,
      "through the ": 3590,
      "rite ": 3591,
      "adverti": 3592,
      "thank you for your ": 3593,
      "non-": 3594,
      "reach ": 3595,
      "traff": 3596,
      "securing medical data ": 3597,
      "auch ": 3598,
      "sprech": 3599,
      ". These ": 3600,
      "try to ": 3601,
      "hospital system": 3602,
      "Benutz": 3603,
      "infrastruc": 3604,
      "cop": 3605,
      "hard ": 3606,
      "detec": 3607,
      "Datenver": 3608,
      "elec": 3609,
      "lle ": 3610,
      "urr": 3611,
      "obser": 3612,
      "ially ": 3613,
      "to help ": 3614,
      "potentially ": 3615,
      "ded ": 3616,
      "prä": 3617,
      "Konfigur": 3618,
      "Plattform": 3619,
      "nächsten Schritte ": 3620,
      "more than ": 3621,
      "ation, ": 3622,
      "ga": 3623,
      "mas": 3624,
      "ris": 3625,
      "difficulti": 3626,
      "real ": 3627,
      "disruptions ": 3628,
      "ding ": 3629,
      "suff": 3630,
      "interessier": 3631,
      "atel": 3632,
      "? I would ": 3633,
      "devices and ": 3634,
      "meta": 3635,
      "voted ": 3636,
      "besser zu versteh": 3637,
      "access to ": 3638,
      "my": 3639,
      "that I ": 3640,
      "Untersuch": 3641,
      "wiss": 3642,
      "zu besprechen.\n": 3643,
      "/ ": 3644,
      "to discuss and ": 3645,
      "trau": 3646,
      ". Es ": 3647,
      "proz": 3648,
      "in der ": 3649,
      "Fehler ": 3650,
      "tific": 3651,
      "o, ": 3652,
      "given ": 3653,
      "<acc_num>.\n": 3654,
      "enhance": 3655,
      "firewall ": 3656,
      "aren't ": 3657,
      "board ": 3658,
      "tet ": 3659,
      "format": 3660,
      "automatic": 3661,
      "Gesundheits": 3662,
      "X ": 3663,
      "tions, ": 3664,
      "nom": 3665,
      "aging ": 3666,
      "file": 3667,
      "Empfehl": 3668,
      "selec": 3669,
      "pecifically, ": 3670,
      "t.  ": 3671,
      "set ": 3672,
      "issues": 3673,
      "issues with the ": 3674,
      "image ": 3675,
      "chnungs": 3676,
      "on this ": 3677,
      "answered": 3678,
      "correct ": 3679,
      "Um": 3680,
      "features ": 3681,
      "Bet": 3682,
      "data analysis ": 3683,
      "nisse ": 3684,
      "en. Könnten Sie bitte ": 3685,
      "opinion": 3686,
      "kumen": 3687,
      "limit": 3688,
      "essenti": 3689,
      "sk": 3690,
      "tions. ": 3691,
      "Verschlüssel": 3692,
      "proce": 3693,
      "and provide a solution ": 3694,
      ". Could you provide ": 3695,
      "details of the ": 3696,
      "engagement": 3697,
      "look into ": 3698,
      "along ": 3699,
      "to improve ": 3700,
      "and provide ": 3701,
      "beg": 3702,
      "available": 3703,
      "rag": 3704,
      "on your ": 3705,
      "teilen Sie uns ": 3706,
      "tment": 3707,
      "indic": 3708,
      "desk": 3709,
      "Or": 3710,
      "Neustar": 3711,
      "clean": 3712,
      "Post": 3713,
      "e to the ": 3714,
      "company ": 3715,
      "buil": 3716,
      "know the ": 3717,
      "We are ": 3718,
      "address the ": 3719,
      "en. Die ": 3720,
      "erfahr": 3721,
      "struc": 3722,
      "pric": 3723,
      "assist in ": 3724,
      "updates": 3725,
      "Mon": 3726,
      "bark": 3727,
      "Zugriff ": 3728,
      "igkeiten ": 3729,
      "database ": 3730,
      "notwendig": 3731,
      "compliance ": 3732,
      "assu": 3733,
      "ck ": 3734,
      "ed that ": 3735,
      "es in ": 3736,
      "202": 3737,
      "grund ": 3738,
      "application ": 3739,
      "prefer": 3740,
      "es are ": 3741,
      ". I have ": 3742,
      "festgestell": 3743,
      "more detail": 3744,
      "resolved ": 3745,
      "SO ": 3746,
      "-by-": 3747,
      "investigating the ": 3748,
      "geben": 3749,
      "en könnt": 3750,
      "chat ": 3751,
      "determine the ": 3752,
      "tailored ": 3753,
      "support": 3754,
      "Is it ": 3755,
      "efforts ": 3756,
      "better": 3757,
      "excep": 3758,
      "**": 3759,
      "Mac": 3760,
      "d, ": 3761,
      "nor": 3762,
      "data breach ": 3763,
      "name ": 3764,
      ") and ": 3765,
      "onder": 3766,
      "Anwend": 3767,
      "dash": 3768,
      "access": 3769,
      "     ": 3770,
      "posting ": 3771,
      "sensitive patient ": 3772,
      "buntu": 3773,
      "sourc": 3774,
      "including the ": 3775,
      ". B": 3776,
      "standard": 3777,
      "t, um ": 3778,
      "mention": 3779,
      "analysis": 3780,
      "Me": 3781,
      "questions. ": 3782,
      "incorrec": 3783,
      ". What ": 3784,
      "Ubuntu": 3785,
      "more details about the ": 3786,
      "helpful": 3787,
      "Hel": 3788,
      "rejec": 3789,
      "ing, and ": 3790,
      "facil": 3791,
      ", dass Sie ": 3792,
      "zurückzuführen ": 3793,
      "tow": 3794,
      "ung. ": 3795,
      "Answ": 3796,
      "hear ": 3797,
      "ord ": 3798,
      "digitale ": 3799,
      "contact us at <tel_num> ": 3800,
      "Clou": 3801,
      "sam": 3802,
      "to prevent ": 3803,
      "ten und ": 3804,
      "date": 3805,
      "Ihren ": 3806,
      ".1": 3807,
      "shor": 3808,
      "goal": 3809,
      "en zu könn": 3810,
      "mit der ": 3811,
      "approach ": 3812,
      "data analytics tool": 3813,
      "design": 3814,
      "https://superuser.com/questions/": 3815,
      ".0": 3816,
      "ot": 3817,
      "rate ": 3818,
      "verbesser": 3819,
      "haps ": 3820,
      "reviewing ": 3821,
      "accurate ": 3822,
      "\", ": 3823,
      "spam ": 3824,
      "step-by-": 3825,
      "fo": 3826,
      "verschied": 3827,
      "errors ": 3828,
      "strategies": 3829,
      "meet ": 3830,
      "riff": 3831,
      "clearly ": 3832,
      "month": 3833,
      "actions ": 3834,
      "active ": 3835,
      "that it ": 3836,
      "zeit ": 3837,
      "damit wir ": 3838,
      "step-by-step ": 3839,
      "Despite ": 3840,
      "ince ": 3841,
      "ache ": 3842,
      "schnell ": 3843,
      "agnen ": 3844,
      "API": 3845,
      "wachst": 3846,
      "Anleitungen ": 3847,
      "unauthorized access attemp": 3848,
      "stre": 3849,
      "ance. ": 3850,
      "instal": 3851,
      "Fin": 3852,
      "from you ": 3853,
      "welche ": 3854,
      "on-topic ": 3855,
      "Gr": 3856,
      "a comment ": 3857,
      "model": 3858,
      "ahl": 3859,
      "espec": 3860,
      "try ": 3861,
      "remains un": 3862,
      "home ": 3863,
      "do you ": 3864,
      "server over": 3865,
      ". So ": 3866,
      "identify the ": 3867,
      "of this ": 3868,
      "modi": 3869,
      "Could you provide ": 3870,
      "Dokumen": 3871,
      "öglich": 3872,
      "ER": 3873,
      "write ": 3874,
      "öger": 3875,
      "ally": 3876,
      "], ": 3877,
      "encour": 3878,
      "decid": 3879,
      "understanding ": 3880,
      "your email regarding the ": 3881,
      "downvote ": 3882,
      "There are ": 3883,
      "& ": 3884,
      ". T": 3885,
      "guidelin": 3886,
      "drive ": 3887,
      "necessary, ": 3888,
      "OS": 3889,
      ", you ": 3890,
      "sible ": 3891,
      "neues": 3892,
      "free to ": 3893,
      "specifically ": 3894,
      "send ": 3895,
      "moderators ": 3896,
      "los": 3897,
      "once ": 3898,
      "aufgrund ": 3899,
      "checking ": 3900,
      "bounty ": 3901,
      "00 ": 3902,
      "fit ": 3903,
      "t.": 3904,
      "yet ": 3905,
      "zöger": 3906,
      "greatly appreciate your ": 3907,
      "my question ": 3908,
      "meet": 3909,
      "regular ": 3910,
      "which is ": 3911,
      "bitten wir ": 3912,
      "inform us ": 3913,
      "36": 3914,
      ". After ": 3915,
      ". P": 3916,
      "especially ": 3917,
      "any specific ": 3918,
      "possible to ": 3919,
      "gel": 3920,
      "Markenwachst": 3921,
      "hm": 3922,
      "your": 3923,
      "beha": 3924,
      "shouldn't ": 3925,
      "tz ": 3926,
      "us with ": 3927,
      "spezifische ": 3928,
      "rather than ": 3929,
      "order ": 3930,
      "argu": 3931,
      ". We can ": 3932,
      "subjec": 3933,
      "situation ": 3934,
      "improvement": 3935,
      "Ado": 3936,
      "E ": 3937,
      "hat": 3938,
      "s (": 3939,
      "explain": 3940,
      "thought ": 3941,
      "MM": 3942,
      "es that ": 3943,
      ").": 3944,
      "identifizier": 3945,
      "fact ": 3946,
      "erle": 3947,
      "ts of ": 3948,
      "vulnerabiliti": 3949,
      "won't ": 3950,
      "s, including ": 3951,
      "You can ": 3952,
      "Schritt-": 3953,
      "Acc": 3954,
      "cy": 3955,
      "tell ": 3956,
      "relevan": 3957,
      "processing ": 3958,
      "FAQ ": 3959,
      "windows-": 3960,
      "nicht ": 3961,
      "mit, ": 3962,
      "richt": 3963,
      "is needed to ": 3964,
      "geh": 3965,
      "Kampagn": 3966,
      "ently, ": 3967,
      "Ihnen besser ": 3968,
      "overall ": 3969,
      "member": 3970,
      "freue mich darauf, ": 3971,
      "recently ": 3972,
      "included ": 3973,
      "-IT-": 3974,
      "schein": 3975,
      "plan ": 3976,
      "I'll ": 3977,
      "message ": 3978,
      "at <tel_num>.\n": 3979,
      "halt": 3980,
      "ene ": 3981,
      "How to ": 3982,
      "Are ": 3983,
      "dank": 3984,
      "ing-": 3985,
      "brand": 3986,
      "number": 3987,
      "required ": 3988,
      "page": 3989,
      "ed on ": 3990,
      "updated ": 3991,
      "Sehr geehrter Kundenservice, ": 3992,
      "HI": 3993,
      "avo": 3994,
      "weis": 3995,
      "Sit": 3996,
      "en. W": 3997,
      "safe": 3998,
      "pen": 3999,
      "one of the ": 4000,
      "en. Das ": 4001,
      "Is there ": 4002,
      "closed as ": 4003,
      "----": 4004,
      ". We appreciate your ": 4005,
      "intermit": 4006,
      "Schutz": 4007,
      "unexpected ": 4008,
      "ooking ": 4009,
      ". They ": 4010,
      "diagn": 4011,
      "large ": 4012,
      "advice ": 4013,
      "fra": 4014,
      "providing ": 4015,
      "trans": 4016,
      "Adobe ": 4017,
      "question.  ": 4018,
      "more details on the ": 4019,
      "betroffenen ": 4020,
      "available for ": 4021,
      "immediate ": 4022,
      "15": 4023,
      "Ter": 4024,
      "That ": 4025,
      "ancing ": 4026,
      "guide ": 4027,
      "find a ": 4028,
      "flagged ": 4029,
      "Kompatibil": 4030,
      "Do ": 4031,
      "hä": 4032,
      "fortun": 4033,
      ", and the ": 4034,
      "healthcare provid": 4035,
      "ents ": 4036,
      "butt": 4037,
      "not a ": 4038,
      "behavi": 4039,
      "Wi": 4040,
      "enn": 4041,
      "qual": 4042,
      "useful": 4043,
      "ve the ": 4044,
      "patch": 4045,
      "lief": 4046,
      "depend": 4047,
      "How do I ": 4048,
      "Ent": 4049,
      "hist": 4050,
      "ma ": 4051,
      "ttemp": 4052,
      ". N": 4053,
      "audit": 4054,
      "due to outdated ": 4055,
      "turn": 4056,
      "ed by the ": 4057,
      "reputation": 4058,
      "Q&": 4059,
      "? If ": 4060,
      "einem ": 4061,
      "others ": 4062,
      "security of ": 4063,
      "the issue still persist": 4064,
      "when I ": 4065,
      "freuen uns ": 4066,
      "agre": 4067,
      "the question is ": 4068,
      "valid ": 4069,
      "ang ": 4070,
      "explan": 4071,
      "compl": 4072,
      ". Thank you for ": 4073,
      "ello ": 4074,
      "featur": 4075,
      "initi": 4076,
      "amoun": 4077,
      "situation": 4078,
      "running ": 4079,
      "12": 4080,
      "s und ": 4081,
      "See": 4082,
      "Server Fault ": 4083,
      "neu zu ": 4084,
      "anzu": 4085,
      "cho": 4086,
      "me to ": 4087,
      "vide": 4088,
      "ang": 4089,
      "appli": 4090,
      "emplo": 4091,
      "mple": 4092,
      "spam": 4093,
      "basic ": 4094,
      "aber ": 4095,
      "clearing the ": 4096,
      "operating ": 4097,
      "sistance ": 4098,
      "wissen, ": 4099,
      "kürz": 4100,
      "SuperUser ": 4101,
      "[name": 4102,
      "t werden ": 4103,
      "wier": 4104,
      "mich, ": 4105,
      "suffici": 4106,
      "upgra": 4107,
      "Could you please provide ": 4108,
      "bt ": 4109,
      "how": 4110,
      "Ph": 4111,
      "Zu": 4112,
      "a bit ": 4113,
      "Click": 4114,
      "we're ": 4115,
      "regul": 4116,
      "a call at your ": 4117,
      "completely ": 4118,
      "safegu": 4119,
      "clearing ": 4120,
      "assist you, could you please provide ": 4121,
      "Dienstleistungen ": 4122,
      "labor": 4123,
      "Des": 4124,
      "ere": 4125,
      "suspect ": 4126,
      "schedule a call at your convenience ": 4127,
      "Zusammen": 4128,
      "it.  ": 4129,
      "plo": 4130,
      "investment decision": 4131,
      "remains unresolved": 4132,
      "% ": 4133,
      "es with ": 4134,
      "trac": 4135,
      "assist with the ": 4136,
      "Unterstützung bei der ": 4137,
      "handle ": 4138,
      "interested in learning ": 4139,
      "target audi": 4140,
      "bin": 4141,
      "else": 4142,
      "Sicherheitsmaßnahmen ": 4143,
      "Pre": 4144,
      "bring": 4145,
      "generally ": 4146,
      ", including ": 4147,
      "almost ": 4148,
      "sys": 4149,
      "in den ": 4150,
      "ste ": 4151,
      "concern ": 4152,
      ". As ": 4153,
      "boost ": 4154,
      "'m ": 4155,
      ", then ": 4156,
      "quo": 4157,
      "gesch": 4158,
      "dieser ": 4159,
      "conflicts ": 4160,
      "insbesondere ": 4161,
      "bar ": 4162,
      "iev": 4163,
      "en Sie die ": 4164,
      "Disk": 4165,
      "Linux ": 4166,
      "em": 4167,
      "log ": 4168,
      "greatly appreciate any ": 4169,
      "es or ": 4170,
      "own": 4171,
      "schul": 4172,
      "please provide ": 4173,
      "zu besprechen und ": 4174,
      "wiki ": 4175,
      "for this ": 4176,
      "This is ": 4177,
      "suggested ": 4178,
      ". You can ": 4179,
      "insights ": 4180,
      "power ": 4181,
      "challeng": 4182,
      "Hil": 4183,
      "Just ": 4184,
      "iqu": 4185,
      "s. We are ": 4186,
      "descrip": 4187,
      "ternativ": 4188,
      "Firew": 4189,
      "synchronization ": 4190,
      "Situ": 4191,
      "s\" ": 4192,
      "erfol": 4193,
      "you to ": 4194,
      "experience ": 4195,
      ". Please let us know a suitable time ": 4196,
      "fec": 4197,
      "? I am ": 4198,
      "HIPA": 4199,
      "posi": 4200,
      "experienced ": 4201,
      "cra": 4202,
      "s) ": 4203,
      "peak ": 4204,
      "error messag": 4205,
      "marketing agency ": 4206,
      "the user ": 4207,
      "nothing ": 4208,
      ". Would ": 4209,
      "nach ": 4210,
      "200": 4211,
      "understand that ": 4212,
      "schlä": 4213,
      "blog": 4214,
      "righ": 4215,
      "face ": 4216,
      "erreich": 4217,
      "enable ": 4218,
      "integrit": 4219,
      "from a ": 4220,
      "greatly appreciate it if you could ": 4221,
      "are not ": 4222,
      "erhöh": 4223,
      "likel": 4224,
      "reaching out to inquire ": 4225,
      "as well ": 4226,
      "digital strategy ": 4227,
      "submit": 4228,
      "Die ": 4229,
      "Fir": 4230,
      "Tr": 4231,
      "this issue": 4232,
      "lichkeit": 4233,
      "hardware": 4234,
      "en Dank, dass Sie ": 4235,
      "facilit": 4236,
      "of my ": 4237,
      "your request ": 4238,
      "stackex": 4239,
      "queu": 4240,
      "any additional information ": 4241,
      "compro": 4242,
      "Anforderungen ": 4243,
      "Auf": 4244,
      "barkeit ": 4245,
      ", please provide ": 4246,
      "important ": 4247,
      "slow": 4248,
      "your specific ": 4249,
      "error message ": 4250,
      "online pres": 4251,
      "quickly ": 4252,
      "to our ": 4253,
      "to ensure ": 4254,
      "scan": 4255,
      "particip": 4256,
      "bin ": 4257,
      "explain ": 4258,
      "start ": 4259,
      "sites": 4260,
      "promptly": 4261,
      "attention to ": 4262,
      "fav": 4263,
      "Versuch": 4264,
      "appreciate it if you could ": 4265,
      "sensibl": 4266,
      "CR": 4267,
      "dring": 4268,
      "assoc": 4269,
      "device ": 4270,
      "don": 4271,
      "systems and ": 4272,
      "control ": 4273,
      "personal ": 4274,
      "t wurd": 4275,
      "old": 4276,
      "guidance on how to ": 4277,
      "associ": 4278,
      "Off": 4279,
      "üh": 4280,
      ". And ": 4281,
      "ance of ": 4282,
      ".The ": 4283,
      "c ": 4284,
      "uner": 4285,
      "opinion ": 4286,
      "appear ": 4287,
      "availability ": 4288,
      "dra": 4289,
      "ting to ": 4290,
      "updating the ": 4291,
      "wrong": 4292,
      "Ac": 4293,
      "ming ": 4294,
      "s:  ": 4295,
      "maj": 4296,
      "out of ": 4297,
      "On ": 4298,
      "les": 4299,
      "anz": 4300,
      "confirm ": 4301,
      "fied ": 4302,
      "candi": 4303,
      "das Problem zu lös": 4304,
      "cover": 4305,
      ". Un": 4306,
      "previous ": 4307,
      "Dear Customer Support, I am ": 4308,
      "Überprüf": 4309,
      "+ ": 4310,
      "gen ": 4311,
      "pop": 4312,
      "für Ihr ": 4313,
      "common ": 4314,
      "site, ": 4315,
      "performance": 4316,
      "ft ": 4317,
      "enter": 4318,
      ". I'm ": 4319,
      "effek": 4320,
      "Analytic": 4321,
      "25": 4322,
      "rou": 4323,
      "subscrip": 4324,
      "tivirus ": 4325,
      "könnten Sie ": 4326,
      "sometimes ": 4327,
      "proced": 4328,
      "people who ": 4329,
      "address": 4330,
      "monitor": 4331,
      "<br><br>": 4332,
      "clearing the cach": 4333,
      "blic": 4334,
      "ion": 4335,
      "te, ": 4336,
      "unless ": 4337,
      "said ": 4338,
      "might have ": 4339,
      "deal ": 4340,
      "attention": 4341,
      "et's ": 4342,
      "blog ": 4343,
      "above ": 4344,
      "gab": 4345,
      "ty": 4346,
      "three ": 4347,
      "week": 4348,
      "approv": 4349,
      "the problem persist": 4350,
      "funk": 4351,
      "contacting ": 4352,
      "toward": 4353,
      "ah": 4354,
      "har": 4355,
      "usually ": 4356,
      "es the ": 4357,
      "details and ": 4358,
      "objec": 4359,
      "types of ": 4360,
      ". As": 4361,
      "es. To ": 4362,
      "mplemen": 4363,
      "shopp": 4364,
      "<name>, viel": 4365,
      "sowie die ": 4366,
      "look into this matter ": 4367,
      "invo": 4368,
      "ization": 4369,
      "answers, ": 4370,
      "offic": 4371,
      "collabor": 4372,
      "implementation ": 4373,
      "based on ": 4374,
      "str": 4375,
      "en. Könnten Sie ": 4376,
      "toge": 4377,
      "a call": 4378,
      "das Problem zu beheb": 4379,
      "longer ": 4380,
      ". G": 4381,
      "reinstall": 4382,
      "and are ": 4383,
      "respons": 4384,
      "torial": 4385,
      "looking for ": 4386,
      "promote ": 4387,
      "b ": 4388,
      "prior": 4389,
      "Produkte ": 4390,
      "Datenanalyse-": 4391,
      "type of ": 4392,
      "inquiry ": 4393,
      "benefit ": 4394,
      "from you soon": 4395,
      "We": 4396,
      "Would ": 4397,
      "fron": 4398,
      "lap": 4399,
      "bug": 4400,
      "- und ": 4401,
      "y of ": 4402,
      "exten": 4403,
      "Sehr geehrte": 4404,
      "serverfault": 4405,
      "modif": 4406,
      "pleas": 4407,
      "exist": 4408,
      "votes": 4409,
      "foli": 4410,
      "They ": 4411,
      "Or ": 4412,
      "usage ": 4413,
      "verwen": 4414,
      "look": 4415,
      "assist with ": 4416,
      "when the ": 4417,
      "a question about ": 4418,
      "wouldn't ": 4419,
      "not": 4420,
      "exac": 4421,
      "Promo": 4422,
      "Sicherheitsprotokolle ": 4423,
      "course ": 4424,
      "zu lös": 4425,
      "ation of ": 4426,
      ". Wir werden ": 4427,
      "konfigur": 4428,
      ". Is ": 4429,
      "system and ": 4430,
      "professional": 4431,
      "medizinische Daten ": 4432,
      "zu beheb": 4433,
      "significantly ": 4434,
      "Situation ": 4435,
      "er, ": 4436,
      "contain": 4437,
      "ence, ": 4438,
      "utiliz": 4439,
      "using the ": 4440,
      "is it ": 4441,
      "should I ": 4442,
      "edited ": 4443,
      "pi": 4444,
      "rotz ": 4445,
      ". Thank you": 4446,
      "entur ": 4447,
      "employ": 4448,
      "Diskus": 4449,
      "schuldig": 4450,
      "projec": 4451,
      "see the ": 4452,
      "highly ": 4453,
      "critical ": 4454,
      "instead of ": 4455,
      "Möglich": 4456,
      "thing to ": 4457,
      "your own ": 4458,
      "become ": 4459,
      "approach": 4460,
      "to resolve the issue ": 4461,
      "le-": 4462,
      "has a ": 4463,
      "receive ": 4464,
      "schläge ": 4465,
      "!  ": 4466,
      "kün": 4467,
      "for any ": 4468,
      "it's not ": 4469,
      "Data ": 4470,
      "feedback ": 4471,
      ". Our ": 4472,
      "bestä": 4473,
      "hilfreich, ": 4474,
      "” ": 4475,
      "worth ": 4476,
      "task": 4477,
      ", if ": 4478,
      "aris": 4479,
      "on how to ": 4480,
      "Problem": 4481,
      "services and ": 4482,
      "obvi": 4483,
      "case, ": 4484,
      "Cont": 4485,
      "next steps to ": 4486,
      "advanced ": 4487,
      "diagnos": 4488,
      "stic": 4489,
      "thor": 4490,
      "answers to ": 4491,
      ". Thank you for your time and ": 4492,
      "künf": 4493,
      "Implemen": 4494,
      ". Re": 4495,
      "would be happy ": 4496,
      "Team,\\n\\n": 4497,
      "environment": 4498,
      "anbiet": 4499,
      "unternom": 4500,
      "est": 4501,
      "about": 4502,
      ".  If ": 4503,
      "use the ": 4504,
      "möchten ": 4505,
      "involved ": 4506,
      "certain ": 4507,
      "rely ": 4508,
      "Onlin": 4509,
      "neuesten ": 4510,
      ". <name> ": 4511,
      "have to ": 4512,
      "member ": 4513,
      "besten ": 4514,
      "air": 4515,
      "iese ": 4516,
      "[T": 4517,
      "ür ": 4518,
      "what the ": 4519,
      "Information": 4520,
      "written ": 4521,
      "norm": 4522,
      "De": 4523,
      "has": 4524,
      "s. If ": 4525,
      "port": 4526,
      "schedule a call to discuss ": 4527,
      "against ": 4528,
      "Krankenhaus-IT-": 4529,
      "9 ": 4530,
      "the issue persist": 4531,
      "isher ": 4532,
      "Some ": 4533,
      "aware ": 4534,
      "ity of ": 4535,
      "Ihre": 4536,
      "Kontak": 4537,
      "password": 4538,
      "Zahl": 4539,
      "achieve ": 4540,
      "here, ": 4541,
      "Sec": 4542,
      "kti": 4543,
      "ently": 4544,
      "time to ": 4545,
      "appreciate the ": 4546,
      "productiv": 4547,
      "Kampagnen ": 4548,
      "marketing agency": 4549,
      "provided ": 4550,
      "n und ": 4551,
      "integrier": 4552,
      "communic": 4553,
      "integrations ": 4554,
      "ual": 4555,
      "that can ": 4556,
      "Fehlerbeheb": 4557,
      "erforderlich": 4558,
      "apologize for the inconvenience ": 4559,
      "LA": 4560,
      "SA": 4561,
      "state": 4562,
      "schätzen ": 4563,
      "cor": 4564,
      "mac": 4565,
      "Vertrau": 4566,
      "effectively ": 4567,
      "research ": 4568,
      "likely to ": 4569,
      "IM": 4570,
      "lag": 4571,
      "to close ": 4572,
      "izi": 4573,
      "looks ": 4574,
      "event": 4575,
      "targeting ": 4576,
      "entic": 4577,
      "netes ": 4578,
      "twick": 4579,
      "passenden ": 4580,
      "encryption ": 4581,
      ". It is ": 4582,
      "duplicate": 4583,
      "– ": 4584,
      "ads ": 4585,
      "have the ": 4586,
      "question and ": 4587,
      "information about ": 4588,
      "ischen ": 4589,
      "habe ": 4590,
      "en, die Sie ": 4591,
      "offer a ": 4592,
      "concerns ": 4593,
      "lack ": 4594,
      "it and ": 4595,
      "schrei": 4596,
      "t, and ": 4597,
      "despite ": 4598,
      "urgently ": 4599,
      "integration of ": 4600,
      "Integrit": 4601,
      "search eng": 4602,
      "seems to be ": 4603,
      "resolved the ": 4604,
      "avoid ": 4605,
      "chat": 4606,
      "s, the ": 4607,
      "questions on ": 4608,
      "login ": 4609,
      "Investment": 4610,
      "Question ": 4611,
      "weiterhin ": 4612,
      "Integritä": 4613,
      "However, ": 4614,
      ". Your ": 4615,
      "alier": 4616,
      "zukünf": 4617,
      "entscheid": 4618,
      "ations": 4619,
      "clearing cach": 4620,
      "nat": 4621,
      "le, ": 4622,
      "t, dass ": 4623,
      "goog": 4624,
      "customer support ": 4625,
      "list of ": 4626,
      "Telefonnum": 4627,
      "e.g": 4628,
      "tor ": 4629,
      "ations and ": 4630,
      "Hello ": 4631,
      "den": 4632,
      "tion Ad": 4633,
      "ungen, ": 4634,
      ", which is ": 4635,
      "in resolving the ": 4636,
      "fälle ": 4637,
      "individ": 4638,
      "Implementier": 4639,
      "tric": 4640,
      ", and I ": 4641,
      "tice ": 4642,
      "deplo": 4643,
      "I am writing to ": 4644,
      "teilen Sie ": 4645,
      "across various ": 4646,
      "schnelle ": 4647,
      "Community Promo": 4648,
      "Q&A ": 4649,
      "Community Promotion Ad": 4650,
      "ung medizinischer Daten ": 4651,
      "itäts": 4652,
      "bieten ": 4653,
      ". To better understand the ": 4654,
      "ed for ": 4655,
      "zur Verfügung ": 4656,
      "sufficient ": 4657,
      "hör": 4658,
      "nutz": 4659,
      "vers": 4660,
      "second ": 4661,
      "lis": 4662,
      "in our ": 4663,
      "resource ": 4664,
      "ige ": 4665,
      "ung unserer ": 4666,
      "mod ": 4667,
      "highligh": 4668,
      "stream": 4669,
      "defini": 4670,
      "NA": 4671,
      "oin": 4672,
      "points ": 4673,
      "place to ": 4674,
      "full ": 4675,
      "eren ": 4676,
      "an, um ": 4677,
      "answer, ": 4678,
      "connection ": 4679,
      "during peak ": 4680,
      "zusätzliche Informationen ": 4681,
      "Werkzeuge ": 4682,
      "intermittent ": 4683,
      "bisher ": 4684,
      "s. Despite ": 4685,
      "perfec": 4686,
      "könnte ": 4687,
      "<name>, we ": 4688,
      "Systemen ": 4689,
      "privi": 4690,
      "accept ": 4691,
      "Smart-": 4692,
      "list": 4693,
      "är": 4694,
      "proper": 4695,
      "tot": 4696,
      "answer is ": 4697,
      "<tel_num>.\n": 4698,
      "investigation ": 4699,
      "efforts to ": 4700,
      "removed ": 4701,
      "metho": 4702,
      "s of the ": 4703,
      "ed.  ": 4704,
      "Verzöger": 4705,
      "mehrere ": 4706,
      "s with ": 4707,
      "as well": 4708,
      "answering ": 4709,
      "Techn": 4710,
      "cannot ": 4711,
      "zu vereinbar": 4712,
      "features and ": 4713,
      "til ": 4714,
      "nehm": 4715,
      "failure": 4716,
      "Empfehlungen ": 4717,
      "Wor": 4718,
      "enter ": 4719,
      "action": 4720,
      "mad": 4721,
      ". That ": 4722,
      "security measur": 4723,
      "side ": 4724,
      "small ": 4725,
      "organization ": 4726,
      "exactly ": 4727,
      "pag": 4728,
      "separ": 4729,
      ". We would like to ": 4730,
      "place": 4731,
      "confidential": 4732,
      "Su": 4733,
      "US": 4734,
      "reported ": 4735,
      "virtu": 4736,
      "look forward to hearing back ": 4737,
      "Sk": 4738,
      "\" and ": 4739,
      "möglichen ": 4740,
      "delays in ": 4741,
      "wierigkeiten ": 4742,
      "Curr": 4743,
      "cruc": 4744,
      "mä": 4745,
      "strategies to ": 4746,
      "editing ": 4747,
      "zur Verfügung": 4748,
      "closing ": 4749,
      "outage ": 4750,
      ". (": 4751,
      "provide detailed ": 4752,
      "O ": 4753,
      "inn": 4754,
      "future": 4755,
      "to discuss this further": 4756,
      "Interesse ": 4757,
      "Cloud ": 4758,
      "sl": 4759,
      "thir": 4760,
      "in your ": 4761,
      "t, die ": 4762,
      "enhancing ": 4763,
      "s. We have ": 4764,
      "clarif": 4765,
      "ren": 4766,
      "services": 4767,
      "rakti": 4768,
      "we would like to ": 4769,
      "during the ": 4770,
      "One ": 4771,
      "ately, ": 4772,
      ".I ": 4773,
      "müh": 4774,
      "s. A": 4775,
      "en. Vielen Dank für Ihre ": 4776,
      ", but I ": 4777,
      "it would be helpful to ": 4778,
      "screen": 4779,
      "die Angelegenheit ": 4780,
      "tel_num": 4781,
      "turn ": 4782,
      "Beheb": 4783,
      "crashes ": 4784,
      "Fehlermeldungen ": 4785,
      "Medi": 4786,
      "fall": 4787,
      "s have been ": 4788,
      "would be greatly ": 4789,
      "you please share ": 4790,
      "SS": 4791,
      "Any ": 4792,
      "contin": 4793,
      "issue with ": 4794,
      "ation, and ": 4795,
      ", but the ": 4796,
      "queue ": 4797,
      "that this ": 4798,
      "ed, and ": 4799,
      "kontro": 4800,
      "here to ": 4801,
      "fer": 4802,
      "ffor": 4803,
      "flik": 4804,
      "users to ": 4805,
      "Stör": 4806,
      "phon": 4807,
      "SuperUser": 4808,
      "wasn't ": 4809,
      "leading to ": 4810,
      "mitteil": 4811,
      "troubleshooting steps ": 4812,
      "geeignete ": 4813,
      "traffic ": 4814,
      "grup": 4815,
      "pack": 4816,
      "ook": 4817,
      "lock": 4818,
      "mater": 4819,
      "automatically ": 4820,
      "Termin ": 4821,
      "Pl": 4822,
      "like a ": 4823,
      "zu verhinder": 4824,
      "need to be ": 4825,
      "Anleitung ": 4826,
      "freue mich auf Ihre ": 4827,
      "convenience.\n": 4828,
      "fenst": 4829,
      "slow ": 4830,
      "solve ": 4831,
      "security breach ": 4832,
      "assistance to resolve ": 4833,
      "integrate ": 4834,
      "s. To better ": 4835,
      "ju": 4836,
      "agement ": 4837,
      "feature ": 4838,
      "mäß": 4839,
      "Ro": 4840,
      "provide the ": 4841,
      "langu": 4842,
      "Geräte ": 4843,
      "üß": 4844,
      "stron": 4845,
      "of them ": 4846,
      "on my ": 4847,
      "ted and ": 4848,
      "gew": 4849,
      "if it ": 4850,
      ". The issue ": 4851,
      "merk": 4852,
      "arbe": 4853,
      "it be ": 4854,
      "s. Additionally, ": 4855,
      "note ": 4856,
      ".  It ": 4857,
      "may be due to ": 4858,
      "et the ": 4859,
      "like the ": 4860,
      "strategies and ": 4861,
      "it's a ": 4862,
      "workflow ": 4863,
      "seems to ": 4864,
      "vermu": 4865,
      "s. I would ": 4866,
      "this question": 4867,
      "strategien ": 4868,
      "tions.\n": 4869,
      "case studi": 4870,
      "hope ": 4871,
      "stan": 4872,
      "on our ": 4873,
      "zu helfen, ": 4874,
      "schütz": 4875,
      "if I ": 4876,
      "there is a ": 4877,
      "benötigen ": 4878,
      "sensibler ": 4879,
      "-to-": 4880,
      "fri": 4881,
      "neg": 4882,
      "flu": 4883,
      "no longer ": 4884,
      "devices ": 4885,
      "RA": 4886,
      "aim": 4887,
      "ole ": 4888,
      "it to ": 4889,
      "that they ": 4890,
      "mit den ": 4891,
      "Zudem ": 4892,
      "itial ": 4893,
      "s ag": 4894,
      "Initial ": 4895,
      "spor": 4896,
      "past ": 4897,
      "ed with ": 4898,
      "zu find": 4899,
      "lichkeit ": 4900,
      "t.\n": 4901,
      "erheb": 4902,
      "derungen ": 4903,
      "security": 4904,
      "what you ": 4905,
      "descri": 4906,
      "declin": 4907,
      "lying ": 4908,
      "stuff ": 4909,
      "Zielgrup": 4910,
      "table": 4911,
      "the question": 4912,
      "swit": 4913,
      "authentic": 4914,
      "ability to ": 4915,
      "zur Verbesser": 4916,
      "gres": 4917,
      "sha": 4918,
      "will": 4919,
      "enz": 4920,
      "option": 4921,
      "medical record": 4922,
      "bereit, ": 4923,
      "identify ": 4924,
      "Schutz ": 4925,
      "haven": 4926,
      "duce ": 4927,
      "verfügbar": 4928,
      "14": 4929,
      "ey": 4930,
      "seam": 4931,
      "what is ": 4932,
      "ogn": 4933,
      "essential ": 4934,
      "reopen": 4935,
      "tic ": 4936,
      "left ": 4937,
      "tribu": 4938,
      "smoo": 4939,
      "she": 4940,
      "how the ": 4941,
      "die Ursache ": 4942,
      "question was ": 4943,
      "ad to ": 4944,
      "gram": 4945,
      "Interesse an ": 4946,
      "prec": 4947,
      "is, ": 4948,
      "created ": 4949,
      "devices, ": 4950,
      "understand your ": 4951,
      "ics ": 4952,
      "are the ": 4953,
      "sequ": 4954,
      "en. G": 4955,
      "answers. ": 4956,
      "wann ": 4957,
      "data integration ": 4958,
      "tempor": 4959,
      "make it ": 4960,
      "How can I ": 4961,
      "ürf": 4962,
      "reasons ": 4963,
      "Zeitfenst": 4964,
      "simple ": 4965,
      "Facing ": 4966,
      "ister": 4967,
      "restric": 4968,
      "den Sie ": 4969,
      "content": 4970,
      "soll": 4971,
      "broad": 4972,
      "liefern": 4973,
      "privile": 4974,
      "lt ": 4975,
      "move ": 4976,
      "folg": 4977,
      "Patientendaten ": 4978,
      "pricing ": 4979,
      "big": 4980,
      "xx": 4981,
      "rob": 4982,
      "amin": 4983,
      "ed to be ": 4984,
      "attention ": 4985,
      "to ask ": 4986,
      "out the ": 4987,
      "des Krankenhaus": 4988,
      "level ": 4989,
      "<name>, thank you for your ": 4990,
      "standard ": 4991,
      "certain": 4992,
      "Stack Overflow ": 4993,
      "neu zu star": 4994,
      "enz ": 4995,
      "atch": 4996,
      "ed as ": 4997,
      "Support ": 4998,
      "wie möglich ": 4999,
      "resolution ": 5000,
      "Service ": 5001,
      "ed in ": 5002,
      "mptom": 5003,
      "way, ": 5004,
      "goal ": 5005,
      "score ": 5006,
      "pa": 5007,
      "ring ": 5008,
      "short": 5009,
      "stackover": 5010,
      "occurred ": 5011,
      "seriously ": 5012,
      "i.": 5013,
      "sure": 5014,
      "I just ": 5015,
      "en, bitten wir ": 5016,
      "tom ": 5017,
      "gestar": 5018,
      ". Wir haben ": 5019,
      "guidance and ": 5020,
      "Once ": 5021,
      "Specifically, ": 5022,
      "ry to ": 5023,
      "perhaps ": 5024,
      "tive": 5025,
      "örder": 5026,
      "prevent future ": 5027,
      "a little ": 5028,
      "limi": 5029,
      "zu gewährleist": 5030,
      "ativ": 5031,
      "suggestions ": 5032,
      "No ": 5033,
      "until ": 5034,
      "clo": 5035,
      "if they ": 5036,
      "Kundensupport, ": 5037,
      "detaillierte Informationen ": 5038,
      "veraltete ": 5039,
      "s?\n": 5040,
      "ing this ": 5041,
      "aim ": 5042,
      "product": 5043,
      "at your earliest ": 5044,
      "shopping ": 5045,
      "[tel_num": 5046,
      "hang ": 5047,
      "ww": 5048,
      "ying the ": 5049,
      "questions that are ": 5050,
      "encryption, ": 5051,
      "haven't ": 5052,
      "?\" ": 5053,
      "Rat": 5054,
      "uf": 5055,
      "most": 5056,
      "medical information": 5057,
      "OP": 5058,
      "taken to ": 5059,
      "Red": 5060,
      "anruf": 5061,
      ". Our team ": 5062,
      ". This is ": 5063,
      "train": 5064,
      "incorrect ": 5065,
      "click": 5066,
      "trend": 5067,
      "Uni": 5068,
      "contact <tel_num> ": 5069,
      "any questions ": 5070,
      "becom": 5071,
      "attempted ": 5072,
      "s that are ": 5073,
      "Up ": 5074,
      "Vo": 5075,
      "nehmen": 5076,
      "team is ": 5077,
      "empfehl": 5078,
      "erleb": 5079,
      "11": 5080,
      "Looking ": 5081,
      "griff": 5082,
      "’t ": 5083,
      "why": 5084,
      "stellungen ": 5085,
      "vereinbaren, um ": 5086,
      "focus": 5087,
      "Sehr geehrter Kundenservice, ich möchte ": 5088,
      "compromis": 5089,
      "productivity": 5090,
      "Man": 5091,
      "und der ": 5092,
      "s and the ": 5093,
      "mit dem ": 5094,
      "s. We will ": 5095,
      "attempts to ": 5096,
      "taken so far": 5097,
      "increased ": 5098,
      "/r ": 5099,
      "es.\n": 5100,
      "word ": 5101,
      "started ": 5102,
      "involving ": 5103,
      "mom": 5104,
      "gemel": 5105,
      "s to the ": 5106,
      "that was ": 5107,
      "came ": 5108,
      "appreciate any ": 5109,
      "block": 5110,
      "reshold ": 5111,
      "stackexchange": 5112,
      "ali": 5113,
      "or the ": 5114,
      "reset": 5115,
      "ings ": 5116,
      "steps to ": 5117,
      "Marketing-": 5118,
      "ed in the ": 5119,
      "it as ": 5120,
      "provide you ": 5121,
      "shown ": 5122,
      "here. ": 5123,
      "linked to ": 5124,
      "Andro": 5125,
      "digital campaign": 5126,
      "rul": 5127,
      "aybe ": 5128,
      "author ": 5129,
      "meta.": 5130,
      "tlich ": 5131,
      "sta": 5132,
      "Kundendienst": 5133,
      "ger ": 5134,
      ". Rec": 5135,
      "that we ": 5136,
      "comes ": 5137,
      "accord": 5138,
      "issue and ": 5139,
      "information will help us ": 5140,
      "Dear Customer Support ": 5141,
      "treff": 5142,
      "importance of ": 5143,
      "Hard": 5144,
      "Än": 5145,
      "I see ": 5146,
      "about a ": 5147,
      "für": 5148,
      "analyz": 5149,
      "occas": 5150,
      "where the ": 5151,
      "valid": 5152,
      "zu verhindern": 5153,
      ".0 ": 5154,
      "ossible ": 5155,
      "Datenanalyse ": 5156,
      "algorithm ": 5157,
      "Orac": 5158,
      "Entscheid": 5159,
      "Ag": 5160,
      "Frag": 5161,
      "ek ": 5162,
      "proper ": 5163,
      "said": 5164,
      "related to the ": 5165,
      "on-topic": 5166,
      "off topic": 5167,
      "Prakti": 5168,
      "dou": 5169,
      "ged": 5170,
      "t for ": 5171,
      "is for ": 5172,
      "term ": 5173,
      "apply ": 5174,
      "includes ": 5175,
      "project management SaaS ": 5176,
      "ßnahmen": 5177,
      "warte": 5178,
      "continue to ": 5179,
      "at a ": 5180,
      "ade": 5181,
      "vot": 5182,
      "get the ": 5183,
      "Sicherheit": 5184,
      "inconsistenc": 5185,
      "Zeitfenster ": 5186,
      "in detail": 5187,
      "en, einschließlich ": 5188,
      "was a ": 5189,
      "Exc": 5190,
      "PC": 5191,
      "ister ": 5192,
      "quick ": 5193,
      "könnten ": 5194,
      "something": 5195,
      "website": 5196,
      "applications and ": 5197,
      ". <name>, thank you for ": 5198,
      "en der ": 5199,
      "as it ": 5200,
      "tools to ": 5201,
      "means ": 5202,
      "würden ": 5203,
      "ry to hear ": 5204,
      "assw": 5205,
      "whole ": 5206,
      "Reques": 5207,
      "policy ": 5208,
      "gather ": 5209,
      "sal": 5210,
      "t der ": 5211,
      "techniqu": 5212,
      "value ": 5213,
      "incident": 5214,
      "measures ": 5215,
      "Syn": 5216,
      "Postgre": 5217,
      "dn": 5218,
      ", können wir ": 5219,
      "enhanced ": 5220,
      "off topic ": 5221,
      "urgency ": 5222,
      "confidentiality, ": 5223,
      "crucial ": 5224,
      "is require": 5225,
      "Rechnungs": 5226,
      "driver": 5227,
      "benötigen wir ": 5228,
      "sicherzustell": 5229,
      "dies ": 5230,
      "notific": 5231,
      "data analytic": 5232,
      "key ": 5233,
      "investment optimization": 5234,
      "Stack Overflow": 5235,
      "Seeking ": 5236,
      "onical ": 5237,
      "ing our ": 5238,
      "at all": 5239,
      "problems with ": 5240,
      "administrat": 5241,
      "bit ": 5242,
      "tments ": 5243,
      "quer": 5244,
      "tutorial": 5245,
      "ServerFault ": 5246,
      ". Dear [Name]": 5247,
      "igen ": 5248,
      "commit": 5249,
      "update the ": 5250,
      "Kun": 5251,
      "ier ": 5252,
      "My": 5253,
      "N ": 5254,
      "eing": 5255,
      "ted in the ": 5256,
      "interrup": 5257,
      "box ": 5258,
      "this matter and ": 5259,
      "dashboard": 5260,
      "robust ": 5261,
      "zu hör": 5262,
      "While ": 5263,
      "acknowled": 5264,
      "I don't think ": 5265,
      "fault ": 5266,
      "Finanz": 5267,
      "integrity, and ": 5268,
      "Since ": 5269,
      "om ": 5270,
      ", I am ": 5271,
      "ize the ": 5272,
      "actively ": 5273,
      ". Assistance ": 5274,
      "confidentiality, integrity, and ": 5275,
      "saying ": 5276,
      "Schwierigkeiten ": 5277,
      "graph": 5278,
      "issue.\n": 5279,
      "difficul": 5280,
      "äh": 5281,
      "Thank you for your ": 5282,
      "and-": 5283,
      "subject ": 5284,
      "difference ": 5285,
      "Customer Support": 5286,
      "urgent ": 5287,
      "ClickUp ": 5288,
      "Sehr geehrte/r ": 5289,
      "force ": 5290,
      "meid": 5291,
      "beim ": 5292,
      "available to ": 5293,
      "Server Faul": 5294,
      "example, ": 5295,
      "capac": 5296,
      "verifying ": 5297,
      "Ressourcen ": 5298,
      "Ubuntu ": 5299,
      "associated ": 5300,
      "IF": 5301,
      "Ste": 5302,
      "ence. ": 5303,
      "t, but ": 5304,
      "predic": 5305,
      "freund": 5306,
      "received": 5307,
      "migrate ": 5308,
      "wanted to ": 5309,
      "ann ": 5310,
      "s. It ": 5311,
      "ences ": 5312,
      "data security ": 5313,
      "when you ": 5314,
      "Eng": 5315,
      "ohl ": 5316,
      "everyone ": 5317,
      "zial": 5318,
      "for our ": 5319,
      "we will ": 5320,
      "help me ": 5321,
      "big ": 5322,
      "bur": 5323,
      "ator ": 5324,
      "sein ": 5325,
      "ared ": 5326,
      "minu": 5327,
      "lär": 5328,
      "dom": 5329,
      "— ": 5330,
      "es.  ": 5331,
      "sum": 5332,
      "what": 5333,
      "Verst": 5334,
      "software, ": 5335,
      "feel free to ": 5336,
      "desktop ": 5337,
      "assess": 5338,
      "achst": 5339,
      "benötige ": 5340,
      "noticed ": 5341,
      "Leistungs": 5342,
      "certainly ": 5343,
      "occasion": 5344,
      "en uns, ": 5345,
      "resolve the issue ": 5346,
      "bei den ": 5347,
      "that, ": 5348,
      "migration ": 5349,
      "server overload ": 5350,
      "ely": 5351,
      "eived ": 5352,
      "follow ": 5353,
      "receip": 5354,
      "passende ": 5355,
      "safeguard ": 5356,
      "AT": 5357,
      "ant": 5358,
      "dige ": 5359,
      "me, ": 5360,
      "riteri": 5361,
      "allow us to ": 5362,
      "lang": 5363,
      "coming ": 5364,
      "rieb": 5365,
      "feel": 5366,
      "promptly ": 5367,
      "Vielen Dank ": 5368,
      "Quick": 5369,
      "22": 5370,
      "Net": 5371,
      "away ": 5372,
      "a user ": 5373,
      "construc": 5374,
      "setup": 5375,
      "über hin": 5376,
      "Linux": 5377,
      "son": 5378,
      "arüber hin": 5379,
      "a moderator ": 5380,
      "und den ": 5381,
      "recogn": 5382,
      "and/": 5383,
      "remove ": 5384,
      "outages ": 5385,
      "indica": 5386,
      "s)": 5387,
      "wise ": 5388,
      "thre": 5389,
      "ili": 5390,
      "all-": 5391,
      "s. We would ": 5392,
      ". However, ": 5393,
      "development ": 5394,
      "reib": 5395,
      "ouple ": 5396,
      "sty": 5397,
      "für den ": 5398,
      "part of ": 5399,
      "Dock": 5400,
      "ßer": 5401,
      "what's ": 5402,
      "rest": 5403,
      "taking ": 5404,
      "more detailed ": 5405,
      "up the ": 5406,
      "troubleshooting step": 5407,
      "deploy": 5408,
      "arüber hinaus ": 5409,
      "Min": 5410,
      "en kann": 5411,
      "roll": 5412,
      "se, ": 5413,
      "we should ": 5414,
      "considered ": 5415,
      "läu": 5416,
      "advertise": 5417,
      "observed ": 5418,
      "al, ": 5419,
      "manag": 5420,
      "bility": 5421,
      "optimization ": 5422,
      "people": 5423,
      "fehler ": 5424,
      "fortunately, ": 5425,
      "ID": 5426,
      "walt": 5427,
      "spac": 5428,
      "Anweis": 5429,
      "investigation": 5430,
      ":   ": 5431,
      "you are experiencing ": 5432,
      "writing ": 5433,
      "needed, we can ": 5434,
      "root cause and ": 5435,
      "Moder": 5436,
      "enn Sie ": 5437,
      "ine": 5438,
      "en. Un": 5439,
      ". Attemp": 5440,
      "systems, ": 5441,
      "ability": 5442,
      "Zugriffskontro": 5443,
      "scope ": 5444,
      "QuickBoo": 5445,
      "anke ": 5446,
      "Daten zu ": 5447,
      "auf eine ": 5448,
      "for further discussion": 5449,
      "video ": 5450,
      "könnten Sie bitte ": 5451,
      "poor ": 5452,
      "tried to ": 5453,
      "believe that ": 5454,
      "Sehr geehrte [Name], ": 5455,
      "erforderlich ": 5456,
      "Oracle ": 5457,
      "__": 5458,
      "categ": 5459,
      "head": 5460,
      "requires ": 5461,
      "decision-": 5462,
      "Bedürf": 5463,
      "präch ": 5464,
      "Some": 5465,
      "year ": 5466,
      "alterna": 5467,
      "your account ": 5468,
      "so schnell ": 5469,
      "in the future": 5470,
      ". Ac": 5471,
      "range of ": 5472,
      "assistance. I ": 5473,
      "Ein ": 5474,
      "lau": 5475,
      "source ": 5476,
      "tung ": 5477,
      "us regarding the ": 5478,
      "geben Sie uns ": 5479,
      "Lösung des Problems ": 5480,
      "itely ": 5481,
      "erhalten": 5482,
      "amount of ": 5483,
      "search engine ": 5484,
      "zur Verfügung stell": 5485,
      "ve, ": 5486,
      "an update ": 5487,
      ".  Why ": 5488,
      "management, ": 5489,
      "ured ": 5490,
      "fully ": 5491,
      "genauen ": 5492,
      "must be ": 5493,
      "Zugriff auf ": 5494,
      "SAP ": 5495,
      "Work": 5496,
      "title ": 5497,
      "lever": 5498,
      "assist us ": 5499,
      "decline ": 5500,
      ". To assist you ": 5501,
      "Das ": 5502,
      "sat": 5503,
      "wit": 5504,
      "fore ": 5505,
      "questions.  ": 5506,
      "answer to ": 5507,
      "freue mich, ": 5508,
      "Pro ": 5509,
      "indicate ": 5510,
      "bestätig": 5511,
      "Online-": 5512,
      "ers, ": 5513,
      "unsuccessful": 5514,
      "for you": 5515,
      "zu be": 5516,
      "Infrastru": 5517,
      "werde ": 5518,
      "situation and ": 5519,
      "hält ": 5520,
      "front ": 5521,
      "portfoli": 5522,
      "using": 5523,
      "investment analytics ": 5524,
      "cause": 5525,
      "en. Bitte teilen Sie uns ": 5526,
      "Analys": 5527,
      "process. ": 5528,
      "arrange a call ": 5529,
      "K ": 5530,
      "R ": 5531,
      "eline ": 5532,
      "upvote ": 5533,
      "changes": 5534,
      "you are experienc": 5535,
      "Zusammenhang ": 5536,
      "unser ": 5537,
      "stra": 5538,
      "box": 5539,
      "zur Optimier": 5540,
      "grou": 5541,
      "type ": 5542,
      "functional": 5543,
      "scalable ": 5544,
      "geehrte ": 5545,
      "cases ": 5546,
      "updates or ": 5547,
      "market ": 5548,
      "Funktion": 5549,
      "ess and ": 5550,
      "att": 5551,
      "wied": 5552,
      "needs ": 5553,
      "Edit": 5554,
      "Mar": 5555,
      "the \"": 5556,
      "es, including ": 5557,
      "code": 5558,
      "project management SaaS": 5559,
      "Investitionen ": 5560,
      "[name], ": 5561,
      "unbe": 5562,
      "used": 5563,
      "and the steps ": 5564,
      "sensible ": 5565,
      "helfen zu könn": 5566,
      "zu erfahr": 5567,
      "Ge": 5568,
      "criteri": 5569,
      "one, ": 5570,
      "antivirus ": 5571,
      "annehm": 5572,
      "not to ": 5573,
      "changed ": 5574,
      "frag": 5575,
      "charac": 5576,
      "Gesundheitsdienst": 5577,
      "confidentiality, integrity, and availability ": 5578,
      "wonder": 5579,
      "forum": 5580,
      "day, ": 5581,
      "Gespräch ": 5582,
      "there is no ": 5583,
      "access controls, and ": 5584,
      "][": 5585,
      "These ": 5586,
      "risk ": 5587,
      "Kompatibilitäts": 5588,
      "official ": 5589,
      "zukünftige ": 5590,
      "ok": 5591,
      "hate": 5592,
      "option ": 5593,
      "use of ": 5594,
      "for the call": 5595,
      "superuser ": 5596,
      ". When ": 5597,
      "directly ": 5598,
      "browser ": 5599,
      "seamless ": 5600,
      "heit": 5601,
      "I can't ": 5602,
      "internet ": 5603,
      "party ": 5604,
      "products, ": 5605,
      "scalability ": 5606,
      "clarific": 5607,
      "would be greatly appreciated": 5608,
      "’s ": 5609,
      "the best ": 5610,
      ". If necessary, ": 5611,
      "expect ": 5612,
      "Thema ": 5613,
      "infrastructure ": 5614,
      "All ": 5615,
      "to ensure the ": 5616,
      "row ": 5617,
      "progres": 5618,
      "display": 5619,
      "one of ": 5620,
      "fug": 5621,
      "schätze ": 5622,
      "────": 5623,
      "synonym ": 5624,
      "geben? ": 5625,
      "discoun": 5626,
      "en Sie mich ": 5627,
      "ktur ": 5628,
      "restart the ": 5629,
      "Anruf": 5630,
      "Y ": 5631,
      "h ": 5632,
      "erfolgre": 5633,
      "IB": 5634,
      "a detailed ": 5635,
      "tion of the ": 5636,
      "updates, ": 5637,
      "cost": 5638,
      "asking for ": 5639,
      "themsel": 5640,
      "successful ": 5641,
      "neu gestar": 5642,
      "environment ": 5643,
      "13": 5644,
      "t in ": 5645,
      "abl": 5646,
      "entschuldig": 5647,
      "Verbesserungen ": 5648,
      "Zahlungs": 5649,
      "eld": 5650,
      "on topic ": 5651,
      "Passw": 5652,
      "a \"": 5653,
      "achiev": 5654,
      "implemented ": 5655,
      "digitalen Marketing": 5656,
      "Aktualisierung der ": 5657,
      "StackExchange ": 5658,
      "Grüß": 5659,
      "serverfault.com/": 5660,
      "Ihrem ": 5661,
      "mind ": 5662,
      "sense ": 5663,
      "information, ": 5664,
      "you have already ": 5665,
      "minimize ": 5666,
      "engagement metric": 5667,
      "drop ": 5668,
      "Ask ": 5669,
      "and/or ": 5670,
      "ender ": 5671,
      "in-": 5672,
      "rais": 5673,
      "issues. ": 5674,
      "any other ": 5675,
      ". I think ": 5676,
      "\" or ": 5677,
      "due to a ": 5678,
      "Vorfall ": 5679,
      "and provide a solution as soon as possible": 5680,
      "tisch": 5681,
      "time.\n": 5682,
      "everything ": 5683,
      "valuable ": 5684,
      "storage ": 5685,
      "Kontakt ": 5686,
      "e? ": 5687,
      "er-": 5688,
      "enth": 5689,
      "consu": 5690,
      "guess ": 5691,
      "connection": 5692,
      "migrated ": 5693,
      "confidentiality ": 5694,
      "so schnell wie möglich ": 5695,
      "ing that ": 5696,
      "autor": 5697,
      "what I ": 5698,
      "keep": 5699,
      "team has ": 5700,
      "In the ": 5701,
      "reaching out to our ": 5702,
      "s. Thank you for your ": 5703,
      "s. Could you provide ": 5704,
      "SAP ER": 5705,
      "artic": 5706,
      "your account number ": 5707,
      "the issue remains unresolved": 5708,
      "affecting the ": 5709,
      "ocus ": 5710,
      "recommendation ": 5711,
      "enhancements ": 5712,
      " The ": 5713,
      "af": 5714,
      "ink": 5715,
      "ones ": 5716,
      "teful ": 5717,
      "made": 5718,
      "your email ": 5719,
      "licen": 5720,
      "haben, ": 5721,
      "Ergeb": 5722,
      "s. Could you please provide ": 5723,
      "fair": 5724,
      "smar": 5725,
      "alized ": 5726,
      "again ": 5727,
      "prefer ": 5728,
      "histor": 5729,
      "TT": 5730,
      "sed ": 5731,
      "have": 5732,
      "admin ": 5733,
      "seem to ": 5734,
      "Ap": 5735,
      "Now ": 5736,
      "UR": 5737,
      "wohl ": 5738,
      "en.\\n\\n": 5739,
      "ensur": 5740,
      "tis": 5741,
      "and re": 5742,
      "and I ": 5743,
      "resolving the ": 5744,
      "audience ": 5745,
      "to reach ": 5746,
      "myself ": 5747,
      "confidentiality, integrity, and availability of ": 5748,
      "t. Wir ": 5749,
      "in more detail": 5750,
      "behält ": 5751,
      "obvious ": 5752,
      "seem to be ": 5753,
      "the OP ": 5754,
      ". I don't ": 5755,
      "fine ": 5756,
      "downvotes ": 5757,
      "genaue ": 5758,
      "pan": 5759,
      "uber": 5760,
      "schutz": 5761,
      "on the main ": 5762,
      "which are ": 5763,
      "en Sie uns, ": 5764,
      ". Could you please ": 5765,
      "visibility ": 5766,
      "best practices for ": 5767,
      "Funktionen ": 5768,
      "encourage ": 5769,
      "Verzögerungen ": 5770,
      "Abre": 5771,
      "cul": 5772,
      "it.": 5773,
      "you should ": 5774,
      "resolving ": 5775,
      "settings and ": 5776,
      "improvements ": 5777,
      "Hilfe ": 5778,
      "HIPAA": 5779,
      "IBM ": 5780,
      "ider ": 5781,
      "eines ": 5782,
      "Schwach": 5783,
      "time, ": 5784,
      "across multiple ": 5785,
      "accurac": 5786,
      "sysadmin": 5787,
      "invoic": 5788,
      "Rou": 5789,
      "als ": 5790,
      "itself ": 5791,
      "on Super User": 5792,
      "grateful ": 5793,
      "sort of ": 5794,
      "Ratschläge ": 5795,
      "Cach": 5796,
      "eich ": 5797,
      "dit ": 5798,
      "we need ": 5799,
      "also be ": 5800,
      "desi": 5801,
      "into a ": 5802,
      "Dienste ": 5803,
      "letzung ": 5804,
      "Secur": 5805,
      "ich schrei": 5806,
      "tract ": 5807,
      "because they ": 5808,
      "research": 5809,
      "technology ": 5810,
      "besser zu verstehen, ": 5811,
      "smooth ": 5812,
      "Dash": 5813,
      "NO": 5814,
      "Yes, ": 5815,
      "care": 5816,
      "...  ": 5817,
      "zu vermeid": 5818,
      "adjustments ": 5819,
      "look forward to hearing from you soon": 5820,
      "des Krankenhauses ": 5821,
      "klär": 5822,
      "s: ": 5823,
      "ton": 5824,
      "Verfüg": 5825,
      "Unannehm": 5826,
      "bot ": 5827,
      "updates. ": 5828,
      "schedule a call at <tel_num> ": 5829,
      "program ": 5830,
      "effectively, ": 5831,
      "Arbeit": 5832,
      "deal with ": 5833,
      "passenden Zeitpunkt ": 5834,
      "s\n": 5835,
      "yet": 5836,
      "or a ": 5837,
      "? The ": 5838,
      "regel": 5839,
      "entif": 5840,
      "Marketing ": 5841,
      "facilitate ": 5842,
      "dab": 5843,
      "focus ": 5844,
      "host": 5845,
      "ness ": 5846,
      "would like ": 5847,
      "further and ": 5848,
      "besteht das Problem ": 5849,
      "friend": 5850,
      "stackoverflow": 5851,
      "Stu": 5852,
      "fam": 5853,
      "ator": 5854,
      "agentur ": 5855,
      "combin": 5856,
      "Datenb": 5857,
      "potential solutions ": 5858,
      "mission": 5859,
      "encountered": 5860,
      "started": 5861,
      "favor": 5862,
      "Gesundheitsdienstle": 5863,
      "Elas": 5864,
      "Hub": 5865,
      "Tag": 5866,
      "ermöglich": 5867,
      "tivi": 5868,
      "ist, ": 5869,
      "install ": 5870,
      "users who ": 5871,
      "troubleshooting": 5872,
      "PU": 5873,
      "s' ": 5874,
      "revisi": 5875,
      "arch": 5876,
      "profile ": 5877,
      ". I've ": 5878,
      "strategies. ": 5879,
      "attempts ": 5880,
      "Update ": 5881,
      "easily ": 5882,
      "healthcare provider": 5883,
      "dringend ": 5884,
      "screensh": 5885,
      "Android ": 5886,
      "50 ": 5887,
      "it for ": 5888,
      "getre": 5889,
      "cool": 5890,
      "Dear Customer Support, ": 5891,
      "mark ": 5892,
      "flags ": 5893,
      ". Dear [Name], ": 5894,
      "e.g. ": 5895,
      "en-": 5896,
      "leav": 5897,
      "en und den ": 5898,
      "Unternehmen ": 5899,
      "appears to be ": 5900,
      "restore ": 5901,
      "16": 5902,
      "?\"": 5903,
      "G ": 5904,
      "senz ": 5905,
      "en? Ich ": 5906,
      "documentation": 5907,
      "Benutzer": 5908,
      "ternatively, ": 5909,
      "streng": 5910,
      "thorough ": 5911,
      "Kuber": 5912,
      "adic": 5913,
      "eop": 5914,
      "tou": 5915,
      "tit": 5916,
      "and will ": 5917,
      "limit ": 5918,
      "eine passende ": 5919,
      "unseren ": 5920,
      "<name>, wir ": 5921,
      "complete ": 5922,
      "client ": 5923,
      "unternommen ": 5924,
      "Elastic": 5925,
      "whate": 5926,
      "forc": 5927,
      "activity ": 5928,
      "exec": 5929,
      "Database ": 5930,
      ". The problem ": 5931,
      "think": 5932,
      "content cre": 5933,
      "erhalten ": 5934,
      "setup and ": 5935,
      "inconsistent ": 5936,
      "informed decision": 5937,
      "details about your current ": 5938,
      "infrastructure": 5939,
      "Cre": 5940,
      "the community ": 5941,
      "you'll ": 5942,
      "extern": 5943,
      "? It ": 5944,
      "their own ": 5945,
      "later ": 5946,
      "There is ": 5947,
      "lassen Sie uns ": 5948,
      "difficulties ": 5949,
      "3.": 5950,
      "ses": 5951,
      "would you ": 5952,
      "disk": 5953,
      "files ": 5954,
      "frequent ": 5955,
      "autorisier": 5956,
      "-time ": 5957,
      "Pow": 5958,
      "a, ": 5959,
      "kungen ": 5960,
      "I had ": 5961,
      "data breach": 5962,
      "up to ": 5963,
      "the issue with the ": 5964,
      "aufgetre": 5965,
      "symptom": 5966,
      "integrating the ": 5967,
      "convenience to discuss ": 5968,
      "as soon as possible.\n": 5969,
      "read the ": 5970,
      "(which ": 5971,
      "steig": 5972,
      "so that ": 5973,
      "on the site": 5974,
      "known ": 5975,
      "benefits ": 5976,
      "twickl": 5977,
      "flich ": 5978,
      "mind": 5979,
      "geme": 5980,
      "this is a ": 5981,
      ", we would like to ": 5982,
      "improved ": 5983,
      "presen": 5984,
      "functionality ": 5985,
      "by": 5986,
      "ned ": 5987,
      "will enable ": 5988,
      ". I would like to ": 5989,
      "problem and ": 5990,
      "assistance, ": 5991,
      "aid ": 5992,
      "recent system ": 5993,
      "receiving ": 5994,
      "SaaS platform ": 5995,
      "im Zusammenhang ": 5996,
      "additional information ": 5997,
      "impacted ": 5998,
      "Chro": 5999,
      "agree with ": 6000,
      "bedank": 6001,
      "Markenwachstum ": 6002,
      "s in the ": 6003,
      "respec": 6004,
      "examin": 6005,
      "track": 6006,
      "please let us know ": 6007,
      "en Sie bitte ": 6008,
      "suppos": 6009,
      "rule": 6010,
      "schedul": 6011,
      "waren": 6012,
      "alternative ": 6013,
      "equi": 6014,
      "mary ": 6015,
      "zeig": 6016,
      "bestehen ": 6017,
      "after the ": 6018,
      "während ": 6019,
      "kindly request ": 6020,
      "hilfreich, wenn Sie ": 6021,
      "Änderungen ": 6022,
      "inconsistencies ": 6023,
      "uer": 6024,
      "with our ": 6025,
      "zur Sicher": 6026,
      "investments ": 6027,
      "troubleshoot ": 6028,
      "although ": 6029,
      "Does ": 6030,
      "firewall": 6031,
      "notwendigen ": 6032,
      "sporadic": 6033,
      "So": 6034,
      "ted, and ": 6035,
      "part of the ": 6036,
      ", we are ": 6037,
      "them to ": 6038,
      "refo": 6039,
      "Question": 6040,
      "as well as ": 6041,
      "unbefug": 6042,
      "Arbeits": 6043,
      "2.": 6044,
      "local": 6045,
      "Ihn": 6046,
      "setting ": 6047,
      "sorry to hear ": 6048,
      "definitely ": 6049,
      "caused by the ": 6050,
      "normal ": 6051,
      "alu": 6052,
      "play ": 6053,
      "it is not ": 6054,
      "Analyse ": 6055,
      "lack of ": 6056,
      "PS": 6057,
      "contex": 6058,
      "um die ": 6059,
      "people to ": 6060,
      "to discuss the next step": 6061,
      "assistance.\n": 6062,
      "more, ": 6063,
      "gam": 6064,
      "return": 6065,
      "a solution ": 6066,
      "deal": 6067,
      "like this ": 6068,
      "supply ": 6069,
      "mit Ihnen ": 6070,
      "refresh": 6071,
      "100": 6072,
      "crash ": 6073,
      "Sehr geehrte Kundenservice, ": 6074,
      "s. These ": 6075,
      "regelmäß": 6076,
      "ame ": 6077,
      "a better ": 6078,
      "zu untersuch": 6079,
      "en. Sie ": 6080,
      "spr": 6081,
      "tend to ": 6082,
      "assist in resolving ": 6083,
      "asked": 6084,
      "zielle ": 6085,
      "QuickBooks ": 6086,
      ".B": 6087,
      "bie": 6088,
      "the other ": 6089,
      "ing on ": 6090,
      "isp": 6091,
      "ood ": 6092,
      "software version": 6093,
      "stellen ": 6094,
      "detailed information on ": 6095,
      "reports ": 6096,
      "Exchange": 6097,
      "dieses ": 6098,
      "Restar": 6099,
      "2021": 6100,
      "together ": 6101,
      "Let's ": 6102,
      "interesting ": 6103,
      "mehr über die ": 6104,
      "visit": 6105,
      "I would like to know ": 6106,
      "versucht, die ": 6107,
      "use": 6108,
      "licher ": 6109,
      ", but it ": 6110,
      "reviewing the ": 6111,
      "Open": 6112,
      "a boun": 6113,
      "backgr": 6114,
      "enough to ": 6115,
      "reaching out to inquire about ": 6116,
      "modific": 6117,
      "50": 6118,
      "is experiencing ": 6119,
      "ische ": 6120,
      "factor": 6121,
      "Hello": 6122,
      "API-": 6123,
      "Behebung ": 6124,
      "test ": 6125,
      "s have ": 6126,
      ", could ": 6127,
      "fort": 6128,
      "I know ": 6129,
      "Anpass": 6130,
      "mediate ": 6131,
      "like this": 6132,
      ". Why ": 6133,
      "link to ": 6134,
      "Telefonat ": 6135,
      "says ": 6136,
      "Umsetz": 6137,
      "button ": 6138,
      "Wer": 6139,
      "t? ": 6140,
      "enough": 6141,
      "s, or ": 6142,
      "clou": 6143,
      "unter <tel_num>": 6144,
      "StackOver": 6145,
      "SaaS project management platform": 6146,
      "medizinischen Daten ": 6147,
      "Dear Customer Support Team,\\n\\n": 6148,
      "uns bitte ": 6149,
      "identified ": 6150,
      "genauer ": 6151,
      "password ": 6152,
      "Betrieb": 6153,
      "provide you with ": 6154,
      ".  This ": 6155,
      "besch": 6156,
      "and the specific ": 6157,
      "free ": 6158,
      "networking ": 6159,
      "needs to be ": 6160,
      "aktuelle ": 6161,
      "failure ": 6162,
      "verschiedene ": 6163,
      "en, bitten wir Sie, ": 6164,
      "für-": 6165,
      "as an ": 6166,
      "zu identifizier": 6167,
      "data and ": 6168,
      "Where ": 6169,
      "happen ": 6170,
      "take the ": 6171,
      ". While ": 6172,
      "sind, ": 6173,
      "Investitionsoptimier": 6174,
      "Pres": 6175,
      "o-": 6176,
      "s, such as ": 6177,
      "Proz": 6178,
      "worl": 6179,
      "do we ": 6180,
      "wäre es ": 6181,
      "well-": 6182,
      "t haben. Wir ": 6183,
      "ünsch": 6184,
      "machine ": 6185,
      "along with ": 6186,
      "Schritt-für-": 6187,
      "Überprüfung der ": 6188,
      "förder": 6189,
      "marketing campaign": 6190,
      "mittel": 6191,
      "ignor": 6192,
      "basically ": 6193,
      "error messages you are ": 6194,
      "weitere Details zu den ": 6195,
      "Smart": 6196,
      "Mac ": 6197,
      "Schritt-für-Schritt-": 6198,
      "awaren": 6199,
      "ing your ": 6200,
      "mechan": 6201,
      "zu helf": 6202,
      "tron": 6203,
      "sofor": 6204,
      "eine detaillierte ": 6205,
      "look at ": 6206,
      "explic": 6207,
      "Software-Updates ": 6208,
      "freue mich auf Ihre Rückmeld": 6209,
      "Für ": 6210,
      "went ": 6211,
      "that could ": 6212,
      "extre": 6213,
      "derzeit ": 6214,
      "e, dass ": 6215,
      "details of ": 6216,
      "greif": 6217,
      "systems. ": 6218,
      "design ": 6219,
      "Note ": 6220,
      "sensitive medical information": 6221,
      "mehr Details zu den ": 6222,
      "issue. To ": 6223,
      "t werden könn": 6224,
      "Diskussion ": 6225,
      "marketing agency's ": 6226,
      "jud": 6227,
      "t: ": 6228,
      ". My ": 6229,
      "wich": 6230,
      "bug ": 6231,
      "twor": 6232,
      "Commer": 6233,
      "digitalen Strategi": 6234,
      "third-": 6235,
      "besteht das Problem weiterhin": 6236,
      "cu": 6237,
      "that has ": 6238,
      "ungen, die ": 6239,
      "app ": 6240,
      "we've ": 6241,
      "Ihnen bei der ": 6242,
      "request for ": 6243,
      "mehr über ": 6244,
      "deli": 6245,
      "wenn ": 6246,
      "otherwise ": 6247,
      "confer": 6248,
      "sensitive patient information": 6249,
      "inform us of ": 6250,
      "pleased to ": 6251,
      "separate ": 6252,
      "sporadic ": 6253,
      "ispiel": 6254,
      "6.": 6255,
      "Ob": 6256,
      "ip ": 6257,
      "data sourc": 6258,
      "back to ": 6259,
      "resolve the problem": 6260,
      "browser": 6261,
      "cir": 6262,
      "nic": 6263,
      "wish ": 6264,
      "reli": 6265,
      "remain ": 6266,
      "unch ": 6267,
      "it would ": 6268,
      "en und eine Lösung ": 6269,
      "moderation ": 6270,
      "Vielen Dank": 6271,
      "Benutzer ": 6272,
      "compliance with ": 6273,
      "USB ": 6274,
      "card": 6275,
      "job ": 6276,
      "ynam": 6277,
      "threshold ": 6278,
      ". Sehr geehrter ": 6279,
      "around": 6280,
      "mention ": 6281,
      "ters ": 6282,
      "clusi": 6283,
      "von Ihnen ": 6284,
      "measures to ": 6285,
      "advise ": 6286,
      "talking ": 6287,
      "arbeite": 6288,
      "Studi": 6289,
      "So, ": 6290,
      "dits ": 6291,
      "oß": 6292,
      "ink ": 6293,
      "ommen": 6294,
      "ritisch": 6295,
      "eine geeignete ": 6296,
      "Datens": 6297,
      "such a ": 6298,
      "first": 6299,
      "if you need ": 6300,
      "Details zu den ": 6301,
      "zu erreich": 6302,
      "Anweisungen ": 6303,
      "mou": 6304,
      "community, ": 6305,
      "Support-": 6306,
      "requesting ": 6307,
      "resolve the issue": 6308,
      ". We have received ": 6309,
      "greatly appreciate it if you could look into this matter ": 6310,
      ")\n": 6311,
      "base ": 6312,
      "ies": 6313,
      "ward": 6314,
      "the issues ": 6315,
      "ed up ": 6316,
      "users are ": 6317,
      "guidance on the ": 6318,
      "merge ": 6319,
      "Windows 8 ": 6320,
      "reference ": 6321,
      "Verbindungs": 6322,
      "für Ihr Interesse an ": 6323,
      "teilen Sie mir ": 6324,
      "ßerdem ": 6325,
      "Verfügbarkeit ": 6326,
      "Air": 6327,
      "chin": 6328,
      "on topic": 6329,
      "special": 6330,
      "bereitzustell": 6331,
      ", we have ": 6332,
      ". To better assist you, could you please provide ": 6333,
      "tabl": 6334,
      "ied ": 6335,
      "ten. ": 6336,
      "ved, ": 6337,
      "t hat": 6338,
      "stop ": 6339,
      "answers are ": 6340,
      "growth ": 6341,
      "process, ": 6342,
      "unauthorized acces": 6343,
      "Answer": 6344,
      "Markenwachstum": 6345,
      "brand's ": 6346,
      "Oracle Database ": 6347,
      "third-party ": 6348,
      "thes": 6349,
      "org": 6350,
      "zu sein": 6351,
      "ado": 6352,
      "data processing ": 6353,
      "preven": 6354,
      "some of the ": 6355,
      "en, um den ": 6356,
      "because it ": 6357,
      "belong ": 6358,
      "audit ": 6359,
      "bitten ": 6360,
      "Integration": 6361,
      "occurred": 6362,
      "prozess ": 6363,
      "staff ": 6364,
      "mmediate ": 6365,
      "I could ": 6366,
      "that would ": 6367,
      "not the ": 6368,
      "für das ": 6369,
      "get a ": 6370,
      "for the call ": 6371,
      "performing ": 6372,
      "platforms ": 6373,
      "instead": 6374,
      "würde ich ": 6375,
      "CRM ": 6376,
      "From ": 6377,
      "ongoing ": 6378,
      ", etc": 6379,
      "saw ": 6380,
      "stellen Sie ": 6381,
      "There is a ": 6382,
      "passt": 6383,
      "geeignetes ": 6384,
      "ubuntu": 6385,
      "power": 6386,
      "preferred ": 6387,
      "AW": 6388,
      "Here ": 6389,
      "IR": 6390,
      "ei ": 6391,
      "kritisch": 6392,
      "lu": 6393,
      "lack": 6394,
      "t. D": 6395,
      "Proto": 6396,
      "lot of ": 6397,
      "times": 6398,
      "satis": 6399,
      "Datenschutz": 6400,
      "takes ": 6401,
      "durchzuführ": 6402,
      "geeigneten ": 6403,
      ". There are ": 6404,
      "Word": 6405,
      "s?": 6406,
      "the site ": 6407,
      "ed with the ": 6408,
      "questions or ": 6409,
      "analyse ": 6410,
      "collec": 6411,
      "s. Please let us know ": 6412,
      "SaaS-Plattform ": 6413,
      "17": 6414,
      "? What ": 6415,
      "      ": 6416,
      "part": 6417,
      "stitu": 6418,
      "Analyse": 6419,
      "loading ": 6420,
      "vereinbaren, um die ": 6421,
      "direct ": 6422,
      "Number": 6423,
      "award": 6424,
      "your specific need": 6425,
      "entifizier": 6426,
      "Lie": 6427,
      "hum": 6428,
      "help in ": 6429,
      "seeing ": 6430,
      "deser": 6431,
      "caused ": 6432,
      "en können.\n": 6433,
      "? Additionally, it would be helpful to ": 6434,
      "zur Verbesserung der ": 6435,
      ". Acknowled": 6436,
      "Smartshe": 6437,
      "Dur": 6438,
      "ib": 6439,
      "anno": 6440,
      ". Könnten Sie bitte ": 6441,
      "to see ": 6442,
      "not, ": 6443,
      "linu": 6444,
      "a couple ": 6445,
      "figured ": 6446,
      "brech": 6447,
      "explor": 6448,
      "Es wurde ": 6449,
      "imag": 6450,
      "status ": 6451,
      "t wurde": 6452,
      "Person": 6453,
      "accessing ": 6454,
      "Py": 6455,
      "kann ": 6456,
      "microsof": 6457,
      "the following ": 6458,
      "as I ": 6459,
      ". We understand the ": 6460,
      "itäten ": 6461,
      "Ihnen besser zu helfen, ": 6462,
      "task ": 6463,
      "establ": 6464,
      "the most ": 6465,
      "you may ": 6466,
      "creating ": 6467,
      "wär": 6468,
      "basier": 6469,
      "Bereich ": 6470,
      "suspected ": 6471,
      "made to ": 6472,
      "sligh": 6473,
      ".    ": 6474,
      "al-": 6475,
      "to explore ": 6476,
      "room ": 6477,
      "as \"": 6478,
      "zu erhalt": 6479,
      "was die ": 6480,
      "manage ": 6481,
      "We have ": 6482,
      "perio": 6483,
      "konn": 6484,
      "does it ": 6485,
      "schedule a call at <tel_num> to discuss ": 6486,
      "Erfolg": 6487,
      "decision ": 6488,
      ". Bitte geben Sie ": 6489,
      "except ": 6490,
      "Is there a ": 6491,
      "votes, ": 6492,
      "entschuldigen uns ": 6493,
      "bedanken uns ": 6494,
      "en, und ": 6495,
      "ed to the ": 6496,
      "für einen Anruf ": 6497,
      "Sehr geehrter Kundendienst": 6498,
      "erkun": 6499,
      "documentation and ": 6500,
      "Störungen ": 6501,
      "uelle ": 6502,
      "zw": 6503,
      "repe": 6504,
      "zu aktualisier": 6505,
      "goes ": 6506,
      "ities ": 6507,
      "servers and ": 6508,
      "Unterstützung und ": 6509,
      "Zusätz": 6510,
      "Bedürfnisse ": 6511,
      "sie ": 6512,
      "deten ": 6513,
      "if we ": 6514,
      "a cri": 6515,
      "optimization": 6516,
      "attempt to ": 6517,
      "lieg": 6518,
      "en. Es wäre ": 6519,
      "Nach": 6520,
      "hon": 6521,
      "rom": 6522,
      "a problem ": 6523,
      "that will ": 6524,
      "week ": 6525,
      "Ihnen gerne ": 6526,
      "substan": 6527,
      "merged ": 6528,
      "short ": 6529,
      "Unannehmlichkeit": 6530,
      "eut": 6531,
      "ergriff": 6532,
      "as they ": 6533,
      "? Please ": 6534,
      "ts or ": 6535,
      "so I ": 6536,
      "indus": 6537,
      "added ": 6538,
      "below ": 6539,
      "Bedeut": 6540,
      "client": 6541,
      "utilize ": 6542,
      "Help ": 6543,
      "Skalier": 6544,
      ".) ": 6545,
      "ho": 6546,
      "order": 6547,
      "as to ": 6548,
      "as possible": 6549,
      "upvotes ": 6550,
      "oppor": 6551,
      "matter and ": 6552,
      "investigate and ": 6553,
      "durchgeführten ": 6554,
      "have not resolved the ": 6555,
      "opportun": 6556,
      "Cache ": 6557,
      "Out": 6558,
      "xim": 6559,
      ". In": 6560,
      "itself": 6561,
      "in that ": 6562,
      ".  What ": 6563,
      "put": 6564,
      "assistance with ": 6565,
      "customer": 6566,
      "mögliche Lösungen ": 6567,
      "look forward to your response": 6568,
      "Firewall-": 6569,
      "Power": 6570,
      "ener": 6571,
      "verst": 6572,
      "berich": 6573,
      "reviewed ": 6574,
      "improve the ": 6575,
      "organization": 6576,
      "mehreren ": 6577,
      "ien ": 6578,
      "dica": 6579,
      "für eine ": 6580,
      "sole": 6581,
      "weiter ": 6582,
      "entire ": 6583,
      "investment": 6584,
      "evalu": 6585,
      "einen Termin ": 6586,
      "effort ": 6587,
      "days ": 6588,
      "community-": 6589,
      "wiki": 6590,
      "Web ": 6591,
      "digital strategies for ": 6592,
      "Wachst": 6593,
      "Zap": 6594,
      "kind": 6595,
      "like": 6596,
      "assistance. ": 6597,
      "devices": 6598,
      "Marketingagentur ": 6599,
      "likely due to ": 6600,
      "umfassende ": 6601,
      "obviously ": 6602,
      "Investment-": 6603,
      "Best ": 6604,
      "t und die ": 6605,
      "thank": 6606,
      "the only ": 6607,
      "you'd ": 6608,
      "dig ": 6609,
      "queri": 6610,
      "on SU": 6611,
      "en, aber ": 6612,
      "not just ": 6613,
      "specify ": 6614,
      "möchten, ": 6615,
      "ash ": 6616,
      "Should we ": 6617,
      "Phone ": 6618,
      ",\\n": 6619,
      "ging the ": 6620,
      "incompati": 6621,
      "en. Sehr geehrter ": 6622,
      "timeline ": 6623,
      "ernst ": 6624,
      "period": 6625,
      "might be related to ": 6626,
      "immediately ": 6627,
      "real-time ": 6628,
      "Ak": 6629,
      "VP": 6630,
      "her ": 6631,
      "ties ": 6632,
      "rever": 6633,
      "behil": 6634,
      "porate ": 6635,
      "a cer": 6636,
      "detailed information on the ": 6637,
      "teilig": 6638,
      "vielen Dank für Ihre ": 6639,
      "a critical ": 6640,
      "27": 6641,
      "s you ": 6642,
      "t a ": 6643,
      "that a ": 6644,
      "ted by ": 6645,
      "appar": 6646,
      "company": 6647,
      ": \"": 6648,
      "interface ": 6649,
      "s. Please provide ": 6650,
      "understanding the ": 6651,
      "major ": 6652,
      "ich schreibe ": 6653,
      "eople ": 6654,
      "Ima": 6655,
      "ften ": 6656,
      "him ": 6657,
      "bump": 6658,
      "en und eine ": 6659,
      "offen": 6660,
      "assist further": 6661,
      "assist in resolving the ": 6662,
      "the problem still persist": 6663,
      "high-": 6664,
      "Dear Customer ": 6665,
      "sicherh": 6666,
      "https://serverfault.com/": 6667,
      "schnell": 6668,
      "ware-": 6669,
      "cerp": 6670,
      "Verbesserung der ": 6671,
      "rebooting ": 6672,
      "subscription ": 6673,
      "), and ": 6674,
      "However": 6675,
      "out, ": 6676,
      "older ": 6677,
      "zug ": 6678,
      "tivität ": 6679,
      "affected": 6680,
      "anything": 6681,
      "troubleshoot the ": 6682,
      "en. Diese ": 6683,
      "SQL": 6684,
      "Untersuchung ": 6685,
      "explanation ": 6686,
      "erkundig": 6687,
      "30 ": 6688,
      "Must ": 6689,
      "Maybe ": 6690,
      "ving": 6691,
      "the specific ": 6692,
      "it should be ": 6693,
      "an email ": 6694,
      "def": 6695,
      "questions with ": 6696,
      "investigating ": 6697,
      "to discuss this further ": 6698,
      "freuen uns, ": 6699,
      "rän": 6700,
      ", it's ": 6701,
      "an appropriate ": 6702,
      "tra ": 6703,
      "t. Bitte ": 6704,
      "mainten": 6705,
      ". We are happy to ": 6706,
      "software and hardware ": 6707,
      "purpose of ": 6708,
      "synonym": 6709,
      "step-by-step instructions ": 6710,
      "switch": 6711,
      "mostly ": 6712,
      "laub": 6713,
      "decline in ": 6714,
      "eine passende Zeit ": 6715,
      "behilflich ": 6716,
      "-a-": 6717,
      "Tag ": 6718,
      "Trotz ": 6719,
      "]: ": 6720,
      "bann": 6721,
      "ipp": 6722,
      "ration": 6723,
      "en, insbesondere ": 6724,
      "provide guidance on ": 6725,
      "should we ": 6726,
      "pris": 6727,
      "rules ": 6728,
      "entirely ": 6729,
      "might be the ": 6730,
      "configurations ": 6731,
      "Comp": 6732,
      "Plattformen ": 6733,
      "interessiert ": 6734,
      "sein könn": 6735,
      "Zoh": 6736,
      "da ": 6737,
      "thread": 6738,
      "plug": 6739,
      "either": 6740,
      "publ": 6741,
      "poster ": 6742,
      ". Sh": 6743,
      "there's no ": 6744,
      "schätzen Ihre ": 6745,
      ".\" ": 6746,
      "Even ": 6747,
      "](": 6748,
      "s?  ": 6749,
      "unable to ": 6750,
      "ould": 6751,
      "entsprech": 6752,
      "site and ": 6753,
      "outcom": 6754,
      "site's ": 6755,
      "efforts, ": 6756,
      "assume ": 6757,
      "anzubiet": 6758,
      "however ": 6759,
      "procedure": 6760,
      "ärk": 6761,
      "advertisements ": 6762,
      "Abrechnungs": 6763,
      "Datenbank": 6764,
      "Zoho ": 6765,
      "cast ": 6766,
      "ht": 6767,
      "phr": 6768,
      "s:": 6769,
      "terms ": 6770,
      "amet": 6771,
      "they can ": 6772,
      "bot": 6773,
      "causes ": 6774,
      "docu": 6775,
      "a suitable time for ": 6776,
      "minimum ": 6777,
      "Werkzeug": 6778,
      "Faceb": 6779,
      "continues": 6780,
      "material ": 6781,
      "Redis ": 6782,
      "PostgreSQL ": 6783,
      "receipt of ": 6784,
      "Fall": 6785,
      "ID ": 6786,
      "To": 6787,
      "attribu": 6788,
      "Systems ": 6789,
      "accounts ": 6790,
      "even if ": 6791,
      "results. ": 6792,
      "relevant to ": 6793,
      "appropriate": 6794,
      "Apple ": 6795,
      "broad ": 6796,
      "Infrastruktur ": 6797,
      ".\"": 6798,
      ".If ": 6799,
      "Effor": 6800,
      "Fur": 6801,
      "zei": 6802,
      "reff": 6803,
      "state ": 6804,
      "you could ": 6805,
      "siz": 6806,
      "analyze ": 6807,
      "would be grateful ": 6808,
      ". Specifically, ": 6809,
      "used for ": 6810,
      "personally ": 6811,
      "acknowledge the ": 6812,
      "maschin": 6813,
      "mentioned ": 6814,
      "popular ": 6815,
      "von Ihnen zu hör": 6816,
      "a certain ": 6817,
      "s - ": 6818,
      ". Könnten Sie ": 6819,
      "and integr": 6820,
      "I asked ": 6821,
      "daten": 6822,
      "targe": 6823,
      "areas ": 6824,
      "concerning the ": 6825,
      "effizi": 6826,
      "visit ": 6827,
      "Investitionsentscheid": 6828,
      "Unterstützung, um ": 6829,
      "scheint ": 6830,
      "kürzlich ": 6831,
      "[tel_num] ": 6832,
      "24": 6833,
      "fel": 6834,
      "gard": 6835,
      "ess. ": 6836,
      "rek": 6837,
      "addi": 6838,
      "excerp": 6839,
      "trag": 6840,
      "obach": 6841,
      "assistance to ": 6842,
      "the question was ": 6843,
      "Konto ": 6844,
      "letzten ": 6845,
      "model ": 6846,
      "Zeit und ": 6847,
      "button": 6848,
      "unerwarte": 6849,
      "even": 6850,
      "hid": 6851,
      "I will ": 6852,
      "There's ": 6853,
      "this problem": 6854,
      "answers and ": 6855,
      "more about ": 6856,
      "investment analysis ": 6857,
      "work toward": 6858,
      "tag wiki ": 6859,
      "ServerFaul": 6860,
      "SQL Server ": 6861,
      "Protokol": 6862,
      "Bas": 6863,
      "lose ": 6864,
      "ing to the ": 6865,
      "room": 6866,
      "absolu": 6867,
      "you offer ": 6868,
      "notice ": 6869,
      "discuss the ": 6870,
      "es, or ": 6871,
      "point": 6872,
      "Bemüh": 6873,
      "downvoted ": 6874,
      "usias": 6875,
      "Prä": 6876,
      "Patientendaten zu ": 6877,
      "traffic": 6878,
      "would be happy to discuss ": 6879,
      "total ": 6880,
      "desired ": 6881,
      "Jef": 6882,
      "inf": 6883,
      "aspec": 6884,
      "mein": 6885,
      "be a ": 6886,
      "worth": 6887,
      "dom ": 6888,
      "problems. ": 6889,
      "attempting to ": 6890,
      "already been ": 6891,
      "solution.\n": 6892,
      "s? This ": 6893,
      "integrated ": 6894,
      "arrange a call at ": 6895,
      "Log": 6896,
      "vag": 6897,
      "leich": 6898,
      "an issue with the ": 6899,
      "dedica": 6900,
      "Any": 6901,
      "by restarting ": 6902,
      "good": 6903,
      "canonical ": 6904,
      "need your ": 6905,
      "recommendation": 6906,
      "[Name],\\n\\n": 6907,
      "installier": 6908,
      "properly ": 6909,
      "Oracle Database 19": 6910,
      "e\" ": 6911,
      ". I will ": 6912,
      "led to ": 6913,
      "answers that ": 6914,
      "higher ": 6915,
      "en. Wir werden ": 6916,
      "werkze": 6917,
      "onders ": 6918,
      "quote ": 6919,
      "satz ": 6920,
      "Jeff ": 6921,
      "is there ": 6922,
      "es Ihnen ": 6923,
      "en, wenn Sie ": 6924,
      "command ": 6925,
      "Which ": 6926,
      "because the ": 6927,
      "down-": 6928,
      "a question is ": 6929,
      "level": 6930,
      "darunter ": 6931,
      "Krankenh": 6932,
      "Po": 6933,
      "insufficient ": 6934,
      "behin": 6935,
      "ing.  ": 6936,
      "because of ": 6937,
      "occurr": 6938,
      ". Ich freue mich darauf, ": 6939,
      "reaching out to request ": 6940,
      "visual": 6941,
      "algorithm": 6942,
      "DIT": 6943,
      "a question": 6944,
      "url": 6945,
      "dem": 6946,
      "schrit": 6947,
      "user's ": 6948,
      "konflik": 6949,
      "s that have ": 6950,
      "Bezug ": 6951,
      "Anwendungen ": 6952,
      "installed ": 6953,
      "verfügbaren ": 6954,
      "mechanis": 6955,
      "Krankenhä": 6956,
      "behind ": 6957,
      "= ": 6958,
      "ing it ": 6959,
      "is facing ": 6960,
      "profile": 6961,
      "among ": 6962,
      "do it ": 6963,
      "seek ": 6964,
      "--> ": 6965,
      "improvement ": 6966,
      "s. For ": 6967,
      "tools, ": 6968,
      "What's ": 6969,
      "reviewer": 6970,
      "due to the ": 6971,
      "account": 6972,
      "belong": 6973,
      "brand awaren": 6974,
      "Kunden ": 6975,
      "freundlichen ": 6976,
      "dabei ": 6977,
      "geeignetes Zeitfenster ": 6978,
      "targeted ": 6979,
      "28": 6980,
      "I want to ": 6981,
      "it will ": 6982,
      "up-": 6983,
      "swe": 6984,
      "bul": 6985,
      "times, ": 6986,
      "ishing ": 6987,
      "flagging ": 6988,
      "disruption": 6989,
      "challenges ": 6990,
      "<name>, vielen Dank, dass Sie ": 6991,
      "Such": 6992,
      "freundlichen Grüß": 6993,
      "Eine ": 6994,
      "atch ": 6995,
      "I believe ": 6996,
      "on Super User ": 6997,
      "raph": 6998,
      "demon": 6999,
      "spend ": 7000,
      "us with the ": 7001,
      "doch ": 7002,
      "ambig": 7003,
      "sobald ": 7004,
      ". We will review ": 7005,
      "concerning ": 7006,
      "involved": 7007,
      ". Please let us know a convenient time ": 7008,
      "Ever": 7009,
      "PC ": 7010,
      "cros": 7011,
      "entr": 7012,
      "it freundlichen Grüß": 7013,
      "so far ": 7014,
      "if there is ": 7015,
      "financial firm": 7016,
      "Accoun": 7017,
      "Telefonnummer": 7018,
      "whatever ": 7019,
      "). ": 7020,
      "thread ": 7021,
      "wid": 7022,
      "die Probleme ": 7023,
      "Program": 7024,
      "ways to ": 7025,
      "prompt attention to ": 7026,
      "fähr": 7027,
      "windows ": 7028,
      "Verbindung ": 7029,
      "took ": 7030,
      "rejected ": 7031,
      "Dokumentation ": 7032,
      "wondering ": 7033,
      "-dri": 7034,
      "gain ": 7035,
      "activi": 7036,
      "your question": 7037,
      "discour": 7038,
      "ing the question ": 7039,
      "wahr": 7040,
      "know what ": 7041,
      "area ": 7042,
      "just a ": 7043,
      "E-Mail-": 7044,
      "options for ": 7045,
      "kontaktieren Sie uns ": 7046,
      "].\n": 7047,
      "sent": 7048,
      "thus ": 7049,
      "rach": 7050,
      "steuer": 7051,
      "nach": 7052,
      "ations, ": 7053,
      "somewhat ": 7054,
      "möchte ich ": 7055,
      "des Problem": 7056,
      "formatting ": 7057,
      "kenn": 7058,
      "let's ": 7059,
      "ed at ": 7060,
      "hav": 7061,
      "can help ": 7062,
      "ationen ": 7063,
      "linked ": 7064,
      "identifying the ": 7065,
      "Gesch": 7066,
      "success ": 7067,
      "recommendations for ": 7068,
      ". Thank you.\n": 7069,
      "Contact ": 7070,
      "Synchron": 7071,
      "fairly ": 7072,
      "Most ": 7073,
      "kamp": 7074,
      "se to ": 7075,
      "s; ": 7076,
      ", this ": 7077,
      "and then ": 7078,
      "in order ": 7079,
      "all of ": 7080,
      "voted to ": 7081,
      "tag, ": 7082,
      "comment, ": 7083,
      "platt": 7084,
      "forward to your ": 7085,
      "monit": 7086,
      "efficiency": 7087,
      "lichkeit, ": 7088,
      "major": 7089,
      "einges": 7090,
      "circ": 7091,
      "Co": 7092,
      "Spe": 7093,
      "less": 7094,
      "wal": 7095,
      "you.\n": 7096,
      "we don't ": 7097,
      ". We apologize for the inconvenience ": 7098,
      "manu": 7099,
      "to discuss further": 7100,
      "A financial ": 7101,
      "acceptable ": 7102,
      "resources to ": 7103,
      "Nummer ": 7104,
      "possibly due to ": 7105,
      "informed investment decision": 7106,
      "advice on ": 7107,
      "limited ": 7108,
      "ambigu": 7109,
      "öß": 7110,
      "e und ": 7111,
      "tern ": 7112,
      "more specific ": 7113,
      "my own ": 7114,
      "bitte um ": 7115,
      "close reason ": 7116,
      "darüber ": 7117,
      "yourself ": 7118,
      "Integrität und ": 7119,
      "30": 7120,
      "Eff": 7121,
      "Wik": 7122,
      "car": 7123,
      "conver": 7124,
      "we'll ": 7125,
      "closed, ": 7126,
      "chann": 7127,
      "experience": 7128,
      "implementier": 7129,
      "improve our ": 7130,
      "growth": 7131,
      "reaching out regarding the ": 7132,
      "Meta": 7133,
      "Schritte": 7134,
      "shows ": 7135,
      "operational ": 7136,
      "kommen ": 7137,
      "Konfiguration ": 7138,
      "Analytics ": 7139,
      "Sal": 7140,
      "ci": 7141,
      "daten ": 7142,
      "für ein ": 7143,
      "thinking ": 7144,
      "edit the ": 7145,
      "unseres ": 7146,
      "find out ": 7147,
      "maintain": 7148,
      "strategy": 7149,
      "business": 7150,
      "script ": 7151,
      "frequently ": 7152,
      "agree": 7153,
      "[Tel ": 7154,
      "perfectly ": 7155,
      "Docker ": 7156,
      "Zugriffskontroll": 7157,
      "counter": 7158,
      "tiven": 7159,
      ", to ": 7160,
      "it. ": 7161,
      "sud": 7162,
      "oll": 7163,
      "Thank you": 7164,
      "Project ": 7165,
      "data synchronization ": 7166,
      "format ": 7167,
      "zur Integration von ": 7168,
      "part ": 7169,
      "works ": 7170,
      "anyway": 7171,
      "I've been ": 7172,
      "a bad ": 7173,
      "Einricht": 7174,
      "image": 7175,
      "Superuser ": 7176,
      "inform me ": 7177,
      "long-": 7178,
      "server overload": 7179,
      "subjective ": 7180,
      "encryption method": 7181,
      "language ": 7182,
      "zwischen ": 7183,
      "CPU": 7184,
      "core ": 7185,
      "uses ": 7186,
      "tigen ": 7187,
      "products and ": 7188,
      "conflicts. ": 7189,
      "course of ": 7190,
      "ernst und ": 7191,
      "s\"": 7192,
      "swi": 7193,
      "  ": 7194,
      "teile ": 7195,
      "mag": 7196,
      "igkeit": 7197,
      ", I don't ": 7198,
      "en. Dies ": 7199,
      "effectively": 7200,
      ". In the ": 7201,
      "impact on ": 7202,
      "Praktiken ": 7203,
      "favorite ": 7204,
      "Her": 7205,
      "extra ": 7206,
      "outlin": 7207,
      "mistak": 7208,
      "concerned ": 7209,
      "Berich": 7210,
      "issue, could you please provide ": 7211,
      "migrated to ": 7212,
      "würde gerne ": 7213,
      "rebooting the ": 7214,
      "hard to ": 7215,
      "MMMM": 7216,
      "Desk": 7217,
      "prioriti": 7218,
      "adequ": 7219,
      "\" or \"": 7220,
      "archi": 7221,
      "s on the ": 7222,
      "lex": 7223,
      "tery": 7224,
      "ity of the ": 7225,
      "adding ": 7226,
      "helps ": 7227,
      "through": 7228,
      ". Das Problem ": 7229,
      "designed to ": 7230,
      "quality": 7231,
      "effektiv": 7232,
      "strong ": 7233,
      "you are experiencing": 7234,
      "mir": 7235,
      "pic": 7236,
      "uni": 7237,
      "ists ": 7238,
      "is currently ": 7239,
      "I do ": 7240,
      "wirel": 7241,
      "it doesn't ": 7242,
      "That's ": 7243,
      "upload": 7244,
      "bestim": 7245,
      "register": 7246,
      "figure ": 7247,
      "is a good ": 7248,
      "ly.\n": 7249,
      "this, ": 7250,
      "is not a ": 7251,
      "maintain ": 7252,
      "Produkt": 7253,
      "Service, ": 7254,
      "verschiedenen ": 7255,
      "online presence and ": 7256,
      "portfolio ": 7257,
      "1/": 7258,
      "fas": 7259,
      "hold ": 7260,
      "the exact ": 7261,
      "reopen ": 7262,
      "itly ": 7263,
      "med": 7264,
      "sig": 7265,
      "the-": 7266,
      ". I would be happy to ": 7267,
      "investigation and ": 7268,
      "needed ": 7269,
      "giving ": 7270,
      ". Ich habe ": 7271,
      "idea": 7272,
      "faq": 7273,
      "weiteren ": 7274,
      "piec": 7275,
      "external ": 7276,
      "), but ": 7277,
      "äf": 7278,
      "input ": 7279,
      "ore": 7280,
      "come to ": 7281,
      "managing ": 7282,
      "interpre": 7283,
      ". If needed, we can ": 7284,
      "priv": 7285,
      "efforts. ": 7286,
      "resulting ": 7287,
      "customized ": 7288,
      "determine ": 7289,
      "requirements and ": 7290,
      "employe": 7291,
      "MySQL ": 7292,
      "famili": 7293,
      "ne ": 7294,
      "context ": 7295,
      "have no ": 7296,
      "perc": 7297,
      "Systema": 7298,
      "s? We ": 7299,
      "enhance our ": 7300,
      "Fire": 7301,
      "meeting ": 7302,
      "Fragen ": 7303,
      "IP ": 7304,
      "failed ": 7305,
      "aran": 7306,
      "it seems ": 7307,
      "permission": 7308,
      "Data": 7309,
      "could you ": 7310,
      "implementation": 7311,
      "unauthorized access to ": 7312,
      "any error messages you are ": 7313,
      "shouldn't be ": 7314,
      "!!": 7315,
      "HP ": 7316,
      "dail": 7317,
      "to have ": 7318,
      "ook ": 7319,
      "? (": 7320,
      "timate ": 7321,
      "downtime ": 7322,
      "restarted the ": 7323,
      "necessary": 7324,
      "necessary to ": 7325,
      "to discuss this further.\n": 7326,
      "Nutzung von ": 7327,
      "weitere Informationen benötig": 7328,
      "funktion": 7329,
      "Fehlerbehebung ": 7330,
      "Hello Customer Support, I am ": 7331,
      "Apache ": 7332,
      "Li": 7333,
      "Soc": 7334,
      "ale ": 7335,
      "head ": 7336,
      "ments, ": 7337,
      ", die Sie ": 7338,
      "Also, ": 7339,
      "malfunction": 7340,
      "to call at <tel_num> ": 7341,
      "verstehe ": 7342,
      "unauthorized access attempt ": 7343,
      "--------": 7344,
      "(\"": 7345,
      "* ": 7346,
      "Bo": 7347,
      "issues, ": 7348,
      "security audit": 7349,
      "Ihre Anfrage ": 7350,
      "s? I would ": 7351,
      "effectiven": 7352,
      ". To better assist you": 7353,
      "zurückzuführen sein": 7354,
      "behavior ": 7355,
      "Office ": 7356,
      "Management ": 7357,
      "4.": 7358,
      "MAT": 7359,
      "Risi": 7360,
      "meant ": 7361,
      "bewähr": 7362,
      "to discuss further.\n": 7363,
      "these questions ": 7364,
      "taken, ": 7365,
      "count ": 7366,
      "programming ": 7367,
      ". Trotz ": 7368,
      "Ergebnisse ": 7369,
      "Dashboard": 7370,
      "cool ": 7371,
      "Integrität und Verfügbarkeit ": 7372,
      "… ": 7373,
      "ess, ": 7374,
      "es. Please ": 7375,
      "age, ": 7376,
      "or software ": 7377,
      "en, welche ": 7378,
      "ing. ": 7379,
      ".  So ": 7380,
      "eine schnelle ": 7381,
      "underlying ": 7382,
      "clean ": 7383,
      "connections ": 7384,
      "im Vor": 7385,
      "I'd like to ": 7386,
      "Internet ": 7387,
      "badge ": 7388,
      "? This will help us ": 7389,
      "assistance in resolving this matter ": 7390,
      "resolution.\n": 7391,
      "ately": 7392,
      "relevante ": 7393,
      "nature ": 7394,
      "Excel ": 7395,
      "is required to ": 7396,
      "Ke": 7397,
      "lif": 7398,
      "schedule a ": 7399,
      "über den ": 7400,
      "detailed information about the ": 7401,
      "zuruf": 7402,
      "decision-making ": 7403,
      "to reach you ": 7404,
      "45": 7405,
      "Mit": 7406,
      "t zu ": 7407,
      "tig ": 7408,
      "to your ": 7409,
      "ital ": 7410,
      "attract ": 7411,
      "for that ": 7412,
      "an edit ": 7413,
      "ed. ": 7414,
      "ried ": 7415,
      "provide information on ": 7416,
      "new users ": 7417,
      "Windows 7 ": 7418,
      "Clos": 7419,
      "called ": 7420,
      "experti": 7421,
      "Meth": 7422,
      "Studio ": 7423,
      "MATLA": 7424,
      "After ": 7425,
      "[Your ": 7426,
      "ecause ": 7427,
      "Thank": 7428,
      "gesetz": 7429,
      ". Some ": 7430,
      "examples of ": 7431,
      "security protocols and ": 7432,
      "interest in our ": 7433,
      "history ": 7434,
      "en. Gerne ": 7435,
      "a specific ": 7436,
      "asks ": 7437,
      "already tried ": 7438,
      "something that ": 7439,
      "Erste ": 7440,
      "IT-Systemen ": 7441,
      "personalized ": 7442,
      "fäh": 7443,
      "years ": 7444,
      "2021 ": 7445,
      "reaching out to inquire about the ": 7446,
      "describ": 7447,
      "minutes ": 7448,
      "visibility and ": 7449,
      "told ": 7450,
      "stör": 7451,
      "exchange ": 7452,
      "schri": 7453,
      "reading ": 7454,
      "Custom": 7455,
      "point of ": 7456,
      "vote to ": 7457,
      "fair ": 7458,
      "more": 7459,
      "root cause of the ": 7460,
      "enhancement ": 7461,
      "Vertraulichkeit, ": 7462,
      "Customer Support,\\n\\n": 7463,
      "15 ": 7464,
      "Dig": 7465,
      "Dynam": 7466,
      "Fäh": 7467,
      "lost ": 7468,
      "nu": 7469,
      "nö": 7470,
      "in some ": 7471,
      "in Bezug ": 7472,
      "beobach": 7473,
      "ung Ihrer ": 7474,
      "ully ": 7475,
      "track ": 7476,
      "if there are ": 7477,
      "solutions.\n": 7478,
      "keen ": 7479,
      "en Di": 7480,
      "Investig": 7481,
      "protecting ": 7482,
      "firmware ": 7483,
      "brand growth and ": 7484,
      "streamline ": 7485,
      "Datensper": 7486,
      "fal": 7487,
      "mus": 7488,
      "one's ": 7489,
      ". Falls ": 7490,
      "let": 7491,
      "for some ": 7492,
      "ed, but ": 7493,
      "being a ": 7494,
      "about this ": 7495,
      "Antivir": 7496,
      "bile ": 7497,
      "problem, ": 7498,
      "generic ": 7499,
      "here.  ": 7500,
      "en. Um die ": 7501,
      "contribute ": 7502,
      "danken ": 7503,
      "schnellst": 7504,
      "couldn't ": 7505,
      "erte ": 7506,
      "the necessary ": 7507,
      "is an ": 7508,
      ". We would be happy to ": 7509,
      "heben": 7510,
      "Customer support ": 7511,
      "break": 7512,
      "missing ": 7513,
      "disruption ": 7514,
      "SaaS-Projektmanagement-": 7515,
      "optimize investment ": 7516,
      "submitting a ": 7517,
      "atively ": 7518,
      "for further discussion.\n": 7519,
      "Fallstudi": 7520,
      "TL": 7521,
      "hold": 7522,
      "x-": 7523,
      "stric": 7524,
      "set of ": 7525,
      "ance, and ": 7526,
      "vote to close ": 7527,
      "performance and ": 7528,
      "Updat": 7529,
      "inquiring ": 7530,
      "falls Sie ": 7531,
      ". Alternatively, ": 7532,
      "administrator": 7533,
      "Gesundheitsdienstleister ": 7534,
      "from": 7535,
      "however, ": 7536,
      "information to ": 7537,
      "guidance": 7538,
      "desktop": 7539,
      "execu": 7540,
      ". Should ": 7541,
      "eag": 7542,
      "tional ": 7543,
      "with this ": 7544,
      "information is ": 7545,
      "answer and ": 7546,
      "services, ": 7547,
      "Informationen zu den ": 7548,
      "site is ": 7549,
      "site for ": 7550,
      "en. Bitte geben Sie uns ": 7551,
      "improving ": 7552,
      "ools ": 7553,
      "removed": 7554,
      "es. We have ": 7555,
      "slowdown": 7556,
      "router ": 7557,
      ". Dear [Name], we ": 7558,
      "sicherheits": 7559,
      "ering ": 7560,
      "er and ": 7561,
      "lig": 7562,
      "with an ": 7563,
      "today": 7564,
      "any further ": 7565,
      "compon": 7566,
      "answer was ": 7567,
      "links ": 7568,
      "backup ": 7569,
      "automated ": 7570,
      "Altery": 7571,
      "Optimierung von ": 7572,
      "easi": 7573,
      "this issue and ": 7574,
      "details about your ": 7575,
      "Desk ": 7576,
      "becomes ": 7577,
      "Rap": 7578,
      "tives": 7579,
      ", not ": 7580,
      "a post ": 7581,
      "with my ": 7582,
      ". We apologize for the ": 7583,
      "marketing, ": 7584,
      "Ich möchte ": 7585,
      "find the ": 7586,
      "possible solutions ": 7587,
      "digital marketing strategies ": 7588,
      "between the ": 7589,
      "durch die ": 7590,
      "allows ": 7591,
      "proceed": 7592,
      "response to ": 7593,
      "Zusätzlich ": 7594,
      "tment ": 7595,
      "won": 7596,
      ", that ": 7597,
      ", they ": 7598,
      "whi": 7599,
      "with you": 7600,
      "s. We can ": 7601,
      "tag is ": 7602,
      "low quality ": 7603,
      "Firefo": 7604,
      "legal ": 7605,
      "operating system ": 7606,
      "interested in learning about the ": 7607,
      "merksam": 7608,
      "training ": 7609,
      "Security ": 7610,
      "entschuldigen uns für die ": 7611,
      "Sehr geehrter Kundendienst, ": 7612,
      "OO": 7613,
      "anzuruf": 7614,
      "idMin": 7615,
      "who": 7616,
      "or not ": 7617,
      "lots of ": 7618,
      "frus": 7619,
      "möchten wir ": 7620,
      "general": 7621,
      "patient data": 7622,
      "en. Falls Sie ": 7623,
      "available for a call at your ": 7624,
      "listed ": 7625,
      "RapidMin": 7626,
      " to ": 7627,
      "20 ": 7628,
      "n, ": 7629,
      "I feel ": 7630,
      "exist ": 7631,
      "deren ": 7632,
      "us at <tel_num> ": 7633,
      "factor ": 7634,
      "ser Team ": 7635,
      "Windows 10 ": 7636,
      "I don't know ": 7637,
      "Einhalt": 7638,
      "continue": 7639,
      "apologize for any ": 7640,
      "build ": 7641,
      "decide ": 7642,
      "negative ": 7643,
      "neu gestarte": 7644,
      "Dynamics ": 7645,
      "Gi": 7646,
      "consen": 7647,
      "s. Kindly ": 7648,
      "adap": 7649,
      "date and ": 7650,
      "ate to ": 7651,
      "any recent ": 7652,
      "public": 7653,
      "related": 7654,
      "schedule a call at a convenient time ": 7655,
      "knowledge": 7656,
      "Einstellungen ": 7657,
      "digital marketing campaign": 7658,
      "encryption and ": 7659,
      "potentially due to ": 7660,
      "Verschlüsselungs": 7661,
      "dashboard ": 7662,
      "reinstalling ": 7663,
      "Telefonnummer ": 7664,
      "Implementierung ": 7665,
      "enthusias": 7666,
      "circum": 7667,
      "Bit": 7668,
      "sätz": 7669,
      "t\" ": 7670,
      "and not ": 7671,
      "zu optimier": 7672,
      "zu einem ": 7673,
      "question that ": 7674,
      "en. Für ": 7675,
      "custom ": 7676,
      "by a ": 7677,
      "prin": 7678,
      "change the ": 7679,
      "sichtlich ": 7680,
      "Einblic": 7681,
      "Preis": 7682,
      "Aufmerksam": 7683,
      "inquiry regarding ": 7684,
      "customer support team ": 7685,
      "Kontakt auf": 7686,
      "Vertraulichkeit, Integrität und Verfügbarkeit ": 7687,
      "]\n": 7688,
      "job": 7689,
      "es. The ": 7690,
      "men, ": 7691,
      "perform ": 7692,
      "rid ": 7693,
      "data analysis": 7694,
      "vend": 7695,
      ". Please share ": 7696,
      "paramet": 7697,
      "Could you please ": 7698,
      "helping ": 7699,
      "wurd": 7700,
      "performance. ": 7701,
      "reflec": 7702,
      "ein geeignetes Zeitfenster ": 7703,
      ". However": 7704,
      "prompt response": 7705,
      "OS X ": 7706,
      "proposed ": 7707,
      "explicitly ": 7708,
      "e ich ": 7709,
      "us-": 7710,
      "in the first ": 7711,
      "in the right ": 7712,
      "let us know": 7713,
      "referenc": 7714,
      "error messages and ": 7715,
      "Currently ": 7716,
      "erheblich ": 7717,
      "Dear Customer Service, ": 7718,
      "bare ": 7719,
      "pe ": 7720,
      "äre ": 7721,
      "using a ": 7722,
      "on that ": 7723,
      "deleting ": 7724,
      "learn": 7725,
      "multi-": 7726,
      "expected": 7727,
      "Auth": 7728,
      "prefer to ": 7729,
      "authentication ": 7730,
      "1.": 7731,
      "ither ": 7732,
      "and a ": 7733,
      "stup": 7734,
      "it will be ": 7735,
      "adjust ": 7736,
      "und das ": 7737,
      "en, ob ": 7738,
      ". That's ": 7739,
      "rule ": 7740,
      ". If you have ": 7741,
      "Experi": 7742,
      "problems with the ": 7743,
      "100 ": 7744,
      "Is this ": 7745,
      "at your convenience ": 7746,
      "long as ": 7747,
      "Vertraulichkeit ": 7748,
      "vermute": 7749,
      "danke ": 7750,
      "gur": 7751,
      "hy": 7752,
      "jo": 7753,
      "enten ": 7754,
      "influ": 7755,
      "stated ": 7756,
      "that it's ": 7757,
      "edu": 7758,
      "gefähr": 7759,
      "dep": 7760,
      "identifi": 7761,
      "contact <tel_num> to discuss ": 7762,
      "restart ": 7763,
      "im Bereich ": 7764,
      "referr": 7765,
      "en. Darüber hinaus ": 7766,
      "Engl": 7767,
      "protection ": 7768,
      "Maßnahmen": 7769,
      "I don't see ": 7770,
      "similar": 7771,
      "schedule a call to discuss the ": 7772,
      "letzungen ": 7773,
      "propose ": 7774,
      "screen ": 7775,
      "is needed to resolve ": 7776,
      "-> ": 7777,
      "Mit freundlichen Grüß": 7778,
      "eti": 7779,
      "ume ": 7780,
      "wro": 7781,
      "robus": 7782,
      "s, could you please provide ": 7783,
      "en, jedoch ": 7784,
      "content, ": 7785,
      "en, um das ": 7786,
      "goD": 7787,
      "when they ": 7788,
      "very seriously ": 7789,
      "potenzielle ": 7790,
      "rows ": 7791,
      "logs and ": 7792,
      "cache ": 7793,
      "Perhaps ": 7794,
      "healthcare provider ": 7795,
      "eine geeignete Zeit ": 7796,
      "and integrity of ": 7797,
      "arante": 7798,
      ".)": 7799,
      "Camp": 7800,
      "[Telefonnummer": 7801,
      "wher": 7802,
      "with no ": 7803,
      "trig": 7804,
      "details.\n": 7805,
      "time for ": 7806,
      "there was ": 7807,
      "?  The ": 7808,
      "<name>,\\n\\n": 7809,
      "zusammen": 7810,
      "reasonable ": 7811,
      "Fehlermeldung": 7812,
      "makes it ": 7813,
      "positive ": 7814,
      "schnellstmöglich ": 7815,
      "<Name": 7816,
      "Fi ": 7817,
      "ele": 7818,
      "gain": 7819,
      "enab": 7820,
      "produk": 7821,
      "I hope ": 7822,
      "be able to ": 7823,
      "s. Our ": 7824,
      ". There's ": 7825,
      ". I'd ": 7826,
      "This question ": 7827,
      "system, ": 7828,
      "make sure ": 7829,
      "sites, ": 7830,
      "next steps ": 7831,
      "reaching out to us regarding the ": 7832,
      "Recent ": 7833,
      "Besprech": 7834,
      "electron": 7835,
      "HIPAA ": 7836,
      "page, ": 7837,
      "attack": 7838,
      "en Dienst": 7839,
      "JIR": 7840,
      "denti": 7841,
      ". Sie ": 7842,
      "releas": 7843,
      "is this ": 7844,
      "thermore, ": 7845,
      "would be highly ": 7846,
      "integration proces": 7847,
      "digitalen Strategien ": 7848,
      "block ": 7849,
      "mehr Details zu ": 7850,
      "ungen zu treff": 7851,
      "therefore ": 7852,
      "I'm not sure ": 7853,
      "365 ": 7854,
      "verwendeten ": 7855,
      "i.e. ": 7856,
      "info ": 7857,
      "<Name>": 7858,
      "JIRA ": 7859,
      "aking ": 7860,
      "wo": 7861,
      "en?\n": 7862,
      "ten und die ": 7863,
      "guarante": 7864,
      "curi": 7865,
      "mehr Informationen zu ": 7866,
      "data analytics tools ": 7867,
      "zusetz": 7868,
      "investigate this matter ": 7869,
      "compatibility issues ": 7870,
      "developer": 7871,
      "schedule a call at your earliest ": 7872,
      "MongoD": 7873,
      "-url": 7874,
      "Possible ": 7875,
      "vast ": 7876,
      "es? ": 7877,
      "atory ": 7878,
      "and how ": 7879,
      "in their ": 7880,
      "optionen ": 7881,
      ".  But ": 7882,
      "to discuss further ": 7883,
      "convenience, ": 7884,
      "gives ": 7885,
      "comments, ": 7886,
      "? We are ": 7887,
      "bald von Ihnen zu hör": 7888,
      "laptop ": 7889,
      "temporary ": 7890,
      "Elasticsearch ": 7891,
      "Präsenz ": 7892,
      "Mal": 7893,
      "nor ": 7894,
      "utier": 7895,
      "zie": 7896,
      "s is ": 7897,
      ". Vielen Dank für Ihre ": 7898,
      "tele": 7899,
      "etwa": 7900,
      "geprüf": 7901,
      "would have ": 7902,
      "Provid": 7903,
      "können uns ": 7904,
      "What is the ": 7905,
      "hinsichtlich ": 7906,
      "Stack Exchange": 7907,
      "version of the ": 7908,
      "Users ": 7909,
      "CRM": 7910,
      "Analytics-": 7911,
      "TC ": 7912,
      "bis": 7913,
      "eg": 7914,
      "ra ": 7915,
      "vet": 7916,
      "lead ": 7917,
      "stay ": 7918,
      "an unexpected ": 7919,
      "tential ": 7920,
      "users, ": 7921,
      "specify the ": 7922,
      "interfac": 7923,
      "faced ": 7924,
      "review and ": 7925,
      "I've seen ": 7926,
      "glad to ": 7927,
      "Auswir": 7928,
      "serious ": 7929,
      "verursacht ": 7930,
      "verfügbar ": 7931,
      "tracking ": 7932,
      "funktionen ": 7933,
      "looks like ": 7934,
      "clarify ": 7935,
      "Suchmaschin": 7936,
      "tin": 7937,
      "t. Ich ": 7938,
      "s from ": 7939,
      "reduc": 7940,
      "align": 7941,
      "for an ": 7942,
      "heav": 7943,
      "concep": 7944,
      "unserem ": 7945,
      "memory ": 7946,
      "via email": 7947,
      "serious": 7948,
      "security measures to ": 7949,
      "limitations ": 7950,
      "guidelines ": 7951,
      "Kampagnen": 7952,
      "[name]": 7953,
      "according": 7954,
      "predictive ": 7955,
      "wiederh": 7956,
      "Smartsheet ": 7957,
      "]: http://": 7958,
      "18": 7959,
      "S-": 7960,
      "nice ": 7961,
      "oca": 7962,
      "s like ": 7963,
      "on SU ": 7964,
      "assand": 7965,
      "somebody ": 7966,
      "ailed": 7967,
      "sync": 7968,
      ". We will investigate the ": 7969,
      "book": 7970,
      ", dass die ": 7971,
      "tify ": 7972,
      "half ": 7973,
      "self-": 7974,
      ". Also, ": 7975,
      "prozesse ": 7976,
      "Zielgruppen": 7977,
      "precise ": 7978,
      "wären ": 7979,
      "Cassand": 7980,
      "Git": 7981,
      "e.\n": 7982,
      "nar": 7983,
      ", wenn Sie ": 7984,
      "loca": 7985,
      "second": 7986,
      "\" is ": 7987,
      "should not be ": 7988,
      "get started": 7989,
      "system is ": 7990,
      "Datensicher": 7991,
      "mail ": 7992,
      "visible ": 7993,
      "pattern": 7994,
      "hilfreich": 7995,
      ". Kindly provide ": 7996,
      "risk": 7997,
      "aufgrund von ": 7998,
      "freuen uns darauf, ": 7999,
      "laptop": 8000,
      "method ": 8001,
      "s ago ": 8002,
      "criteria ": 8003,
      "Twit": 8004,
      "ban ": 8005,
      "sbesondere ": 8006,
      "at this ": 8007,
      "note": 8008,
      "analysier": 8009,
      "ted, but ": 8010,
      "prise ": 8011,
      "help you ": 8012,
      "sense": 8013,
      "look at the ": 8014,
      "review queu": 8015,
      "zu besprechen. ": 8016,
      "settings ": 8017,
      "Besonders ": 8018,
      "malware ": 8019,
      "create a ": 8020,
      "together": 8021,
      "utilizing ": 8022,
      "Technik": 8023,
      "style ": 8024,
      "smart ": 8025,
      "Must be ": 8026,
      "##": 8027,
      "GIF": 8028,
      "ded to ": 8029,
      "w.": 8030,
      "the post ": 8031,
      "uplic": 8032,
      "your community ": 8033,
      "providing a ": 8034,
      "ffer": 8035,
      "we need to ": 8036,
      "do with ": 8037,
      "cleared ": 8038,
      "Note": 8039,
      "runn": 8040,
      "version of ": 8041,
      "ohne ": 8042,
      "verify ": 8043,
      "zeiten ": 8044,
      "symptoms ": 8045,
      "absolutely ": 8046,
      "Geschäf": 8047,
      "For": 8048,
      "pus": 8049,
      "wind": 8050,
      "the right ": 8051,
      "don't have ": 8052,
      "break ": 8053,
      "Kontaktier": 8054,
      "Können Sie ": 8055,
      "It is ": 8056,
      "enhance the ": 8057,
      "Consid": 8058,
      ". Hel": 8059,
      "ausführ": 8060,
      "arrange a call at your ": 8061,
      "develop ": 8062,
      "Ziel ": 8063,
      "gehend ": 8064,
      "encryption, access controls, and ": 8065,
      "extrem": 8066,
      "AWS ": 8067,
      "pac": 8068,
      "escal": 8069,
      "roß": 8070,
      "it has ": 8071,
      "live ": 8072,
      "an der ": 8073,
      "and the exact ": 8074,
      "digital campaign ": 8075,
      "Lösung": 8076,
      "Sicherheitsl": 8077,
      "IT-Systeme ": 8078,
      "Neustarts ": 8079,
      "Diskussion": 8080,
      "scheduling ": 8081,
      "slightly ": 8082,
      "Spo": 8083,
      "yes": 8084,
      "z.B": 8085,
      "ile the ": 8086,
      "ide ": 8087,
      "expres": 8088,
      "ood": 8089,
      "pre-": 8090,
      "einen passenden Zeitpunkt ": 8091,
      "Konto": 8092,
      "darauf ": 8093,
      "Zugang": 8094,
      "too much ": 8095,
      "susp": 8096,
      "Angelegenheit": 8097,
      "Optimierung der ": 8098,
      "vulnerability ": 8099,
      "talk ": 8100,
      ". Fur": 8101,
      "hasn't ": 8102,
      "bietet ": 8103,
      "arbeitet ": 8104,
      "64": 8105,
      "W ": 8106,
      "] and ": 8107,
      "remember ": 8108,
      "this issue. ": 8109,
      "provides ": 8110,
      "if it's ": 8111,
      "more details on ": 8112,
      "to discuss the issue ": 8113,
      "help c": 8114,
      "I am interested in ": 8115,
      "cover ": 8116,
      "even though ": 8117,
      "site to ": 8118,
      "Vorteile ": 8119,
      "superuser.com ": 8120,
      "Website ": 8121,
      "increasing ": 8122,
      "With ": 8123,
      "a call.\n": 8124,
      "reinstalling the ": 8125,
      "closure ": 8126,
      ". If necessary, we can ": 8127,
      "e: ": 8128,
      "tä": 8129,
      "t. Die ": 8130,
      "ineffective ": 8131,
      "aler": 8132,
      "vertrau": 8133,
      "an un": 8134,
      "s.   ": 8135,
      "default ": 8136,
      "bud": 8137,
      "eich": 8138,
      "I am not ": 8139,
      "low-": 8140,
      "take a ": 8141,
      "Sehr geehrte Kundensupport, ": 8142,
      "? We will ": 8143,
      "a lot ": 8144,
      "reply ": 8145,
      "look forward to hearing back soon": 8146,
      "32": 8147,
      "Hin": 8148,
      "Sor": 8149,
      "inde": 8150,
      "verbind": 8151,
      "productivity ": 8152,
      "Examp": 8153,
      "project management SaaS platform": 8154,
      ". Since ": 8155,
      "most of the ": 8156,
      "account <acc_num>.\n": 8157,
      "disrupting ": 8158,
      "Online ": 8159,
      "efficient ": 8160,
      "kindly request your ": 8161,
      "oß ": 8162,
      "Lieber ": 8163,
      "Metho": 8164,
      "os ": 8165,
      "ry": 8166,
      ", because ": 8167,
      "to \"": 8168,
      "ety of ": 8169,
      "I need ": 8170,
      "Thank you for ": 8171,
      "bean": 8172,
      "noch ": 8173,
      ". We": 8174,
      ".  In ": 8175,
      "genu": 8176,
      "earn ": 8177,
      "reporting the ": 8178,
      "a question that ": 8179,
      "suggestion ": 8180,
      "has been detec": 8181,
      "handling ": 8182,
      "wird": 8183,
      "hardware and ": 8184,
      ". Let's ": 8185,
      "resetting ": 8186,
      "Verstän": 8187,
      "tonum": 8188,
      "rows affected ": 8189,
      "öch": 8190,
      "is still ": 8191,
      "en. Zudem ": 8192,
      "question, and ": 8193,
      "flus": 8194,
      "ller": 8195,
      "ready to ": 8196,
      "fact, ": 8197,
      "Kontonum": 8198,
      "Dear Support ": 8199,
      "much more ": 8200,
      "überlas": 8201,
      "impacting the ": 8202,
      "assistance in resolving this matter": 8203,
      "regulation": 8204,
      "candidat": 8205,
      "Auswirkungen ": 8206,
      "Hado": 8207,
      "Mail": 8208,
      "uch": 8209,
      "stand ": 8210,
      "maxim": 8211,
      "agency ": 8212,
      "upvoted ": 8213,
      "this message ": 8214,
      "would appreciate ": 8215,
      "ized": 8216,
      "integration capabiliti": 8217,
      "people are ": 8218,
      "after a ": 8219,
      "reason for ": 8220,
      "cause of the ": 8221,
      "-Medi": 8222,
      "per E-Mail ": 8223,
      "000 ": 8224,
      "? This information will help us ": 8225,
      "Abst": 8226,
      "konfiguration ": 8227,
      "sign ": 8228,
      "daily ": 8229,
      "easier to ": 8230,
      "extremely ": 8231,
      "=\"": 8232,
      "Done ": 8233,
      "Use ": 8234,
      "ible ": 8235,
      "tan": 8236,
      "usel": 8237,
      "lieb": 8238,
      ".  You ": 8239,
      "questions tagged ": 8240,
      "See ": 8241,
      "Rechn": 8242,
      "to resolve the problem ": 8243,
      "correct": 8244,
      "visitor": 8245,
      "necessarily ": 8246,
      "benefit": 8247,
      "purpose ": 8248,
      "en, dass die ": 8249,
      "willing to ": 8250,
      "Unix ": 8251,
      "threat": 8252,
      "SAP ERP ": 8253,
      "diskutier": 8254,
      "a bounty ": 8255,
      "channel": 8256,
      "Sales": 8257,
      "DataRo": 8258,
      "TC": 8259,
      "TM": 8260,
      "pages ": 8261,
      "replac": 8262,
      "compan": 8263,
      "saf": 8264,
      "asker ": 8265,
      "make a ": 8266,
      "person who ": 8267,
      "expan": 8268,
      ". Das Team ": 8269,
      "xxxx": 8270,
      "behilflich zu sein": 8271,
      "DN": 8272,
      "Fall ": 8273,
      "Of ": 8274,
      "contain ": 8275,
      "deb": 8276,
      "question about ": 8277,
      "izing ": 8278,
      "believ": 8279,
      "present ": 8280,
      "solutions for ": 8281,
      "Rückmeldung": 8282,
      "möglicherweise auf ": 8283,
      "character": 8284,
      "nature of the ": 8285,
      "!\n": 8286,
      "hol": 8287,
      "forum ": 8288,
      "reset ": 8289,
      "questions to ": 8290,
      "\" (": 8291,
      "tagged": 8292,
      "services. ": 8293,
      "caused and ": 8294,
      "below": 8295,
      "too many ": 8296,
      "duplicates ": 8297,
      "downvote": 8298,
      "router": 8299,
      "procedur": 8300,
      "totally ": 8301,
      "trends and ": 8302,
      "leverage ": 8303,
      "microsoft-": 8304,
      "Elec": 8305,
      "PD": 8306,
      "Set": 8307,
      "groß": 8308,
      "iellen ": 8309,
      "tactic": 8310,
      "yond ": 8311,
      "termin": 8312,
      "answers.  ": 8313,
      "questions in ": 8314,
      "they don't ": 8315,
      "wert": 8316,
      "evid": 8317,
      "pointed ": 8318,
      "than the ": 8319,
      "solution to ": 8320,
      "close reason": 8321,
      "s. To better understand the ": 8322,
      "options and ": 8323,
      "Microsoft Dynamics ": 8324,
      "Aktualisierungen ": 8325,
      "show up ": 8326,
      "behavior": 8327,
      "Workflow": 8328,
      "assist us in ": 8329,
      "helfen zu können, ": 8330,
      "activiti": 8331,
      "Here's ": 8332,
      "ators ": 8333,
      "upon ": 8334,
      "zu geb": 8335,
      "? Ich ": 8336,
      "today ": 8337,
      "alloca": 8338,
      "was not ": 8339,
      "regist": 8340,
      "may need to ": 8341,
      "leistungen ": 8342,
      "involve ": 8343,
      "opinion-": 8344,
      "easy ": 8345,
      "diesem ": 8346,
      "happened ": 8347,
      ". On ": 8348,
      "interessiert, ": 8349,
      "<name>, vielen Dank für Ihre ": 8350,
      "gemelde": 8351,
      "Caches ": 8352,
      "steigern": 8353,
      "where": 8354,
      "en, was ": 8355,
      "recurr": 8356,
      "viously ": 8357,
      "e, or ": 8358,
      "mobile ": 8359,
      "strategie ": 8360,
      "investment strategies ": 8361,
      "primar": 8362,
      "the problem remains unresolved": 8363,
      "Name] ": 8364,
      "prüfen und ": 8365,
      "delays ": 8366,
      "security measures ": 8367,
      "begin": 8368,
      "Answer ": 8369,
      "gewünsch": 8370,
      "at your earliest convenience": 8371,
      "Kompatibilitätsprobleme ": 8372,
      "opportunity ": 8373,
      "Authentifizier": 8374,
      "Experienc": 8375,
      "?) ": 8376,
      "indem ": 8377,
      "then": 8378,
      "ago ": 8379,
      "spl": 8380,
      "may not ": 8381,
      "das Problem behält ": 8382,
      "I would appreciate ": 8383,
      ", I think ": 8384,
      "server and ": 8385,
      "websites ": 8386,
      "überwach": 8387,
      "onym": 8388,
      "Konfigurations": 8389,
      "gather more ": 8390,
      "unch of ": 8391,
      "bitten um ": 8392,
      "long-term ": 8393,
      " or ": 8394,
      "Can": 8395,
      "äu": 8396,
      "t die ": 8397,
      "unanswered ": 8398,
      "a single ": 8399,
      "usual ": 8400,
      "urch ": 8401,
      "you will ": 8402,
      "nobody ": 8403,
      "ts on ": 8404,
      "all of the ": 8405,
      ". Immediate ": 8406,
      "my question": 8407,
      "       ": 8408,
      "tools. ": 8409,
      "user who ": 8410,
      "obsole": 8411,
      "Konflik": 8412,
      "effort": 8413,
      "digitaler ": 8414,
      "before the ": 8415,
      "showing ": 8416,
      "to prevent future ": 8417,
      "vulnerabilities ": 8418,
      "security of medical data ": 8419,
      "sysadmin ": 8420,
      "erfolgreich": 8421,
      "Krankenhäuser": 8422,
      "apologize for any inconvenience ": 8423,
      "pip": 8424,
      "zug": 8425,
      "has not ": 8426,
      "discuss this ": 8427,
      "imgur": 8428,
      "know that ": 8429,
      "they were ": 8430,
      "minary ": 8431,
      "Unterbrech": 8432,
      ", um den ": 8433,
      "you are using": 8434,
      "to be a ": 8435,
      "too broad": 8436,
      "gern ": 8437,
      "baldige ": 8438,
      "failur": 8439,
      "Team, ": 8440,
      "there's a ": 8441,
      "your question is ": 8442,
      "fact that ": 8443,
      "monitoring ": 8444,
      ". Is there ": 8445,
      "adequate ": 8446,
      "Methoden ": 8447,
      "At ": 8448,
      "one. ": 8449,
      "orrek": 8450,
      "unfortunately, ": 8451,
      "wide ": 8452,
      "meine ": 8453,
      "sible": 8454,
      "bemüh": 8455,
      "tere ": 8456,
      "offers ": 8457,
      ". Der ": 8458,
      "guidance or ": 8459,
      "configuration and ": 8460,
      "Compu": 8461,
      "Shop": 8462,
      "badges ": 8463,
      ". Für ": 8464,
      "occasional ": 8465,
      "Kubernetes ": 8466,
      "fördern": 8467,
      ". Hello": 8468,
      "-up ": 8469,
      ".stackexchange": 8470,
      "lus": 8471,
      "forec": 8472,
      "diam": 8473,
      "stack ": 8474,
      "term": 8475,
      "t, was ": 8476,
      "data access ": 8477,
      "minor ": 8478,
      "digital strategies to ": 8479,
      ". It would be ": 8480,
      "Beteilig": 8481,
      "someone who ": 8482,
      "function ": 8483,
      "bezüglich des ": 8484,
      "checked ": 8485,
      ". Please let me know a suitable time ": 8486,
      "skalier": 8487,
      "Is it possible to ": 8488,
      "draw ": 8489,
      "touch ": 8490,
      "WordPres": 8491,
      "zieh": 8492,
      "Cassandra ": 8493,
      "OK": 8494,
      "the tag ": 8495,
      "tech ": 8496,
      "action to ": 8497,
      "in die ": 8498,
      "configured ": 8499,
      "audits ": 8500,
      "ship": 8501,
      "any potential ": 8502,
      "n und die ": 8503,
      "answer.  ": 8504,
      "problem, could you please provide ": 8505,
      "gibt ": 8506,
      "random ": 8507,
      "ideas ": 8508,
      "s. The issue ": 8509,
      "come up ": 8510,
      "hospital's system": 8511,
      "complain": 8512,
      "choic": 8513,
      "interested in learning about ": 8514,
      "during peak hour": 8515,
      "title": 8516,
      "background ": 8517,
      "eingesetz": 8518,
      "ES": 8519,
      "VM": 8520,
      "gave ": 8521,
      "intro": 8522,
      "the first ": 8523,
      "to address ": 8524,
      "on their ": 8525,
      "matic": 8526,
      "pping ": 8527,
      "any relevant ": 8528,
      "analyse": 8529,
      "has encountered ": 8530,
      ". Please review the ": 8531,
      "mich erkundig": 8532,
      "here and ": 8533,
      "software-": 8534,
      "images ": 8535,
      "easy to ": 8536,
      "allowed to ": 8537,
      "adjusting ": 8538,
      "safeguard": 8539,
      "Versuche, ": 8540,
      "Passwör": 8541,
      "public ": 8542,
      "<Name>, ": 8543,
      "'t": 8544,
      ".<br><br>": 8545,
      "People ": 8546,
      "unautorisier": 8547,
      "for \"": 8548,
      "ting and ": 8549,
      "dist": 8550,
      "y, but ": 8551,
      "support and ": 8552,
      "medical data system": 8553,
      "encountering": 8554,
      "en? Wir ": 8555,
      "Update": 8556,
      ". Please provide details on the ": 8557,
      "certific": 8558,
      "marked as ": 8559,
      "upgrade ": 8560,
      "geeigneten Zeitpunkt ": 8561,
      "eager to ": 8562,
      ".j": 8563,
      "co ": 8564,
      "join": 8565,
      "stim": 8566,
      "zer": 8567,
      "an, die ": 8568,
      "tip": 8569,
      "there, ": 8570,
      ") to ": 8571,
      "tools are ": 8572,
      "how many ": 8573,
      "I am seeking ": 8574,
      "einen Anruf": 8575,
      "into our ": 8576,
      "end up ": 8577,
      "had a ": 8578,
      "Maßnahmen zur ": 8579,
      "insam ": 8580,
      "to resolve the issue": 8581,
      "Book ": 8582,
      "compromised ": 8583,
      "confidentiality and integrity of ": 8584,
      "Chrome ": 8585,
      "AN": 8586,
      "Fre": 8587,
      "Rat ": 8588,
      "sen ": 8589,
      "enoptimier": 8590,
      ". How ": 8591,
      "ald ": 8592,
      "maz": 8593,
      "verletzung ": 8594,
      "einzu": 8595,
      "discuss": 8596,
      "unternehmen ": 8597,
      "topics ": 8598,
      "addressing ": 8599,
      "Vorschri": 8600,
      "involves ": 8601,
      "useful to ": 8602,
      "affecting multiple ": 8603,
      "payment method": 8604,
      "conducting ": 8605,
      "? I would greatly appreciate any ": 8606,
      "zurückzuführen ist": 8607,
      "approach to ": 8608,
      "explaining ": 8609,
      "statement ": 8610,
      "individual ": 8611,
      "difference between ": 8612,
      "en. Unsere ": 8613,
      "Online-Präsenz ": 8614,
      "group ": 8615,
      "ensuring ": 8616,
      "Prozess ": 8617,
      "wrote ": 8618,
      "/201": 8619,
      "23": 8620,
      "Der ": 8621,
      "Don't ": 8622,
      "Vir": 8623,
      "tima": 8624,
      "che": 8625,
      "a time ": 8626,
      "is very ": 8627,
      "trou": 8628,
      "appe": 8629,
      "a cle": 8630,
      "pedi": 8631,
      "?  I ": 8632,
      "recent algorithm ": 8633,
      "caused": 8634,
      "Sicherheitsma": 8635,
      "accepted": 8636,
      "updates to ": 8637,
      "Chat": 8638,
      "angebo": 8639,
      "have not been ": 8640,
      "besteht weiterhin": 8641,
      "implementation of ": 8642,
      "level of ": 8643,
      "modifications ": 8644,
      "work towards a ": 8645,
      ")   ": 8646,
      "Duplic": 8647,
      "hom": 8648,
      "hit ": 8649,
      "unclear ": 8650,
      "for-": 8651,
      "expos": 8652,
      "seg": 8653,
      "problemen ": 8654,
      "please share ": 8655,
      "within a ": 8656,
      "overload": 8657,
      "? We can ": 8658,
[...]
