{"<s>":0,"<pad>":1,"</s>":2,"<unk>":3,"<mask>":4,"!":5,"\"":6,"#":7,"$":8,"%":9,"&":10,"'":11,"(":12,")":13,"*":14,"+":15,",":16,"-":17,".":18,"/":19,"0":20,"1":21,"2":22,"3":23,"4":24,"5":25,"6":26,"7":27,"8":28,"9":29,":":30,";":31,"<":32,"=":33,">":34,"?":35,"@":36,"A":37,"B":38,"C":39,"D":40,"E":41,"F":42,"G":43,"H":44,"I":45,"J":46,"K":47,"L":48,"M":49,"N":50,"O":51,"P":52,"Q":53,"R":54,"S":55,"T":56,"U":57,"V":58,"W":59,"X":60,"Y":61,"Z":62,"[":63,"\\":64,"]":65,"^":66,"_":67,"`":68,"a":69,"b":70,"c":71,"d":72,"e":73,"f":74,"g":75,"h":76,"i":77,"j":78,"k":79,"l":80,"m":81,"n":82,"o":83,"p":84,"q":85,"r":86,"s":87,"t":88,"u":89,"v":90,"w":91,"x":92,"y":93,"z":94,"{":95,"|":96,"}":97,"~":98,"¡":99,"¢":100,"£":101,"¤":102,"¥":103,"¦":104,"§":105,"¨":106,"©":107,"ª":108,"«":109,"¬":110,"®":111,"¯":112,"°":113,"±":114,"²":115,"³":116,"´":117,"µ":118,"¶":119,"·":120,"¸":121,"¹":122,"º":123,"»":124,"¼":125,"½":126,"¾":127,"¿":128,"À":129,"Á":130,"Â":131,"Ã":132,"Ä":133,"Å":134,"Æ":135,"Ç":136,"È":137,"É":138,"Ê":139,"Ë":140,"Ì":141,"Í":142,"Î":143,"Ï":144,"Ð":145,"Ñ":146,"Ò":147,"Ó":148,"Ô":149,"Õ":150,"Ö":151,"×":152,"Ø":153,"Ù":154,"Ú":155,"Û":156,"Ü":157,"Ý":158,"Þ":159,"ß":160,"à":161,"á":162,"â":163,"ã":164,"ä":165,"å":166,"æ":167,"ç":168,"è":169,"é":170,"ê":171,"ë":172,"ì":173,"í":174,"î":175,"ï":176,"ð":177,"ñ":178,"ò":179,"ó":180,"ô":181,"õ":182,"ö":183,"÷":184,"ø":185,"ù":186,"ú":187,"û":188,"ü":189,"ý":190,"þ":191,"ÿ":192,"Ā":193,"ā":194,"Ă":195,"ă":196,"Ą":197,"ą":198,"Ć":199,"ć":200,"Ĉ":201,"ĉ":202,"Ċ":203,"ċ":204,"Č":205,"č":206,"Ď":207,"ď":208,"Đ":209,"đ":210,"Ē":211,"ē":212,"Ĕ":213,"ĕ":214,"Ė":215,"ė":216,"Ę":217,"ę":218,"Ě":219,"ě":220,"Ĝ":221,"ĝ":222,"Ğ":223,"ğ":224,"Ġ":225,"ġ":226,"Ģ":227,"ģ":228,"Ĥ":229,"ĥ":230,"Ħ":231,"ħ":232,"Ĩ":233,"ĩ":234,"Ī":235,"ī":236,"Ĭ":237,"ĭ":238,"Į":239,"į":240,"İ":241,"ı":242,"Ĳ":243,"ĳ":244,"Ĵ":245,"ĵ":246,"Ķ":247,"ķ":248,"ĸ":249,"Ĺ":250,"ĺ":251,"Ļ":252,"ļ":253,"Ľ":254,"ľ":255,"Ŀ":256,"ŀ":257,"Ł":258,"ł":259,"Ń":260,"Ġt":261,"Ġa":262,"er":263,"en":264,"in":265,"on":266,"Ġth":267,"es":268,"at":269,"Ġs":270,"re":271,"it":272,"Ġd":273,"ou":274,"Ġw":275,"Ġthe":276,"is":277,"or":278,"Ġc":279,"ion":280,"Ġb":281,"Ġan":282,"ing":283,"Ġp":284,"ed":285,"Ġto":286,"ch":287,"Ġm":288,"le":289,"an":290,"Ġf":291,"Ġu":292,"al":293,"Ġin":294,"ro":295,"ĠI":296,"te":297,"Ġh":298,"Ġand":299,"ar":300,"as":301,"Ġo":302,"ent":303,"est":304,"et":305,"Ġy":306,"ic":307,"Ġyou":308,"ĠS":309,"Ġre":310,"ie":311,"il":312,"Ġis":313,"Ġn":314,"Ġbe":315,"un":316,"om":317,"st":318,"qu":319,"Ġe":320,"ation":321,"ve":322,"ct":323,"Ġpro":324,"ly":325,"Ġof":326,"ur":327,"Ġun":328,"Ġg":329,"ig":330,"ld":331,"ot":332,"ow":333,"id":334,"Ġfor":335,"im":336,"Ġl":337,"ver":338,"Ġon":339,"quest":340,"ter":341,"ould":342,"ce":343,"ich":344,"ol":345,"ĠT":346,"ag":347,"ung":348,"ut":349,"Ġas":350,"question":351,"ĠW":352,"ble":353,"us":354,"Ġquestion":355,"Ġthat":356,"ĠA":357,"ess":358,"Ġit":359,"if":360,"Ġz":361,"for":362,"am":363,"Ã¼":364,"ere":365,"ment":366,"ate":367,"el":368,"pp":369,"Ġcon":370,"Ġha":371,"Ġus":372,"ĠP":373,"ĠD":374,"ith":375,"Ġr":376,"Ġund":377,"su":378,"ir":379,"ec":380,"ail":381,"form":382,"Ġwh":383,"Ġwith":384,"Ġyour":385,"Ã¶":386,"out":387,"ĠĠ":388,"Ġzu":389,"ĠTh":390,"ers":391,"ys":392,"pt":393,"Ġare":394,"Ġwe":395,"ke":396,"Ġdie":397,"ist":398,"Ġthis":399,"ity":400,"os":401,"th":402,"ase":403,"Ġcom":404,"sw":405,"Ġk":406,"are":407,"Ġv":408,"ul":409,"Ġsu":410,"Ġhave":411,"Ġso":412,"hr":413,"ad":414,"Ġor":415,"blem":416,"Ġst":417,"Ġnot":418,"gr":419,"ide":420,"ect":421,"Ġat":422,"Ġissu":423,"Ġansw":424,"Ġwould":425,"tem":426,"Ġal":427,"Ã¤":428,"ĠWe":429,"Ġmo":430,"ten":431,"lease":432,"Ġne":433,"Ġex":434,"ac":435,"all":436,"Ġcan":437,"Ġprov":438,"um":439,"ill":440,"our":441,"etail":442,"Ġen":443,"Ġab":444,"ort":445,"iz":446,"ay":447,"ance":448,"ust":449,"Ġme":450,"ft":451,"Ġres":452,"ata":453,"ĠC":454,"ach":455,"Ġdis":456,"ĠU":457,"'s":458,"ĠM":459,"ĠSie":460,"and":461,"ware":462,"Ġver":463,"ard":464,"age":465,"ier":466,"ind":467,"Ġse":468,"formation":469,"end":470,"ge":471,"Ġprovide":472,"Ġdata":473,"Ġup":474,"Ġdo":475,"oo":476,"Ġim":477,"Ġapp":478,"ystem":479,"ĠIn":480,"ĠB":481,"per":482,"Ġquestions":483,"ions":484,"ĠE":485,"ine":486,"ally":487,"'t":488,"Ġabout":489,"ies":490,"Ġder":491,"Ġer":492,"Ġ<":493,"Ġdetail":494,"tel":495,"ĠF":496,"Ġac":497,"he":498,"Ġad":499,"op":500,"ive":501,"ien":502,"Ġissue":503,"Ġsh":504,"Ġde":505,"Ġanswer":506,"tegr":507,"ost":508,"Ġ(":509,"uf":510,"Ġsp":511,"Ġbut":512,"act":513,"Ġany":514,"Ġdisc":515,"ĠPro":516,"ĠK":517,"kt":518,"lich":519,"ite":520,"ftware":521,"ht":522,"Ġum":523,"ĠAn":524,"ff":525,"ther":526,"oun":527,"ĠV":528,"sist":529,"Ġle":530,"ungen":531,"ĠO":532,"uss":533,"Ġwill":534,"ame":535,"vest":536,"art":537,"king":538,"ĠThe":539,"ial":540,"ven":541,"Ġimp":542,"Ã¼r":543,"ank":544,"Ġsom":545,"ike":546,"Ġtim":547,"aus":548,"Ġinc":549,"Ġhel":550,"Ġge":551,"Ġproblem":552,"Ġinformation":553,"able":554,"ser":555,"Ġdiscuss":556,"Ġcont":557,"Ġtr":558,"ated":559,"Ġif":560,"vic":561,"Ġ\"":562,"now":563,"Ġsystem":564,"Ġassist":565,"ber":566,"Ġdas":567,"Ġlike":568,"ud":569,"Ġcl":570,"pl":571,"Ġwas":572,"Ġte":573,"num":574,"nen":575,"ain":576,"ific":577,"ant":578,"Ġmore":579,"cess":580,"Ġrec":581,"itte":582,"ue":583,"der":584,"iv":585,"Ġour":586,"ĠR":587,"Ġintegr":588,"ack":589,"ations":590,"pport":591,"Ġout":592,"its":593,"Ġser":594,"ĠPlease":595,"ĠH":596,"Ã¶n":597,"Ġtime":598,"ab":599,"len":600,"ight":601,"ĠIh":602,"rom":603,"Ġinvest":604,"ark":605,"Ġsec":606,"ire":607,"den":608,"ital":609,"Ġch":610,"Ġneed":611,"Ġpost":612,"fer":613,"ear":614,"Ġknow":615,"ĠL":616,"ben":617,"Ġsoftware":618,"tz":619,"Ġupd":620,"ĠSu":621,"Ġhelp":622,"aten":623,"Ġcall":624,"Ġresol":625,"low":626,"ork":627,"Ġplease":628,"Ġpl":629,"Ġcomp":630,"iate":631,"Ġdetails":632,"Ġcould":633,"Ġhas":634,"ĠN":635,"ts":636,"ps":637,"Ġsee":638,"Ġmy":639,"Ġsol":640,"Ġsch":641,"Ġbet":642,"ib":643,"Ġsome":644,"du":645,"Ġthere":646,"rate":647,"to":648,"ign":649,"Ġby":650,"ical":651,"Ġam":652,"Ġmed":653,"ink":654,"ĠZ":655,"ols":656,"so":657,"ics":658,"ĠfÃ¼r":659,"ĠProblem":660,"Ġfrom":661,"Ġspec":662,"Ġadd":663,"Ġuns":664,"rec":665,"ments":666,"Ġrep":667,"Ġsecur":668,"Ġtag":669,"Ġj":670,"Ġden":671,"Ġein":672,"Ġthey":673,"Ġshould":674,"ose":675,"ern":676,"eting":677,"Ġbeen":678,"Ġman":679,"Ġanal":680,"Ġwir":681,"ĠG":682,"se":683,"chen":684,"ehr":685,"og":686,"Ġopt":687,"ient":688,"urther":689,"one":690,"rateg":691,"Ġreg":692,"agement":693,"oug":694,"ĠĠĠĠ":695,"ates":696,"Ġwhich":697,"iew":698,"Ġdig":699,"Ġfe":700,"ĠDaten":701,"ĠkÃ¶n":702,"ition":703,"Ġdes":704,"Ġsecurity":705,"her":706,"ese":707,"Ġfurther":708,"ult":709,"ure":710,"Ġspecific":711,"ating":712,"ĠIf":713,"Ġget":714,"Ġsolut":715,"Ġapprec":716,"ĠTo":717,"de":718,"ore":719,"ject":720,"ell":721,"Ġunder":722,"Ġhow":723,"Ġeine":724,"ĠThis":725,"Ġinter":726,"ustom":727,"amp":728,"Ġ[":729,"Ġwhat":730,"esp":731,"Ġdigital":732,"ĠVer":733,"Ġzur":734,"coun":735,"arketing":736,"ĠUn":737,"ook":738,"omm":739,"ible":740,"be":741,"Ġper":742,"Ġste":743,"Ġauf":744,"oss":745,"Ġpr":746,"ho":747,"Ġanswers":748,"ause":749,"view":750,"Ġsite":751,"Ġgu":752,"ffect":753,"ough":754,"Ġcomm":755,"..":756,"ake":757,"ĠWir":758,"ens":759,"Ġed":760,"ĠWh":761,"Ġappreciate":762,"ience":763,"eh":764,"Ġissues":765,"Ġask":766,"ru":767,"ast":768,"ful":769,"lic":770,"glich":771,"ous":772,"stand":773,"own":774,"ote":775,"urr":776,"Ġbetter":777,"com":778,"lud":779,"ĠSt":780,"duct":781,"ting":782,"ving":783,"Ġone":784,"Ġpre":785,"ĠmÃ¶":786,"vice":787,"Ġthese":788,"Ġall":789,"icher":790,"yt":791,"Ġconf":792,"Ġ-":793,"Ġweit":794,"Ġconven":795,"Ġmay":796,"Ġjust":797,"Ġintegration":798,"ĠSo":799,"ange":800,"vices":801,"Ġregard":802,"Ġmat":803,"ustomer":804,"ror":805,"ĠIt":806,"Ġact":807,"Ġqu":808,"Ġinclud":809,"ĠIhre":810,"ident":811,"Ġposs":812,"ck":813,"Ġunderstand":814,"ong":815,"Ġdon":816,"ak":817,"ures":818,"urrent":819,"Ġreview":820,"Ġ1":821,"ytics":822,"Ġerror":823,"ility":824,"Ġassistance":825,"gen":826,"ÃŁ":827,"Ġoptim":828,"Ġuser":829,"ved":830,"Ġtools":831,"ile":832,"sch":833,"Ã¼ber":834,"Ġuse":835,"name":836,"formationen":837,"Ġother":838,"unity":839,"Ġpers":840,"Ã¶s":841,"Ġ2":842,"pr":843,"Ġmight":844,"Ġhere":845,"Ġthem":846,"Ġstrateg":847,"ang":848,"ĠInformationen":849,"Ġresolve":850,"ied":851,"Ġusers":852,"Ġregarding":853,"Ġno":854,"Ġwork":855,"Ġfre":856,"ieren":857,"ual":858,"Ġlet":859,"Ġsupport":860,"aS":861,"Ġmit":862,"Ġmatter":863,"Ġrecent":864,"men":865,"Ġdue":866,"atform":867,"Ġem":868,"Ġanalytics":869,"rit":870,"Ġaccess":871,"Ġpe":872,"eit":873,"quire":874,"ĠBitte":875,"Ġinvestment":876,"aaS":877,"ĠY":878,"Ġwhen":879,"ize":880,"Ġcurrent":881,"Ġar":882,"tig":883,"ĠIch":884,"Ġdoes":885,"anc":886,"osed":887,"âĢ":888,"nten":889,"Ġplatform":890,"Ġproduct":891,"Ġsteps":892,"Ġbr":893,"Ġmedical":894,"ious":895,"Ġlook":896,"Ġedit":897,"ator":898,"Ġexper":899,"me":900,"ĠSaaS":901,"ste":902,"Ġsc":903,"Ġguid":904,"pro":905,"Ġav":906,"ages":907,"chn":908,"Ġmarketing":909,"ĠAd":910,"ople":911,"Ġover":912,"Ġalso":913,"Ġimpro":914,"Ġsolution":915,"ĠSuper":916,"ĠIhnen":917,"Ġinvestig":918,"fen":919,"ungs":920,"Ġpossible":921,"oting":922,"Ġgo":923,"hing":924,"Ã¼tz":925,"ĠUnter":926,"ĠCould":927,"Ġtheir":928,"reat":929,"ass":930,"ĠkÃ¶nnen":931,"Ġunter":932,"Ġbei":933,"Ġproject":934,"Ġnew":935,"Ġdur":936,"Ġoff":937,"Ġvon":938,"ood":939,"Ġthink":940,"ĠSupport":941,"Ġrest":942,"ise":943,"isch":944,"lag":945,"Ġmess":946,"etw":947,"Ġdown":948,"ont":949,"icherhe":950,"ays":951,"Ġpeople":952,"Ġcle":953,"read":954,"Ġich":955,"Ġsched":956,"int":957,"ĠÃ¼ber":958,"ord":959,"Ġsuch":960,"ary":961,"ule":962,"tellen":963,">,":964,"Ġupdates":965,"ip":966,"ization":967,"bl":968,"Ġhapp":969,"Ġcommunity":970,"ra":971,"ows":972,"Ġset":973,"Ġcontact":974,"row":975,"Ġmet":976,"Ġserver":977,"'m":978,"Ġmanagement":979,"fÃ¼":980,"Ġrequire":981,"Ġprocess":982,"Ġgen":983,"ward":984,"Ġinto":985,"Ġonly":986,"Ġpot":987,"ms":988,"ason":989,"Ġrequest":990,"Ġavail":991,"Ġenh":992,"ĠSer":993,"lement":994,"tempt":995,"Ġfind":996,"ehl":997,"Ġbec":998,"Ġteam":999,"ick":1000,"stÃ¼tz":1001,"Ġstrategies":1002,"Ġdif":1003,"ik":1004,"Ġgeehr":1005,"Ġaffect":1006,"ify":1007,"ĠThank":1008,"hen":1009,"Ġreason":1010,"Ġschedule":1011,"Ġbecause":1012,"Ġbere":1013,"ss":1014,"ential":1015,"we":1016,"ll":1017,"Ġwer":1018,"Ġsystems":1019,"igur":1020,"Ġpart":1021,"pect":1022,"Ġmehr":1023,"Ġtop":1024,"Ġwant":1025,"Ġguidance":1026,"Ġsit":1027,"rechen":1028,"xt":1029,"Ġhe":1030,"indows":1031,"Ġdetailed":1032,"bar":1033,"ĠDetail":1034,"ĠSicherhe":1035,"gg":1036,"ah":1037,"Ġreach":1038,"bo":1039,"ĠTe":1040,"ace":1041,"Ġgreat":1042,"Ġnetw":1043,"esho":1044,"Ġbest":1045,"keit":1046,"Ġdec":1047,"Ġaccoun":1048,"'ve":1049,"ommend":1050,"Ġmich":1051,").":1052,"ĠSch":1053,"Ġmake":1054,"The":1055,"ĠLÃ¶s":1056,"Ġmoder":1057,"Ġcomment":1058,"ĠHow":1059,"ienc":1060,"Ġwur":1061,"ierung":1062,"Ġclosed":1063,"Ġweitere":1064,"Ġimprove":1065,"Ġrem":1066,"Ġpo":1067,"ider":1068,"Ġthen":1069,"ĠDetails":1070,"hren":1071,"Ġgood":1072,"Ġflag":1073,"ted":1074,"Ġbitte":1075,"up":1076,"Ġrel":1077,"Ġwho":1078,"ĠIntegr":1079,"ready":1080,"Ġreport":1081,"Ġway":1082,"Ġstill":1083,"Ġperform":1084,"'re":1085,"Ġhaben":1086,"Ġrecommend":1087,"Ġrece":1088,"ress":1089,"Ġattempt":1090,"Ġbrand":1091,"Ġgeben":1092,"ans":1093,"Ġavailable":1094,"Ġben":1095,"Ġalready":1096,"ound":1097,"und":1098,"Ġsomet":1099,"Ġlink":1100,"Ġprom":1101,"aign":1102,"ampaign":1103,"Ġusing":1104,"Ġimplement":1105,"cr":1106,"Ġwerden":1107,"Ġag":1108,"Ġnetwork":1109,"Ġemail":1110,"00":1111,"Ġbesp":1112,"esser":1113,"Ġinterest":1114,"ĠUser":1115,"vent":1116,"cept":1117,"sure":1118,"Ġbesprechen":1119,"oubl":1120,"Ã¤tz":1121,"Ġthing":1122,"Ġdass":1123,"ĠAdd":1124,"bs":1125,"ap":1126,"Ġeinen":1127,"fr":1128,"Ġservices":1129,"Ġrestart":1130,"ggest":1131,"oublesho":1132,"ia":1133,"Ġthan":1134,"ilit":1135,"Ġdele":1136,"Ġcampaign":1137,"line":1138,"Ġclear":1139,"ann":1140,"ĠSoftware":1141,"Ġsoon":1142,"Ġappro":1143,"Ġaccount":1144,"Ġexpl":1145,"ĠRe":1146,"Ġbeing":1147,"Ġbre":1148,"alys":1149,"stÃ¼tzung":1150,"ĠServer":1151,"Ġaddition":1152,"Ġro":1153,"ges":1154,"otes":1155,"Th":1156,"uch":1157,"nect":1158,"Ġenhance":1159,"ĠUnterstÃ¼tzung":1160,"Ġclose":1161,"ular":1162,"lie":1163,"utz":1164,"ache":1165,"flow":1166,"fter":1167,"ĠQ":1168,"hal":1169,"ction":1170,"Ġpat":1171,"lo":1172,"Ġtroublesho":1173,"Ġback":1174,"ĠAddition":1175,"ption":1176,"Ġincluding":1177,"Ġmoderator":1178,"ĠmÃ¶glich":1179,"Ġvery":1180,"ĠSicherheits":1181,"unden":1182,"ces":1183,"yn":1184,"Ġcaus":1185,"uth":1186,"Ġeven":1187,"Ġhard":1188,"Ġsuggest":1189,">.":1190,"min":1191,"ized":1192,"ĠmÃ¶ch":1193,"ault":1194,"Ġconvenient":1195,"Ġpotential":1196,"Ġsim":1197,"Ġapplic":1198,"Ġke":1199,"ĠAdditionally":1200,"Ġoffer":1201,"ond":1202,"Ġupdate":1203,"Ġpersist":1204,"Ġob":1205,"opic":1206,"],":1207,"Ġproblems":1208,"Ġfir":1209,"izin":1210,"arn":1211,"Ġtechn":1212,"Ġconvenience":1213,"...":1214,"ecess":1215,"Ġdid":1216,"Ġnum":1217,"Ġdiffer":1218,"ĠAs":1219,"ased":1220,"ĠSystem":1221,"Ġent":1222,"led":1223,"Ġunser":1224,"ade":1225,"ielen":1226,"Ġinst":1227,"ĠYou":1228,"Ġwhere":1229,"uter":1230,"ĠStack":1231,"Ġsomething":1232,"ffor":1233,"Ġinform":1234,"counter":1235,"ehler":1236,"ĠZeit":1237,"Ġwere":1238,"Ġaddress":1239,"ence":1240,"ibility":1241,"Ġexperienc":1242,"Ġadditional":1243,"lev":1244,"akt":1245,"osp":1246,"ged":1247,"Ġmedizin":1248,"Ġgreatly":1249,"Ġconnect":1250,"Ġist":1251,"Ġnecess":1252,"ffic":1253,"Ġatt":1254,"Ġsolutions":1255,"Ġmessages":1256,"topic":1257,"ention":1258,"Ġperformance":1259,"Ġident":1260,"Ġforward":1261,"Ġtags":1262,"ospital":1263,"Ġfeat":1264,"Ġhappy":1265,"ument":1266,"user":1267,"Ġconc":1268,"ĠWhat":1269,"very":1270,"alls":1271,"ually":1272,"ein":1273,"Ġwor":1274,"Ġdurch":1275,"Ġcomments":1276,"Ġsind":1277,"change":1278,"Ġencounter":1279,"Ġwhy":1280,"Ġfol":1281,"Ġreally":1282,"Ġresp":1283,"olog":1284,"Ġits":1285,"ĠDank":1286,"Ġeng":1287,"Ġused":1288,"Ġrelated":1289,"Ġbes":1290,"Ġhospital":1291,"ĠInvest":1292,"Ġgener":1293,"Ġbreach":1294,"Ġensure":1295,"Ġsens":1296,"Ġcons":1297,"ĠWindows":1298,"Ġsuit":1299,"Ġmeas":1300,"ĠKunden":1301,"get":1302,"Ġresolving":1303,"ĠLÃ¶sung":1304,"orre":1305,"iert":1306,"Ġcase":1307,"ĠĠĠĠĠĠĠĠ":1308,"Ġproducts":1309,"Ġtak":1310,"Ġop":1311,"tell":1312,"igh":1313,"such":1314,"Ġdies":1315,"Ġwell":1316,"Ġlog":1317,"Ġchang":1318,"//":1319,"ug":1320,"yp":1321,"nah":1322,"wend":1323,"tern":1324,"ever":1325,"Ġcre":1326,"Ġreceiv":1327,"Ġmod":1328,"Ġinv":1329,"ĠUm":1330,"Ġthr":1331,"Ġsame":1332,"tt":1333,"ĠEx":1334,"Ġbereits":1335,"Ġes":1336,"aÃŁ":1337,"://":1338,"Ġrelev":1339,"Ġnumber":1340,"Ġinvestigate":1341,"ount":1342,"Ġtoo":1343,"erk":1344,"Ã¤ch":1345,"ix":1346,"Ġasking":1347,"Ã¼ck":1348,"wo":1349,"Ġnecessary":1350,"Ġlo":1351,"acc":1352,"meld":1353,"ekt":1354,"iguration":1355,"Ġimpact":1356,"fore":1357,"Ġreaching":1358,"lef":1359,"ash":1360,"ome":1361,"Ġnow":1362,"Ġallow":1363,"ualis":1364,"Ġeffor":1365,"lefon":1366,"Ġgrow":1367,"Ġtry":1368,"Ġsuitable":1369,"etz":1370,"ischen":1371,"Ġ3":1372,"Ġtopic":1373,"grif":1374,"Ġread":1375,"Ġspe":1376,"Ġcomputer":1377,"Ġthank":1378,"ĠFehler":1379,"Ġanalys":1380,"ĠkÃ¶nnten":1381,"nahmen":1382,"Ġthose":1383,"Ġfollow":1384,"Ġmost":1385,"ively":1386,"br":1387,"wh":1388,"Ġaud":1389,"Ġasked":1390,"Ġshare":1391,"icht":1392,"Ġconcern":1393,"uest":1394,"Ġcontent":1395,"Ġvers":1396,"att":1397,"aÃŁnahmen":1398,"alyse":1399,"Ġcause":1400,"cy":1401,"Ġmeasures":1402,"other":1403,"Ġneeded":1404,"orrect":1405,"leist":1406,"Ã¶nnten":1407,"onf":1408,"Ġsub":1409,"Ġdoesn":1410,"Ġrespon":1411,"Ġtaken":1412,"ĠFor":1413,"ruct":1414,"ross":1415,"Ġakt":1416,"Ġsa":1417,"Ã¶tig":1418,"ree":1419,"Ġhelfen":1420,"Customer":1421,"uthor":1422,"Ġperson":1423,"Ġweiter":1424,"utation":1425,"ĠThere":1426,"Ġdar":1427,"ĠCustomer":1428,"od":1429,"Name":1430,"Ġdifferent":1431,"inu":1432,"Ġoptimization":1433,"Ġprompt":1434,"Ġtroubleshooting":1435,"Ġeffect":1436,"fÃ¼g":1437,"ruf":1438,"Ġaffected":1439,"Ġchec":1440,"itive":1441,"unkt":1442,"Ġdevices":1443,"Ġdr":1444,"ooking":1445,"ĠIntegration":1446,"wn":1447,"anken":1448,"ert":1449,"ivity":1450,"av":1451,"Ġprovid":1452,"liche":1453,"ice":1454,"Ġconsider":1455,"Ġhigh":1456,"ze":1457,"ne":1458,"Ġthrough":1459,"med":1460,"Ġpartic":1461,"umentation":1462,"halten":1463,"uation":1464,"forder":1465,"ality":1466,"ierte":1467,"iss":1468,"Ġmany":1469,"ably":1470,"Ġevery":1471,"Ġbit":1472,"baren":1473,"ĠIT":1474,"Ġgrowth":1475,"enn":1476,"Ġvote":1477,"Ġvar":1478,"Ġaccept":1479,"indly":1480,"ince":1481,"Ġmult":1482,"Ġsomeone":1483,"Ġresour":1484,"ĠDo":1485,"Ġanalysis":1486,"Ġwie":1487,"plic":1488,"Ġhad":1489,"),":1490,"Ġmuch":1491,"ptim":1492,"ep":1493,"Ġrelevant":1494,"Ġco":1495,"Ġfeatures":1496,"oth":1497,"griff":1498,"Ġprevent":1499,"ienst":1500,"aking":1501,"ĠâĢ":1502,"Ġtake":1503,"ĠbenÃ¶tig":1504,"Ġsites":1505,"erne":1506,"vel":1507,"Ġbeste":1508,"Ġmedizinisch":1509,"ample":1510,"Ġreputation":1511,"Ġposts":1512,"Ġdownv":1513,"Ġown":1514,"Ġpersists":1515,"ilen":1516,"auf":1517,"'d":1518,"Ġnext":1519,"Ġreceived":1520,"Ġthings":1521,"ĠVerb":1522,"peruser":1523,"Ġhardware":1524,"Ġhelpful":1525,"Ġbad":1526,"Ġafter":1527,"tect":1528,"oted":1529,"iple":1530,"Ġtwo":1531,"Ġtyp":1532,"ĠAl":1533,"Ġseems":1534,"rol":1535,"Ġsyn":1536,"Ġexist":1537,"Ġ20":1538,"prÃ¼":1539,"Ġfac":1540,"Ã¶r":1541,"illing":1542,"iel":1543,"ĠSehr":1544,"ĠJ":1545,"Ġexperiencing":1546,"Ġgeehrte":1547,"Ġpoint":1548,"mp":1549,"ĠIs":1550,"Ġfirst":1551,"ĠZu":1552,"Ġacross":1553,"Ġwurden":1554,"ĠEs":1555,"ĠIhr":1556,"mit":1557,"Ġsetting":1558,"Ġrestarting":1559,"attform":1560,"Ġunserer":1561,"Dear":1562,"ontakt":1563,"ĠTeam":1564,"ially":1565,"Ġdoc":1566,"Ġval":1567,"ĠBe":1568,"ĠKÃ¶nnten":1569,"Ġmade":1570,"ability":1571,"Ġfin":1572,"less":1573,"ĠVor":1574,"cc":1575,"eten":1576,"ry":1577,"Ġwr":1578,"omp":1579,"gle":1580,"Ġwrit":1581,"ently":1582,"ĠwÃ¤":1583,"Ġlearn":1584,"atibility":1585,"Ġneeds":1586,"Ġlong":1587,"reich":1588,"elf":1589,"thing":1590,"ĠOur":1591,"ional":1592,"Ġvis":1593,"Ġtar":1594,"man":1595,"uen":1596,"Ġbilling":1597,"Ġwithin":1598,"rategien":1599,"cial":1600,"gency":1601,"Ġfeel":1602,"ĠZugriff":1603,"mer":1604,"ically":1605,"Ġverein":1606,"Ġsay":1607,"rupt":1608,"Ġmig":1609,"Ġsign":1610,"igen":1611,"Ġhand":1612,"Ġstart":1613,"arch":1614,"Ġbefore":1615,"Ġfew":1616,"Ġpage":1617,"Ġdeleted":1618,"ĠmÃ¶chte":1619,"Ġins":1620,"Ġdecis":1621,"Ġmultiple":1622,"Ġind":1623,"ĠEr":1624,"oogle":1625,"Ġresponse":1626,"ĠBut":1627,"Ġlist":1628,"Ġdiscussion":1629,"fe":1630,"Ġintegrating":1631,"ish":1632,"Ġgeehrter":1633,"Ġright":1634,"Ġerhalten":1635,"jekt":1636,"toc":1637,"ĠDear":1638,"uplic":1639,"Ġmain":1640,".\\":1641,"ĠEn":1642,"Ġspez":1643,"ĠSU":1644,"Ġsow":1645,"Ġinterested":1646,"Ġexample":1647,"Sehr":1648,"Ġchanges":1649,"ub":1650,"heit":1651,"pd":1652,"Ġsich":1653,"Ġprotoc":1654,"ution":1655,"Ġincident":1656,"Ġefforts":1657,"Ġbl":1658,"espite":1659,"Ġoptions":1660,"Ġel":1661,"Ġdel":1662,"ĠMarketing":1663,"In":1664,"analyse":1665,"Ġdem":1666,"Ġpatient":1667,"Ġfreue":1668,"ritte":1669,"izing":1670,"ĠAnd":1671,"ilities":1672,"Ġlot":1673,"Ġduring":1674,"Ġsowie":1675,"Ġcampaigns":1676,"icro":1677,"Ġoper":1678,"alth":1679,"pected":1680,"Ġengagement":1681,"load":1682,"Ġanother":1683,"Ġbelie":1684,"Ġcompatibility":1685,"Ġfar":1686,"Ġuna":1687,"ĠDespite":1688,"ffen":1689,"enden":1690,"Ġinvol":1691,"Ġvereinbaren":1692,"Ġmin":1693,"Ġisn":1694,"Ġprof":1695,"Ġplace":1696,"ccess":1697,"ĠĠĠ":1698,"fol":1699,"Ġverb":1700,"uel":1701,"Ġsearch":1702,"Ġupdating":1703,"rep":1704,"Ġocc":1705,"lattform":1706,"Ã¤t":1707,"An":1708,"Ġbesser":1709,"Ġincon":1710,"Ġenough":1711,"Ġbereitstellen":1712,"Ġcr":1713,"Ġdetaill":1714,"Ġuseful":1715,"Ġform":1716,"ĠOn":1717,"Ġprotocols":1718,"Ġservice":1719,"Ġoder":1720,"Ġwurde":1721,"ory":1722,"Ġfut":1723,"Ġwithout":1724,"gram":1725,"Ġsensitive":1726,"Ġcaused":1727,"Ġexact":1728,"ĠDie":1729,"Ġaut":1730,"PI":1731,"ĠAnruf":1732,"service":1733,"ĠEin":1734,"Ġfuture":1735,"Ġvarious":1736,"Ġhtt":1737,"Ġrun":1738,"Ġincre":1739,"priate":1740,"Ã¶glich":1741,"problem":1742,"Ġhear":1743,"keiten":1744,"ĠKr":1745,"System":1746,"leit":1747,"Ġparticular":1748,"bsite":1749,"ende":1750,"vious":1751,"Ġbeh":1752,"vers":1753,"iven":1754,"'ll":1755,"ĠSE":1756,"bably":1757,"Ġremo":1758,"Ġspezif":1759,"Ġap":1760,"fa":1761,"Ġattention":1762,"Ġfail":1763,"soft":1764,"Ġph":1765,"Ã¤hr":1766,"ices":1767,"itions":1768,"Ġresources":1769,"ather":1770,"Ġduplic":1771,"Ġvotes":1772,"legen":1773,"ĠSchritte":1774,"Ġmir":1775,"Ġpract":1776,"fÃ¼hr":1777,"Ġlooking":1778,"verflow":1779,"Ġinclude":1780,"Ġgerne":1781,"Ġapplications":1782,"icrosoft":1783,"Ġcorrect":1784,"Ġrequirements":1785,"Ġwhile":1786,"dated":1787,"ĠUr":1788,"Ġsever":1789,"ankenh":1790,"lect":1791,"Ġhealth":1792,"ptimierung":1793,"tet":1794,"Ġrecommendations":1795,"Ġold":1796,"ĠKrankenh":1797,"ords":1798,"ĠKundenservice":1799,"--":1800,"ĠAPI":1801,"Ġdef":1802,"Ġacc":1803,"Ġverste":1804,"Ġsus":1805,"board":1806,"Ġsure":1807,"beit":1808,"Ġagain":1809,"irew":1810,"Ġsettings":1811,"ope":1812,"Ġencountered":1813,"usÃ¤tz":1814,"ron":1815,"ĠAnge":1816,"ave":1817,"Ġbelieve":1818,"red":1819,"ĠSh":1820,"Ġtool":1821,"Ġ5":1822,"Ã¼hren":1823,"Ġoutdated":1824,"ears":1825,"ipt":1826,"ĠMark":1827,"ĠWhy":1828,"Ġdocumentation":1829,"Ġconfiguration":1830,"Ġprobably":1831,"Wh":1832,"urn":1833,"Ġsituation":1834,"enz":1835,"lete":1836,"ex":1837,"legenheit":1838,"Ġmon":1839,"Ġfr":1840,"\".":1841,"Ġdisrupt":1842,"ks":1843,"ige":1844,"Ġidentify":1845,"lÃ¤":1846,"Ġactually":1847,"Ġcontrol":1848,"nowled":1849,"ĠVerfÃ¼g":1850,"ĠwÃ¼r":1851,"Ġappropriate":1852,"care":1853,"Ġfollowing":1854,"heb":1855,"Ġdigitalen":1856,"hod":1857,"ĠQuest":1858,"quir":1859,"Ġsein":1860,"Ġmeta":1861,"rÃ¤ch":1862,"ner":1863,"eter":1864,"Ġreal":1865,"uthorized":1866,"ĠAngelegenheit":1867,"Ġmethod":1868,"Ġi":1869,"Ġapolog":1870,"iated":1871,"ĠUrs":1872,"Ġversion":1873,"swer":1874,"Ġremain":1875,"Ġsimp":1876,"We":1877,"ines":1878,"heben":1879,"Ġmigr":1880,"Ġtried":1881,"Ġschn":1882,"ef":1883,"Ġsince":1884,"ĠVielen":1885,"Ġaffecting":1886,"Ġcurrently":1887,"Ġposted":1888,"Ġfix":1889,"Ġtimes":1890,"ither":1891,"ĠÃ":1892,"Ġbeheben":1893,"Ġur":1894,"Ġgoing":1895,"Ġhat":1896,"ĠDas":1897,"ĠProjekt":1898,"Ġhealthcare":1899,"ĠMet":1900,"Ġcrash":1901,"any":1902,"ored":1903,"Ġelse":1904,"Ġend":1905,"iness":1906,"ilar":1907,"oy":1908,"abilities":1909,"Ġweiterh":1910,"ancial":1911,"em":1912,"Ġbetwe":1913,"igin":1914,"Ġlat":1915,"ensive":1916,"Ġpay":1917,"Ġbetween":1918,"ĠOP":1919,"Ġedits":1920,"Ġagency":1921,"Ġcap":1922,"Ġunauthorized":1923,"Ġwriting":1924,"Ġgew":1925,"Ġsm":1926,"ging":1927,"ampag":1928,"oc":1929,"ĠProdu":1930,"itor":1931,"Ġkeep":1932,"assen":1933,"ĠExchange":1934,"eint":1935,"Ġstand":1936,"Ġdetaillierte":1937,"ald":1938,"ime":1939,"Ġimport":1940,"ĠHowever":1941,"Ġplatforms":1942,"Ġseveral":1943,"ĠProbleme":1944,"essional":1945,"Ġlikely":1946,"Ġapologize":1947,"rib":1948,"ĠGoogle":1949,"ĠbenÃ¶tigen":1950,"ĠYour":1951,"ĠschÃ¤tz":1952,"Ġupv":1953,"management":1954,"wach":1955,"cry":1956,"Ġlim":1957,"Ġopin":1958,"ym":1959,"Ġerrors":1960,"Ġmessage":1961,"ĠInvestitions":1962,"Ġbount":1963,"ĠVerbesser":1964,"Ġfinancial":1965,"ĠwÃ¤re":1966,"Ġbus":1967,"Ġpass":1968,"Ġsignific":1969,"Ġbereit":1970,"Ġide":1971,"Ġanswered":1972,"ionen":1973,"Ġwrong":1974,"Ġboth":1975,"Ġgr":1976,"ĠKindly":1977,"ought":1978,"ins":1979,"ĠMarken":1980,"Ġfun":1981,"Ġvor":1982,"Ġcheck":1983,"base":1984,"ĠThat":1985,"ieten":1986,"Ġ4":1987,"ĠSp":1988,"Ġorigin":1989,"Ġ'":1990,"che":1991,"ĠX":1992,"Ġret":1993,"Ġprotect":1994,"Ã¤n":1995,"mediate":1996,"ĠKrankenhaus":1997,"li":1998,"zÃ¼":1999,"Ġautom":2000,"way":2001,"Ġanything":2002,"gan":2003,"Ġencry":2004,"zÃ¼glich":2005,"Ġcert":2006,"Ġwebsite":2007,"earch":2008,"Ġleast":2009,"Ġ8":2010,"Ġcol":2011,"Ġkontakt":2012,"Ġgot":2013,"Ġstrategy":2014,"Ġwird":2015,"Ġquality":2016,"Ġarr":2017,"Ġsimilar":2018,"ĠMaÃŁnahmen":2019,"ĠProblems":2020,"ative":2021,"Ġmean":2022,"Ġshow":2023,"io":2024,"Ġchange":2025,"Ġear":2026,"ily":2027,"ĠMicrosoft":2028,"just":2029,"ict":2030,"Ġneu":2031,"Ġunsere":2032,"Ġpres":2033,"Ġweiterhin":2034,"Ġsignificant":2035,"ĠzusÃ¤tz":2036,"ger":2037,"ways":2038,"not":2039,"Ġrequired":2040,"kol":2041,"Ġwenn":2042,"Ġteilen":2043,"Mail":2044,"Ġcrit":2045,"Ġfact":2046,"Ġtrying":2047,"ults":2048,"ĠThese":2049,"ĠMy":2050,"Ġ10":2051,"til":2052,"Ġmark":2053,"Ġet":2054,"ob":2055,"ior":2056,"zus":2057,"ower":2058,"Ġstr":2059,"stead":2060,"Ġdone":2061,"Ġoptimize":2062,"Ġbusiness":2063,"Ġinit":2064,"Ġadv":2065,"Ġbas":2066,"suchen":2067,"Ġaktuel":2068,"zeit":2069,"tokol":2070,"This":2071,"Ġlimit":2072,"Ġattempted":2073,"ether":2074,"Ġmedia":2075,"Ġprogram":2076,"ified":2077,"aining":2078,"Ġcustomer":2079,"repanc":2080,"Ġbenef":2081,"Ġexp":2082,"ĠDatenanalyse":2083,"User":2084,"au":2085,"ĠbezÃ¼glich":2086,"superuser":2087,"ĠlÃ¶s":2088,"zuf":2089,"Ġput":2090,"essern":2091,"ĠNe":2092,"AQ":2093,"Ġresults":2094,"Ġquick":2095,"Ġdiscrepanc":2096,"Ġverbessern":2097,"Ġrefer":2098,"Ġmedizinischer":2099,"Ġgeneral":2100,"Ġworkflow":2101,"net":2102,"sten":2103,"ha":2104,"Ġonline":2105,"irect":2106,"ĠSF":2107,"Ġinstall":2108,"velop":2109,"Ġpractices":2110,"Ġworking":2111,"Ġopen":2112,"inux":2113,"Ġduplicate":2114,"Ġresolution":2115,"Ġtelefon":2116,"ĠLe":2117,"Ġ6":2118,"Ġtechnical":2119,"ĠVerfÃ¼gung":2120,"Ġcustom":2121,"Ġweb":2122,"ives":2123,"Ġencryption":2124,"ĠAkt":2125,"Ġprefer":2126,"Ġfreuen":2127,"Ġapplication":2128,"Ġeas":2129,"reh":2130,"assw":2131,"ĠOr":2132,"QL":2133,"itt":2134,"ced":2135,"thers":2136,"ĠmÃ¶chten":2137,"Ġverstehen":2138,"Ġhttps":2139,"nis":2140,"werk":2141,"ading":2142,"ĠzusÃ¤tzliche":2143,"ĠAnleit":2144,"ĠThey":2145,"Ġable":2146,"Ġimpacting":2147,"ĠDies":2148,"osing":2149,"Ġattempts":2150,"fahren":2151,"Ġsetup":2152,"Ġpol":2153,"ommen":2154,"ves":2155,"Ġcompreh":2156,"questions":2157,"ĠlÃ¶sen":2158,"Ġfound":2159,"Ġconflic":2160,"Ã¼ss":2161,"ĠFalls":2162,"open":2163,"inst":2164,"Ġdarauf":2165,"Ġclearing":2166,"Ġgee":2167,"âĢĻ":2168,"sucht":2169,"Ġsuccess":2170,"ale":2171,"Ġtarget":2172,"Ġexperience":2173,"Ġlearning":2174,"Ġbounty":2175,"gor":2176,"Ġopinion":2177,"ĠFAQ":2178,"Ġexisting":2179,",\\":2180,"app":2181,"Ġcache":2182,"ee":2183,"Ã¤l":2184,"Ġarrange":2185,"Ġwon":2186,"weise":2187,"vir":2188,"Ġstellen":2189,"ute":2190,"chron":2191,"Ġeither":2192,"ĠAt":2193,"ĠPat":2194,"Ġthough":2195,"Ġdoing":2196,"Ġgeeign":2197,"itÃ¤t":2198,"Ġalways":2199,"Ġaudience":2200,"Ġothers":2201,"Ġapproach":2202,"Ġpur":2203,"Ġcomprehensive":2204,"Ġcome":2205,"Ġroot":2206,"Ġmoderators":2207,"Ġdidn":2208,"pdates":2209,"Ġoften":2210,"Ġspam":2211,"Ġfree":2212,"ĠZugriffs":2213,"fic":2214,"ĠGes":2215,"Ġcertain":2216,"back":2217,"Ã¼n":2218,"irewall":2219,"isk":2220,"Ġview":2221,"ately":2222,"Ġkind":2223,"zufÃ¼hren":2224,"knowled":2225,"Ġinvestigation":2226,"Pro":2227,"Ġadjust":2228,"Ġdevelop":2229,"Ġwhether":2230,"ĠVers":2231,"lin":2232,"ilf":2233,"frast":2234,"ĠComm":2235,"Ġhaving":2236,"\",":2237,"Ġoptimizing":2238,"10":2239,"ĠShould":2240,"IT":2241,"res":2242,"Ġcompl":2243,"Ġacknowled":2244,"Ġetc":2245,"agen":2246,"Ġreporting":2247,"Ġerforder":2248,"ĠRÃ¼ck":2249,"unt":2250,"lick":2251,"roffen":2252,"Ġgive":2253,"Ġsocial":2254,"meldung":2255,"Ġadmin":2256,"akes":2257,"ĠwÃ¼rde":2258,"ĠzurÃ¼ck":2259,"ampagnen":2260,"ĠData":2261,"Ġdeter":2262,"urs":2263,"Ġbitten":2264,"ficult":2265,"Ġdisruptions":2266,"answer":2267,"Ġgetting":2268,"Ġuntersuchen":2269,"Ġdiese":2270,"Ġtelefonisch":2271,"Ġdecisions":2272,"ph":2273,"Ġdam":2274,"Ġreviewing":2275,"Ġdifficult":2276,"Ġmethods":2277,"ning":2278,"istr":2279,"Ġhappen":2280,"Ġmust":2281,"ello":2282,"Ġdefin":2283,"mÃ¶glich":2284,"Ġdelays":2285,"ĠOptimierung":2286,"Ġminim":2287,"Ġlogs":2288,"ompat":2289,"Ġrather":2290,"Ġseem":2291,"Ġoriginal":2292,"ploy":2293,"fall":2294,"ases":2295,"Ġbased":2296,"ienstleist":2297,"Ġeffectively":2298,"There":2299,"Ġgoal":2300,"Ġaction":2301,"Ġupdated":2302,"maÃŁnahmen":2303,"Ġchat":2304,"igurations":2305,"Ġsecure":2306,"tra":2307,"ritt":2308,"ische":2309,"by":2310,"xchange":2311,"Ġzum":2312,"viron":2313,"tokolle":2314,"Ġhearing":2315,"Ġinstead":2316,"Ġindic":2317,"lichen":2318,"ĠStrategien":2319,"Ġreasons":2320,"ĠÃ¼berprÃ¼":2321,"Ġbo":2322,"Ġwel":2323,"ĠTelefon":2324,"arbeit":2325,"Ġ7":2326,"isc":2327,"Ġpayment":2328,"Ġimmediate":2329,"anced":2330,"Ġbro":2331,"Ġexam":2332,"ĠApp":2333,"fficient":2334,"ĠMeta":2335,"ĠCl":2336,"iken":2337,"Ã¤hrleist":2338,"ĠPatient":2339,"Ġmetr":2340,"If":2341,"pose":2342,"ules":2343,"Ġstandard":2344,"Ġblog":2345,"ĠAktualis":2346,"lÃ¼ss":2347,"Ġdiscrepancies":2348,"abl":2349,"rÃ¤chtig":2350,"gefÃ¼hr":2351,"ĠSm":2352,"Ġunderstanding":2353,"Ġencountering":2354,"stum":2355,"Ġ--":2356,"zeu":2357,"folg":2358,"eintrÃ¤chtig":2359,"ove":2360,"Ġidea":2361,"punkt":2362,"Ġsecuring":2363,"ĠNot":2364,"Ġfacing":2365,"ecific":2366,"Ġvielen":2367,"Ġenviron":2368,"ĠÃľ":2369,"Ġthought":2370,"sp":2371,"Ġbetroffen":2372,"vert":2373,"Ġfunction":2374,"acht":2375,"ienstleistungen":2376,"âĶ":2377,"Ġque":2378,"ĠOS":2379,"Ġcomplete":2380,"frage":2381,"Ġmetrics":2382,"install":2383,"ulner":2384,"Ġyet":2385,"kte":2386,"oud":2387,"irm":2388,"Ġmem":2389,"Ġscal":2390,"ights":2391,"Ġcausing":2392,"bers":2393,"Ġaccepted":2394,"ĠBed":2395,"Ġseeking":2396,"Ġsimply":2397,"esond":2398,"Ġorgan":2399,"come":2400,"lÃ¼ssel":2401,"20":2402,"Ġfil":2403,"utor":2404,"Ġtext":2405,"ĠUrsache":2406,"htt":2407,"Ġprofessional":2408,"Ġagree":2409,"Ġless":2410,"Ġmeet":2411,"och":2412,"zess":2413,"Ġcode":2414,"Ġkann":2415,"ibly":2416,"ĠZeitpunkt":2417,"onfiguration":2418,"Ġaktuellen":2419,"Ġoccur":2420,"Ġdescr":2421,"ĠFault":2422,"ĠSuperUser":2423,"Ġter":2424,"ĠbeeintrÃ¤chtig":2425,"Ġpoin":2426,"forderungen":2427,"gu":2428,"Ġslow":2429,"ifiz":2430,"ittle":2431,"utzer":2432,"Ġconnectivity":2433,"Ġspezifischen":2434,"Ġhis":2435,"Ġmaking":2436,"ĠCh":2437,"Ġcontin":2438,"ehmen":2439,"Ġkontaktieren":2440,"Ġvia":2441,"Ġinstruct":2442,"Ġcompany":2443,"Ġprovided":2444,"ĠNetz":2445,"lieÃŁ":2446,"gorith":2447,"ĠAb":2448,"Ġoverload":2449,"ends":2450,"liest":2451,"Ġlittle":2452,"Ġclar":2453,"Ġearliest":2454,"probleme":2455,"Ġsehr":2456,"ĠSmart":2457,"erweise":2458,"ense":2459,"fault":2460,"nte":2461,"Ġintegrity":2462,"Ġinvestigating":2463,"ĠschÃ¤tzen":2464,"day":2465,"Ġbald":2466,"Ġconflicts":2467,"Ġexplain":2468,"Ġinstructions":2469,"Ġremains":2470,"ches":2471,"entially":2472,"ĠPlattform":2473,"Ġpromptly":2474,"Ġbu":2475,"ĠWould":2476,"Ġcontinu":2477,"tellt":2478,"Ã¤hrleisten":2479,"down":2480,"Ġmer":2481,"Ġmention":2482,"igkeiten":2483,"untu":2484,"issen":2485,"Ġurg":2486,"Ġtell":2487,"Ġseen":2488,"ĠgewÃ¤hrleisten":2489,"mine":2490,"Ġconfident":2491,"Ġlast":2492,"ĠÃľber":2493,"It":2494,"ĠmÃ¶gliche":2495,"Ġshort":2496,"iance":2497,"ren":2498,"Ġcour":2499,"Ġsubject":2500,"So":2501,"war":2502,"How":2503,"Ġcontinue":2504,"Ġrebo":2505,"Ġlow":2506,"Ġdamit":2507,"Ġsaid":2508,"Ġinconven":2509,"Ġresult":2510,"arge":2511,"Ġappreciated":2512,"Ġtail":2513,"ĠAfter":2514,"ĠVerbesserung":2515,"Ġumf":2516,"iqu":2517,"Ġcontrols":2518,"time":2519,"aging":2520,"Ġnever":2521,"schlieÃŁ":2522,"Ġcreate":2523,"iag":2524,"ised":2525,"Ġinconvenience":2526,"Ġdirect":2527,"To":2528,"ompatib":2529,"Ġschnell":2530,"ĠSO":2531,"iki":2532,"Ġfirm":2533,"Ġtype":2534,"Ġdetermine":2535,"Ġstep":2536,"ĠdurchgefÃ¼hr":2537,"Ġinsights":2538,"Ġ201":2539,"Ġversucht":2540,"Ġla":2541,"Ġimplementing":2542,"Ġexplore":2543,"Ġnotwend":2544,"Ġerfahren":2545,"Ġadvice":2546,"meldungen":2547,"Ġaktualis":2548,"ĠAnfrage":2549,"ĠRÃ¼ckmeldung":2550,"Ġho":2551,"ĠnÃ¤ch":2552,"Ġstat":2553,"Ġconduct":2554,"Ġrules":2555,"Ġjed":2556,"ĠWhen":2557,"ructure":2558,"Ġpersonal":2559,"Ġvulner":2560,"ĠProjektmanagement":2561,"wit":2562,"Ġmakes":2563,"Ġinteress":2564,"the":2565,"zustellen":2566,"Ġpolic":2567,"Ġconfidential":2568,"Ġdesign":2569,"ĠeinschlieÃŁ":2570,"What":2571,"Ġintegrations":2572,"Ġfile":2573,"ities":2574,"ĠeinschlieÃŁlich":2575,"Ġbring":2576,"ĠIhrer":2577,"Ġtest":2578,"schied":2579,"irus":2580,"Ġclean":2581,"Ġcontrib":2582,"ĠLÃ¶sungen":2583,"Ġbestehen":2584,"Ġtroubleshoot":2585,"Ġproviding":2586,"Ġmedizinische":2587,"Ġinquir":2588,"ĠCan":2589,"ĠnÃ¤chsten":2590,"Ġformat":2591,"zu":2592,"ĠCommunity":2593,"ken":2594,"chie":2595,"Ġful":2596,"irt":2597,"ences":2598,"ĠIntegrations":2599,"hebung":2600,"Ġplan":2601,"Ġcrashes":2602,"Ġprocessing":2603,"imes":2604,"Ġkey":2605,"Ġhome":2606,"Ġeach":2607,"Ġaround":2608,"ceed":2609,"ĠFehlermeldungen":2610,"ons":2611,"tent":2612,"Ġass":2613,"protokolle":2614,"cl":2615,"Ġday":2616,"pping":2617,"Ġhour":2618,"endaten":2619,"Ġbesteht":2620,"most":2621,"Ġsour":2622,"Ġsupp":2623,"Ġcourse":2624,"Ġerforderlich":2625,"Ġserious":2626,"Ġinvolved":2627,"ingle":2628,"ĠGer":2629,"Ġstarted":2630,"ĠNetzwerk":2631,"Ġload":2632,"ĠNo":2633,"put":2634,"Ġange":2635,"ĠunterstÃ¼tz":2636,"Ġdeal":2637,"Ġhilf":2638,"ĠOverflow":2639,"Ġhilfreich":2640,"tr":2641,"Ġanyone":2642,"unktionen":2643,"Ġaccur":2644,"Ġlie":2645,"Ġachie":2646,"ĠAus":2647,"Ġdelete":2648,"ĠDatens":2649,"Ġvoting":2650,"fehl":2651,"âĢĿ":2652,"Ġcapabilities":2653,"Ġtailored":2654,"onym":2655,"Ġquite":2656,"Ġdays":2657,"Ġbrow":2658,"Ġevent":2659,"iced":2660,"Ġjedoch":2661,"geting":2662,"Ġfest":2663,"Ġnor":2664,"Ġincrease":2665,"iption":2666,"rech":2667,"ister":2668,"Ġverurs":2669,"ĠPost":2670,"Ġabove":2671,"Ġinconsist":2672,"Ġsuperuser":2673,"Ġdevice":2674,"Ġclient":2675,"ĠLeist":2676,"Ġqueue":2677,"nI":2678,"ĠPatientendaten":2679,"ammen":2680,"Ġpossibly":2681,"ĠTools":2682,"Âł":2683,"Ġphone":2684,"Ġimportant":2685,"sh":2686,"Ġgets":2687,"Plattform":2688,"fort":2689,"ming":2690,"Ġsynchron":2691,"achen":2692,"Ġclick":2693,"Ġfeed":2694,"Ġname":2695,"Ġsingle":2696,"Ġmodel":2697,"ek":2698,"letz":2699,"ĠLinux":2700,"ĠmÃ¶glicherweise":2701,"gre":2702,"Ġnothing":2703,"server":2704,"Te":2705,"Ġlassen":2706,"ĠQuestions":2707,"âĶĢ":2708,"fo":2709,"ĠâĢľ":2710,"haps":2711,"cen":2712,"Ġutil":2713,"par":2714,"ification":2715,"Ġconfidentiality":2716,"Ġlinks":2717,"Ġpoints":2718,"obe":2719,"ĠkÃ¶nnte":2720,"Ġdecision":2721,"Ġyear":2722,"ĠzurÃ¼ckzufÃ¼hren":2723,"Ġcases":2724,"chlÃ¼ssel":2725,"Ġproper":2726,"ples":2727,"Ġgl":2728,"gestellt":2729,"erkzeu":2730,"ktop":2731,"Ġvalid":2732,"buntu":2733,"allen":2734,"Ġcritical":2735,"Ġreject":2736,"Ã¼rz":2737,"Ġobvious":2738,"Ġdownvote":2739,"Ġtagged":2740,"Ġtargeting":2741,"As":2742,"ream":2743,"Ġregular":2744,"Ġversions":2745,"tiv":2746,"ourcen":2747,"Ġposting":2748,"Ġimplemented":2749,"OS":2750,"Ġguide":2751,"ĠSicherheit":2752,"cal":2753,"light":2754,"sers":2755,"usammen":2756,"Ġresearch":2757,"ĠRec":2758,"Ġappears":2759,"Ġ/":2760,"Ġautomat":2761,"Ġcare":2762,"Ġconcerns":2763,"Ġcompliance":2764,".)":2765,"igure":2766,"besond":2767,"icing":2768,"besondere":2769,"21":2770,"Ġauthor":2771,"SQL":2772,"Ġpassw":2773,"ĠZiel":2774,"dy":2775,"etr":2776,"tty":2777,"anz":2778,"Ġinquire":2779,"tection":2780,"Ġquickly":2781,"Ġmigrated":2782,"ĠSome":2783,"aches":2784,"Ġimage":2785,"ler":2786,"Ġma":2787,"Ġreset":2788,"Ġtas":2789,"strategien":2790,"ĠService":2791,"Ġparticularly":2792,"Ġmeld":2793,"Ġfinden":2794,"Ġenvironment":2795,"âĶĢâĶĢ":2796,"Ġaus":2797,"Ġmeans":2798,"lock":2799,"air":2800,"Ġreopen":2801,"Ġnon":2802,"Ġexperienced":2803,"ocus":2804,"Is":2805,"Ġ0":2806,"outer":2807,"Ġinformed":2808,"Ġexpect":2809,"Ġnoticed":2810,"Ġrunning":2811,"Ġmonth":2812,"Ġkindly":2813,"ĠKon":2814,"Ġresolved":2815,"ication":2816,"dem":2817,"Ġoutages":2818,"Ġmedizinischen":2819,"ecifically":2820,"ĠGerÃ¤":2821,"Ġport":2822,"Ġservers":2823,"ĠGesund":2824,"Ġbroad":2825,"Ġfirewall":2826,"ĠKampagnen":2827,"Ġfrequ":2828,"ancing":2829,"Ġadministr":2830,"dit":2831,"ising":2832,"Ġchecking":2833,"Ġactual":2834,"Ġincluded":2835,"Ġaren":2836,"Ġmal":2837,"ĠNum":2838,"ompatibilit":2839,"Ġalgorith":2840,"Ġremoved":2841,"Ġyears":2842,"Ġdatabase":2843,"body":2844,"Ġbreaches":2845,"Ġline":2846,"Ġstate":2847,"Ġlatest":2848,"Ġedited":2849,"Ġinitial":2850,"Ġess":2851,"elines":2852,"Ġpretty":2853,"Ġallowed":2854,"Ġwissen":2855,"Ġgiven":2856,"Could":2857,"ĠAnleitungen":2858,"Ġleave":2859,"Ġeiner":2860,"Ġveral":2861,"ifying":2862,"nisse":2863,"Ġrecently":2864,"Re":2865,"Ġtra":2866,"ĠLet":2867,"Ġoperations":2868,"fl":2869,"PA":2870,"heits":2871,"Ġacknowledge":2872,"Ġdep":2873,"Ġunex":2874,"ĠEmp":2875,"Ġediting":2876,"essourcen":2877,"Ġalong":2878,"ĠTr":2879,"Ġtrans":2880,"ooks":2881,"prÃ¼f":2882,"Ġauch":2883,"ĠBen":2884,"olved":2885,"Ġchallen":2886,"ĠWerkzeu":2887,"ĠverfÃ¼g":2888,"ibe":2889,"ĠSicherheitsmaÃŁnahmen":2890,"Ġlinked":2891,"support":2892,"tend":2893,"ĠQuestion":2894,"Ġwiki":2895,"ustart":2896,"Ġworks":2897,"ĠVerschlÃ¼ssel":2898,"Ġlarge":2899,"Ġhours":2900,"Ġunexpected":2901,"Ġfalls":2902,"frastructure":2903,"ĠAktualisierung":2904,"Ġorganization":2905,"ĠĠĠĠĠĠĠĠĠĠĠĠĠĠĠĠ":2906,"Ġoccurred":2907,"Ġtre":2908,"where":2909,"Ġemp":2910,"ahl":2911,"ology":2912,"ĠAr":2913,"Ġadvert":2914,"Ġonce":2915,"elp":2916,"ĠCont":2917,"Ġflagged":2918,"Ġfit":2919,"ĠVerbind":2920,"iagn":2921,"Ġads":2922,"Ġfocus":2923,"ĠDatenver":2924,"Ġworth":2925,"last":2926,"Ġpotentially":2927,"ĠDienstleistungen":2928,"Ġchar":2929,"Ġpower":2930,"Ġgena":2931,"Ġobser":2932,"Ġsafe":2933,"Ġdifficulties":2934,"Ġimplementation":2935,"wachstum":2936,"Ġpurpose":2937,"ragen":2938,"Ġinfrastructure":2939,"Ġword":2940,"ild":2941,"ĠGesundheits":2942,"ors":2943,"Ġfeature":2944,"richt":2945,"hÃ¶":2946,"ecially":2947,"nehmen":2948,"val":2949,"Ġref":2950,"reichen":2951,"Ġcop":2952,"Ġcontacting":2953,"Ġpresence":2954,"ĠRessourcen":2955,"Ġmaybe":2956,"Ġreviewed":2957,"SE":2958,"Ġprevious":2959,"Ġscope":2960,"Ġdrive":2961,"Ġhin":2962,"ĠAnforderungen":2963,"ials":2964,"Ġcontinues":2965,"tivirus":2966,"Ġbieten":2967,"uff":2968,"Ġeffective":2969,"Ġtraffic":2970,"ierungen":2971,"ings":2972,"cle":2973,"Ġbis":2974,"Ġusage":2975,"Ġknowled":2976,"oup":2977,"rotz":2978,"arten":2979,"Ġveralte":2980,"ĠEmpfehl":2981,"Ġsend":2982,"Ġsense":2983,"ufen":2984,"Ġreinstall":2985,"Ġeff":2986,"ĠClick":2987,"ĠOnline":2988,"ĠSpecifically":2989,"iver":2990,"Ġsort":2991,"Ġhope":2992,"Ġnach":2993,"Ġsuccessful":2994,"Ġproceed":2995,"Ã¤h":2996,"oost":2997,"Ġconfigurations":2998,"Es":2999,"Ġpast":3000,"Ġfl":3001,"Ġvoted":3002,"Ġknowledge":3003,"Ġsecond":3004,"fÃ¤l":3005,"rategie":3006,"ĠAre":3007,"Ġanaly":3008,"prozess":3009,"chnungs":3010,"Ġeffort":3011,"?\"":3012,"grund":3013,"Ġenc":3014,"Fault":3015,"Ġpar":3016,"schieden":3017,"text":3018,"resolved":3019,"itale":3020,"ĠDe":3021,"Ġclearly":3022,"uthent":3023,"Ġsuspect":3024,"Ġnicht":3025,"Ġlang":3026,"ifications":3027,"Ġerle":3028,"Ġspecifically":3029,"Ġactions":3030,"Ġwindows":3031,"ĠTer":3032,"ared":3033,"vis":3034,"Ġunresolved":3035,"Ġzuk":3036,"oid":3037,"ĠInter":3038,"Ġsicher":3039,"uring":3040,"otion":3041,"abor":3042,"ĠunterstÃ¼tzen":3043,"Ġsynchronization":3044,".\"":3045,"Ġ&":3046,"though":3047,"Ġsubmit":3048,"https":3049,"Ġfiles":3050,"Ġimprovement":3051,"ĠIhren":3052,"admin":3053,"Ġago":3054,"Ġrob":3055,"**":3056,"Ġconnection":3057,"step":3058,"tellungen":3059,"Ġboost":3060,"Ġrecords":3061,"Ġscre":3062,"Ġflags":3063,"ĠAlso":3064,"ĠEmpfehlungen":3065,"orry":3066,"ĠIm":3067,"Ġprop":3068,"Ġclosing":3069,"Ġpolicy":3070,"Ġanswering":3071,"Ġshouldn":3072,"ma":3073,"ract":3074,"Ġ@":3075,"Ġverschieden":3076,"Ġverursacht":3077,"ster":3078,"Ġpriv":3079,"traul":3080,"Ġexamples":3081,"Ġbin":3082,"Ġdigitale":3083,"Ġtit":3084,"eren":3085,"uld":3086,"ierungs":3087,"Ġapply":3088,"Ġadded":3089,"Ġcommon":3090,"Ġcommun":3091,"ĠUntersuch":3092,"Ġquer":3093,"Ġoverall":3094,"Ġbetroffenen":3095,"ĠPl":3096,"Ġseeing":3097,"Ġfeedback":3098,"Ġproductivity":3099,"ierten":3100,"play":3101,"Ġfestgestellt":3102,"ering":3103,"eln":3104,"ĠGr":3105,"Ġagainst":3106,"Ġsuggested":3107,"Ġsubs":3108,"50":3109,"Ġcannot":3110,"Ġverwend":3111,"Ġerreichen":3112,"Ġincorrect":3113,"Ġmonitor":3114,"Ġsolve":3115,"Ġstud":3116,"Ġoutage":3117,"Ġreports":3118,"org":3119,"ĠWhile":3120,"Ġconfirm":3121,"lection":3122,"Ġwelche":3123,"RM":3124,"Ġones":3125,"wards":3126,"Ġdash":3127,"Ġinformieren":3128,"Ser":3129,"Ġx":3130,"atively":3131,"especially":3132,"kumentation":3133,"arily":3134,"ilfe":3135,"ness":3136,"weis":3137,"Ġhabe":3138,"Ġda":3139,"Ã¤tig":3140,"Ġmelden":3141,"acing":3142,"Ġtal":3143,"atch":3144,"Ġoption":3145,"ators":3146,"ĠMÃ¶glich":3147,"icherung":3148,"what":3149,"Ġbisher":3150,"Ġaim":3151,"ird":3152,"Ġability":3153,"Ġvalue":3154,"Ġwrite":3155,"ĠÃ¼berprÃ¼fen":3156,"did":3157,"tain":3158,"Ġprior":3159,"Ġtypes":3160,"Ġencour":3161,"MM":3162,"ling":3163,"Ġaufgrund":3164,"Ġscr":3165,"Ġprovider":3166,"Ġvalu":3167,"ĠAll":3168,"ĠSysteme":3169,"ĠMarkenwachstum":3170,"Ġassu":3171,"Ġconst":3172,"Ġitself":3173,"ĠCloud":3174,"Ġaudit":3175,"Ġchallenges":3176,"cing":3177,"face":3178,"like":3179,"Ġbasic":3180,"entur":3181,"ĠprÃ¼":3182,"ĠAdobe":3183,"Ġbug":3184,"elle":3185,"Up":3186,"ichtig":3187,"ĠPre":3188,"gin":3189,"Ġavailability":3190,"Ġentire":3191,"Ġspezifische":3192,"Ġprocesses":3193,"Ġidentifiz":3194,"Ġvulnerabilities":3195,"Ġanz":3196,"ĠAnwend":3197,"ete":3198,"geb":3199,"ĠAssist":3200,"traulich":3201,"Ġmiss":3202,"Ġcontain":3203,"Ġinquiry":3204,"Ġaway":3205,"Ġmis":3206,"Ġdevelopment":3207,"Ġimprovements":3208,"Ġhandle":3209,"oint":3210,"ĠKontakt":3211,"ĠDisk":3212,"Ġstor":3213,"ĠNutz":3214,"><":3215,"Ġcy":3216,"Ġappear":3217,"tellung":3218,"Ġcompletely":3219,"Ġdate":3220,"nummer":3221,"zÃ¶":3222,"ĠInvestment":3223,"----":3224,"Ġconsidered":3225,"alt":3226,"Ġintermit":3227,"ĠNow":3228,"Ġweek":3229,"acke":3230,"ĠMac":3231,"Ġdetect":3232,"Ġplans":3233,"Ġhowever":3234,"Ġdashboard":3235,"Ġlevel":3236,"Ġsmall":3237,"ĠbeeintrÃ¤chtigt":3238,"Ġbehav":3239,"ĠprÃ¼fen":3240,"ĠServerFault":3241,"Ġinteressiert":3242,"Ġempf":3243,"Ġpricing":3244,"ĠRat":3245,"ĠSchutz":3246,"Ġhost":3247,"ĠAny":3248,"Ġ:":3249,"tegration":3250,"ĠHere":3251,"Ġconcerning":3252,"answered":3253,"ton":3254,"long":3255,"Ġgenerally":3256,"which":3257,"ĠNeustart":3258,"Ġfine":3259,"Ġexcept":3260,"Ġorder":3261,"Ġcandid":3262,"Ġavoid":3263,"wier":3264,"ĠSit":3265,"Ġexpected":3266,"ĠZusammen":3267,"Ġeinem":3268,"Ġlonger":3269,"Ġstuff":3270,"ĠWeb":3271,"Ġguidelines":3272,"Ġconnections":3273,"ĠProdukte":3274,"hind":3275,"Ġachieve":3276,"zÃ¶ger":3277,"Ġaber":3278,"over":3279,"fortun":3280,"Ġthree":3281,"ĠAttempt":3282,"ĠkÃ¼rz":3283,"Ġleft":3284,"ehm":3285,"Ġscript":3286,"ackexchange":3287,"Ġcho":3288,"ĠSicherheitsprotokolle":3289,"guard":3290,"kten":3291,"ĠPC":3292,"Ġsensib":3293,"Ġrecommendation":3294,"Ġengine":3295,"IPA":3296,"upp":3297,"Ġleading":3298,"comes":3299,"Ġinsbesondere":3300,"Ġsafeguard":3301,"Ġsometimes":3302,"ĠKundensupport":3303,"how":3304,"Ġmind":3305,"Ġbenefit":3306,"ĠAssistance":3307,"Ġintegrate":3308,"Ġliefer":3309,"IPAA":3310,"ĠImp":3311,"barkeit":3312,"Ġoperating":3313,"iod":3314,"labor":3315,"Ġsays":3316,"ĠBere":3317,"ĠHello":3318,"ĠEnts":3319,"Ġgest":3320,"Ġregul":3321,"Ġreceive":3322,"Ġpop":3323,"ibt":3324,"Ġupvotes":3325,"Ġespecially":3326,"Ġsk":3327,"ĠUpdates":3328,"ĠHIPAA":3329,"Ġexplan":3330,"ĠDiese":3331,"Ġdiagn":3332,"ĠUbuntu":3333,"eng":3334,"Ġbecome":3335,"Ġsho":3336,"Ġsuggestions":3337,"Ġdieser":3338,"Ġsubscr":3339,"Ġalmost":3340,"Ġappl":3341,"dr":3342,"oder":3343,"Ġturn":3344,"Ġobserved":3345,"wise":3346,"Ġign":3347,"Ġselect":3348,"Ich":3349,"Ġside":3350,"ysadmin":3351,"ĠProdukt":3352,"Ġgoals":3353,"Ġinvestments":3354,"suche":3355,"ĠDokumentation":3356,"ĠâĢĵ":3357,"Ġprofile":3358,"Ġhist":3359,"Ġerk":3360,"Ġpeak":3361,"ĠEng":3362,"pass":3363,"Ġentsch":3364,"Ġbig":3365,"hot":3366,"icial":3367,"Ġnorm":3368,"daten":3369,"ivers":3370,"ĠHilfe":3371,"Ġseriously":3372,"wierigkeiten":3373,"les":3374,"Ġ#":3375,"Ġwa":3376,"enter":3377,"soc":3378,"ĠdurchgefÃ¼hrt":3379,"ĠBenutzer":3380,"based":3381,"swers":3382,"Ġleg":3383,"Ġobject":3384,"Ġtoday":3385,"idungen":3386,"Ġfacilit":3387,"aged":3388,"ĠProm":3389,"Ġtechniqu":3390,"Ġdownvotes":3391,"Ġyours":3392,"Ġactive":3393,"schlÃ¤":3394,"Ġenhancing":3395,"Ġcopy":3396,"Ġeing":3397,"Ġenable":3398,"Ġperiod":3399,"Ġexpert":3400,"Updates":3401,"Ġwouldn":3402,"derungen":3403,"ĠKompatibilit":3404,"Ġliefern":3405,"Ġ...":3406,"ante":3407,"ĠKrankenhauses":3408,"hl":3409,"ĠerhÃ¶":3410,"Ġempfeh":3411,"ĠSituation":3412,"Ġcomprom":3413,"Ġreported":3414,"met":3415,"Ġscore":3416,"lined":3417,"ĠClickUp":3418,"fÃ¤lle":3419,"Ġvide":3420,"unter":3421,"Ġparticip":3422,"Ġurgently":3423,"reten":3424,"Ġblock":3425,"Ġ+":3426,"Ġupgr":3427,"Un":3428,"ĠAnalyse":3429,"pdate":3430,"jor":3431,"sam":3432,"tag":3433,"acking":3434,"Ġcommand":3435,"urrently":3436,"etzen":3437,"Ġvisibility":3438,"Ġstandards":3439,"Ġtitle":3440,"Ġtechniques":3441,"Our":3442,"ĠMar":3443,"ĠFin":3444,"ĠQu":3445,"Ġremove":3446,"alytics":3447,"teil":3448,"ivid":3449,"ĠAttempts":3450,"fficienc":3451,"Ġdring":3452,"].":3453,"mber":3454,"Ġbed":3455,"Ġuner":3456,"Ġcontext":3457,"Ġaltern":3458,"achine":3459,"Ġpromote":3460,"Ġchanged":3461,"Ġreturn":3462,"Ġstream":3463,"Ġbelong":3464,"ĠAuf":3465,"Ġrebooting":3466,"bt":3467,"Ġdro":3468,"ames":3469,"ump":3470,"Ġpoor":3471,"Ġimportance":3472,"ring":3473,"rucial":3474,"schlÃ¤ge":3475,"Ġcount":3476,"ĠImplement":3477,"more":3478,"yself":3479,"Ġdesktop":3480,"ĠGerÃ¤te":3481,"Ġproced":3482,"Ġsignificantly":3483,"ĠMe":3484,"Ġlead":3485,"000":3486,"Ġlogin":3487,"Ġcollabor":3488,"Ġassess":3489,"Ġaccurate":3490,"Ġbrowser":3491,"ĠTrotz":3492,"ender":3493,"Ġshown":3494,"ording":3495,"Ġresource":3496,"Ġimproved":3497,"fect":3498,"Ġlooks":3499,"Ġsynonym":3500,"Ġmajor":3501,"prÃ¼fung":3502,"ature":3503,"Ġcaches":3504,"Ġprotection":3505,"ĠKonto":3506,"Ġtowards":3507,"Ġint":3508,"Ġhighly":3509,"gether":3510,"ĠTermin":3511,"Ġidentifizieren":3512,"mm":3513,"Ġmentioned":3514,"Ġcreated":3515,"AP":3516,"Ġerfolg":3517,"Ġrobust":3518,"Ġtot":3519,"use":3520,"Ġinvo":3521,"ĠDiskuss":3522,"Hello":3523,"wick":3524,"Ġforum":3525,"ichten":3526,"Ã¤ts":3527,"Ġrestarted":3528,"Ġwann":3529,"aster":3530,"Ġrequir":3531,"cel":3532,"Ġassoc":3533,"ĠWenn":3534,"ktur":3535,"Ġadvanced":3536,"Ġstudies":3537,"Ġsusp":3538,"Ġlater":3539,"Ġworkflows":3540,"Ġwonder":3541,"fortunately":3542,"ode":3543,"orking":3544,"Ġtopics":3545,"ĠInteress":3546,"esch":3547,"Ġmyself":3548,"asst":3549,"Ġnote":3550,"ĠGe":3551,"ardware":3552,"ounts":3553,"You":3554,"miss":3555,"Ġfav":3556,"Ġsimple":3557,"Ġaccounts":3558,"Ġneuest":3559,"Ġine":3560,"Systemen":3561,"Ġfull":3562,"oring":3563,"Ġredu":3564,"Ġbesten":3565,"Ġcost":3566,"ending":3567,"system":3568,"Ġreceiving":3569,"Ġautomatically":3570,"aybe":3571,"ived":3572,"Ġguess":3573,"Ġidentified":3574,"ĠbestÃ¤tig":3575,"nommen":3576,"ites":3577,"ĠCRM":3578,"Ġspecify":3579,"Ġusually":3580,"Ġstarten":3581,"Ġchecked":3582,"ĠNutzung":3583,"Ġretag":3584,"Ġsect":3585,"ĠSc":3586,"Ġunternommen":3587,"ĠWerkzeuge":3588,"Ġneuesten":3589,"Ġrepl":3590,"ield":3591,"esprÃ¤ch":3592,"Ġperhaps":3593,"ĠFehlerbe":3594,"Ġkon":3595,"Ġeveryone":3596,"Ġwritten":3597,"Software":3598,"inc":3599,"Ġdist":3600,"ĠDer":3601,"ĠOne":3602,"Ġactivity":3603,"Ã¼nft":3604,"ips":3605,"eline":3606,"Ġvol":3607,"Ġemploy":3608,"Ġfo":3609,"Ġfacilitate":3610,"Ġlack":3611,"Ġerheb":3612,"overflow":3613,"Ġaware":3614,"urch":3615,"ĠBer":3616,"ieder":3617,"Ġann":3618,"abe":3619,"ossible":3620,"ĠRed":3621,"Ġwanted":3622,"Ġinvolving":3623,"Ġbenefits":3624,"ĠVerschlÃ¼sselung":3625,"ptop":3626,"Ġhttp":3627,"inter":3628,"roll":3629,"Ġ19":3630,"Thank":3631,"12":3632,"Ġ9":3633,"See":3634,"Ġways":3635,"Ġverhind":3636,"ruption":3637,"Ġrespons":3638,"Ġexactly":3639,"ĠUntersuchung":3640,"SO":3641,"osure":3642,"Ġcra":3643,"roid":3644,"cies":3645,"itionen":3646,"Ġdesp":3647,"cer":3648,"letzung":3649,"Ġessential":3650,"ĠInteresse":3651,"book":3652,"Ġfair":3653,"ĠFÃ¼r":3654,"ĠAds":3655,"Ġpassenden":3656,"Ġsysadmin":3657,"urity":3658,"Ġgather":3659,"Ġra":3660,"Ġfailures":3661,"Ġmigration":3662,"go":3663,"Ġthread":3664,"ĠInit":3665,"ĠZahl":3666,"Ġnotwendig":3667,"Ġever":3668,"utorials":3669,"ĠzukÃ¼nft":3670,"ĠGesprÃ¤ch":3671,"zÃ¶gerungen":3672,"ited":3673,"edia":3674,"ĠSicherung":3675,"Ã¶ren":3676,"Ġdetected":3677,"ĠPromotion":3678,"Die":3679,"Ġthor":3680,"Ġpos":3681,"ĠSince":3682,"Ġunless":3683,"Ġwasn":3684,"Ġinternet":3685,"ĠIntegritÃ¤t":3686,"fun":3687,"reibe":3688,"ĠSte":3689,"Ġdespite":3690,"ecurity":3691,"Ġverm":3692,"Ġschnelle":3693,"Ġscalability":3694,"fficiency":3695,"13":3696,"Exchange":3697,"Ġcrucial":3698,"Ġintermittent":3699,"Ġexplanation":3700,"Ġthorough":3701,"asing":3702,"Ġbelow":3703,"ired":3704,"ontrol":3705,"Ġtechnology":3706,"traulichkeit":3707,"esh":3708,"sto":3709,"ĠFall":3710,"Ġstatus":3711,"Ġverhindern":3712,"ĠDes":3713,"Ġamount":3714,"Ġalgorithm":3715,"65":3716,"Ġdownvoted":3717,"Ġ2021":3718,"Ġindivid":3719,"this":3720,"ienste":3721,"Ġeffekt":3722,"mÃ¼":3723,"ĠGerne":3724,"Ġmehrere":3725,"ĠFunktionen":3726,"Ġfunctionality":3727,"Ġmembers":3728,"Team":3729,"ĠermÃ¶glich":3730,"Ġshopping":3731,"mÃ¤":3732,"tion":3733,"ĠTag":3734,"Ġcomes":3735,"Ġdisplay":3736,"Ġbutton":3737,"eshold":3738,"Ġfailure":3739,"Ġupvote":3740,"hoden":3741,"Ġdifference":3742,"ooth":3743,"Ġequ":3744,"igkeit":3745,"Ġrejected":3746,"Ġgenau":3747,"Ġinconsisten":3748,"ruktur":3749,"Ġroom":3750,"Ġincreased":3751,"Ġeasy":3752,"Ġwhole":3753,"Ġmarket":3754,"Ġreinstalling":3755,"heet":3756,"action":3757,"irtual":3758,"Ġinput":3759,"Ġefficiency":3760,"utes":3761,"Ã¤ten":3762,"ielle":3763,"ĠAnleitung":3764,"Ġhold":3765,"Ġsl":3766,"leased":3767,"ĠUS":3768,"ĠVertraulichkeit":3769,"LA":3770,"Ġimpacted":3771,"Ġest":3772,"ales":3773,"Ġschreibe":3774,"Ġsaying":3775,"mÃ¤ÃŁ":3776,"anke":3777,"iger":3778,"Ġstack":3779,"ĠLooking":3780,"Ġperfect":3781,"Can":3782,"Ġthird":3783,"grupp":3784,"Ġsepar":3785,"mpor":3786,"of":3787,".<":3788,"nich":3789,"ĠSchwierigkeiten":3790,"ĠBehebung":3791,"Ġcame":3792,"Ġnice":3793,"Ġschedul":3794,"ffice":3795,"Ġgeeignete":3796,"fÃ¼r":3797,"onical":3798,"Ġhappens":3799,"ĠAltern":3800,"Ġrequires":3801,"ĠPr":3802,"Ġverifying":3803,"Ġhappened":3804,"My":3805,"Ġwar":3806,"Ġspecial":3807,"Ġhighlight":3808,"Ã¼ÃŁ":3809,"Ġmeeting":3810,"ĠFire":3811,"itteilen":3812,"Ġconfus":3813,"Ġpotenz":3814,"Ġfront":3815,"inking":3816,"tens":3817,"acle":3818,"ĠBetr":3819,"ĠStÃ¶r":3820,"Ġroll":3821,"Ġaktualisiert":3822,"part":3823,"work":3824,"Ġmitteilen":3825,"iele":3826,"fenster":3827,"Facing":3828,"Ġoptimieren":3829,"raph":3830,"Ġlocal":3831,"Ġurgency":3832,"St":3833,"iden":3834,"Ġdeploy":3835,"Ã¼tzen":3836,"ĠInvestitionen":3837,"Ġmeant":3838,"udem":3839,"Ġplay":3840,"ĠZudem":3841,"Ġimmediately":3842,"Ġsensibler":3843,"rel":3844,"leg":3845,"iving":3846,"Ġimproving":3847,"ism":3848,"Ġnutz":3849,"oment":3850,"Ġreading":3851,"ĠschÃ¤tze":3852,"Ġinde":3853,"Ġjob":3854,"ĠZielgrupp":3855,"Ġtaking":3856,"Ġbot":3857,"ĠschÃ¼tzen":3858,"Ġreference":3859,"Ġbehavior":3860,"Wir":3861,"Ġmove":3862,"ogn":3863,"vor":3864,"reg":3865,"lex":3866,"ager":3867,"gress":3868,"cker":3869,"Ġdowntime":3870,"serverfault":3871,"AT":3872,"Ġpack":3873,"Ġseam":3874,"Ġrestr":3875,"Ġdaran":3876,"ympt":3877,"tended":3878,"Ġtogether":3879,"chritt":3880,"ances":3881,"ptionen":3882,"Ġbox":3883,"Tools":3884,"ĠwÃ¼rden":3885,"Ġstrong":3886,"por":3887,"sere":3888,"irewalls":3889,"Ġhaven":3890,"Ġincidents":3891,"Ġseamless":3892,"aff":3893,"Ġhim":3894,"uldigen":3895,"Ġrange":3896,"fforts":3897,"ublic":3898,"no":3899,"optimierung":3900,"irst":3901,"undend":3902,"ĠZeitfenster":3903,"Ġmigrate":3904,"Ã¤nd":3905,"ength":3906,"Ġrisk":3907,"Ġdescription":3908,"Ġhistory":3909,"unch":3910,"ĠAnalytics":3911,"Ġadjustments":3912,"Ġdirectly":3913,"Your":3914,"Ġdra":3915,"ards":3916,"Ã¤lt":3917,"bin":3918,"fehler":3919,"pre":3920,"Ġprivile":3921,"rufen":3922,"itors":3923,"Ġbegin":3924,"uting":3925,"Ã¤s":3926,"ĠVerzÃ¶gerungen":3927,"ÃŁer":3928,"Ġenhancements":3929,"ĠInitial":3930,"fessional":3931,"leted":3932,"ĠSQL":3933,"ĠEfforts":3934,"press":3935,"Ã¶rder":3936,"xx":3937,"Ġaward":3938,"ĠhÃ¶ren":3939,"artet":3940,"ĠâĢĶ":3941,"Ġprocedures":3942,"windows":3943,"Ġelect":3944,"ĠJust":3945,"Ġsuspected":3946,"ĠÃľberprÃ¼fung":3947,"Ġsources":3948,"Ġstorage":3949,"erson":3950,"Ġmater":3951,"Ġveraltete":3952,"Ġlangu":3953,"aving":3954,"Ġincludes":3955,"ĠTechn":3956,"Ġbreak":3957,"Ġvideo":3958,"Ġsorry":3959,"Ġwords":3960,"Ġtempor":3961,"Ġinterface":3962,"Ġmaintain":3963,"Ġyourself":3964,"Ġrouter":3965,"acy":3966,"],\\":3967,"Ġcover":3968,"undendienst":3969,"Ġdisag":3970,"Ã¼rf":3971,"Ġsmooth":3972,"uthentication":3973,"Ġunsu":3974,"Ġuntil":3975,"witch":3976,"pen":3977,"Ġcreation":3978,"bind":3979,"falls":3980,"sel":3981,"ishing":3982,"aming":3983,"Ġneg":3984,"Ġaccessing":3985,"Ġmoderation":3986,"ĠFinanz":3987,"tic":3988,"Ġanb":3989,"Ġprec":3990,"Ġred":3991,"Ġsource":3992,"omet":3993,"imin":3994,"Ġdisk":3995,"ĠFe":3996,"Ġ100":3997,"ĠDoes":3998,"ID":3999,"ceived":4000,"Ġeverything":4001,"Ġir":4002,"Ġsoll":4003,"Ġdecline":4004,"Ġinteresting":4005,"Ġgemeld":4006,"ĠAsk":4007,"Ġmods":4008,"ĠSk":4009,"ĠFurther":4010,"Ġaudits":4011,"Ġpresent":4012,"Ġsent":4013,"ĠSS":4014,"Ġscans":4015,"Ġconcerned":4016,"Ġvari":4017,"ĠVorfall":4018,"ĠVerbesserungen":4019,"Ġhind":4020,"ccessful":4021,"ĠPlattformen":4022,"TT":4023,"orad":4024,"Ġmisc":4025,"ĠPra":4026,"Ġtrack":4027,"Ġenhanced":4028,"kontrol":4029,"ĠEven":4030,"ĠÃ¼berprÃ¼ft":4031,"Ġempfehlen":4032,"uck":4033,"atis":4034,"Ġsporad":4035,"rif":4036,"Ħn":4037,"orpor":4038,"ones":4039,"iting":4040,"stackexchange":4041,"ude":4042,"ĠStackExchange":4043,"Ġverstehe":4044,"hang":4045,"ĠKonf":4046,"Ġcommit":4047,"enshot":4048,"Projekt":4049,"ĠEntsche":4050,"zug":4051,"Ġanrufen":4052,"Ġindicate":4053,"Ġurgent":4054,"Ġpassword":4055,"anagement":4056,"Ġbew":4057,"ĠThema":4058,"Ġcauses":4059,"ĠErfolg":4060,"ĠUrsachen":4061,"Ġauthentication":4062,"Ġshows":4063,"ktiken":4064,"ĠNach":4065,"Ġpatches":4066,"Tel":4067,"ets":4068,"ĠCon":4069,"Ġrespond":4070,"weisungen":4071,"Ġmist":4072,"ustr":4073,"ĠCom":4074,"ĠRechnungs":4075,"Ġlaptop":4076,"els":4077,"Ġarea":4078,"Ġlimitations":4079,"Ġbuild":4080,"Ġmalfun":4081,"ww":4082,"ĠmÃ¶glichen":4083,"ĠOracle":4084,"frastruktur":4085,"ĠFragen":4086,"Ġadding":4087,"Ġpred":4088,"ructive":4089,"ĠLeistung":4090,"selves":4091,"lik":4092,"lying":4093,"Ġhelps":4094,"member":4095,"Ġtab":4096,"Ġattempting":4097,"Ġattract":4098,"Ġlimited":4099,"greSQL":4100,"Ġsicherzustellen":4101,"Ġvaluable":4102,"acity":4103,"ĠName":4104,"Ġlock":4105,"ĠPostgreSQL":4106,"agentur":4107,"ĠPer":4108,"ĠDar":4109,"Ġinconsistencies":4110,"suring":4111,"itely":4112,"Ġclients":4113,"Ġtreffen":4114,"amm":4115,"Ġgoes":4116,"Ġoccas":4117,"Ġminimize":4118,"Ġtask":4119,"imp":4120,"Ġderzeit":4121,"ĠStrategie":4122,"halt":4123,"ĠbenÃ¶tige":4124,"folio":4125,"Ġunsuccessful":4126,"Ġumfass":4127,"hungen":4128,"Ġpublic":4129,"ĠKundendienst":4130,"cknowled":4131,"ĠOnce":4132,"Ġmarked":4133,"Ġaktualisieren":4134,"Ġmachine":4135,"Ġhal":4136,"aben":4137,"Ġdesigned":4138,"ĠPraktiken":4139,"Ġbeim":4140,"Ġgain":4141,"ĠEdit":4142,"rome":4143,"Ġacceptable":4144,"11":4145,"kungen":4146,"oin":4147,"wir":4148,"analys":4149,"ĠSAP":4150,"ĠAcknowled":4151,"Ġcertainly":4152,"iere":4153,"merk":4154,"ĠAndroid":4155,"Ġassociated":4156,"related":4157,"do":4158,"Ġtend":4159,"Ġfavor":4160,"bald":4161,"log":4162,"aring":4163,"Ġcomputers":4164,"Ġbadge":4165,"olute":4166,"dienst":4167,"eff":4168,"hmen":4169,"stack":4170,"igate":4171,"ĠPassw":4172,"ĠComp":4173,"Ġscheint":4174,"Ġcollaboration":4175,"Ġsection":4176,"Ġnutzen":4177,"ĠFehl":4178,"lagen":4179,"Ġfinding":4180,"Ġadvertise":4181,"nst":4182,"Books":4183,"Ġdou":4184,"Ġposter":4185,"Ġmeaning":4186,"ĠQuick":4187,"ĠApple":4188,"Ġanbieten":4189,"lus":4190,"making":4191,"ĠOb":4192,"Ġhinaus":4193,"ouple":4194,"ĠAnalys":4195,"sche":4196,"Ġpassende":4197,"sheet":4198,"Ġflagging":4199,"Ġreceipt":4200,"ĠImplementierung":4201,"lt":4202,"Ġinsu":4203,"rei":4204,"geh":4205,"Ġmoment":4206,"Ġqueries":4207,"Ġdrop":4208,"uer":4209,"Ġantivirus":4210,"ĠAPIs":4211,"Ġcapacity":4212,"Ġcandidates":4213,"Ġgestartet":4214,"going":4215,"ĠZahlungs":4216,"Ħnderungen":4217,"Quest":4218,"iar":4219,"ational":4220,"ĠSuperuser":4221,"Ġpasswords":4222,"Ġmac":4223,"fully":4224,"Ġsuggestion":4225,"warte":4226,"Ġsw":4227,"ĠDienste":4228,"Ġaccording":4229,"Ġbringing":4230,"RP":4231,"Ġcouple":4232,"Ġefficient":4233,"Ġtraining":4234,"ĠUnser":4235,"Ġ200":4236,"Ġcanonical":4237,"ĠModer":4238,"comp":4239,"ĠQuickBooks":4240,"atz":4241,"Systeme":4242,"ĠverfÃ¼gbar":4243,"clear":4244,"ĠZusammenhang":4245,"eness":4246,"ĠDarÃ¼ber":4247,"__":4248,"help":4249,"ĠWith":4250,"ĠFirewall":4251,"Ġrecogn":4252,"etzt":4253,"Ġmonitoring":4254,"ĠBereich":4255,"ymptom":4256,"Projektmanagement":4257,"For":4258,"eck":4259,"ĠAns":4260,"Ġhead":4261,"Ġapplied":4262,"TC":4263,"Ġau":4264,"Ġanyway":4265,"Ġsensible":4266,"Ġidentifying":4267,"stellen":4268,"ĠMaybe":4269,"Ġernst":4270,"ĠUnsere":4271,"Ġactively":4272,"Ġtasks":4273,"Ġdringend":4274,"Ġwish":4275,"ĠAc":4276,"Ġnotice":4277,"Ġlever":4278,"ĠDocker":4279,"Ġcorrectly":4280,"Ġgenauen":4281,"eless":4282,"Ġ15":4283,"Ġcriter":4284,"ĠTelefonat":4285,"Ġproperly":4286,"Do":4287,"Marketing":4288,"ouch":4289,"als":4290,"andom":4291,"ĠBedÃ¼rf":4292,"KÃ¶nnten":4293,"sc":4294,"Ġhar":4295,"Ġotherwise":4296,"ĠReg":4297,"Ġunseren":4298,"Please":4299,"with":4300,"asts":4301,"sequ":4302,"ĠSchritt":4303,"Ġscalable":4304,"Ġeasily":4305,"ĠLeistungs":4306,"ĠUSB":4307,"tes":4308,"ierter":4309,"ĠUnternehmen":4310,"Ġdrivers":4311,"Ġterms":4312,"hone":4313,"ents":4314,"Ġnature":4315,"udio":4316,"ĠAnwendungen":4317,"kon":4318,"iner":4319,"ĠYes":4320,"Ġanalyz":4321,"Seeking":4322,"icit":4323,"ctions":4324,"Ġnehmen":4325,"icherheits":4326,"Ġpopular":4327,"Ġnormal":4328,"Ġ.":4329,"Ġtutorials":4330,"Ġearn":4331,"Ġvisitors":4332,"Ġwieder":4333,"Ġdisruption":4334,"perform":4335,"ĠOpen":4336,"abei":4337,"][":4338,"Ġcate":4339,"Ġunbe":4340,"Ġstop":4341,"ĠERP":4342,"Ġsprechen":4343,"Ġwerde":4344,"Ġutilize":4345,"ĠzukÃ¼nftige":4346,"BM":4347,"Ġtrends":4348,"ivitÃ¤t":4349,"Ġnetworking":4350,"ashboard":4351,"Ġdisagree":4352,"omain":4353,"pped":4354,"Ġrequesting":4355,"ternet":4356,"Ġofficial":4357,"Ġinconsistent":4358,"Ġpredict":4359,"ane":4360,"ĠHardware":4361,"âĶĢâĶĢâĶĢâĶĢ":4362,"Ġsubscription":4363,"Sp":4364,"Ġface":4365,"Ġlic":4366,"ecause":4367,"Ġarbeit":4368,"fug":4369,"point":4370,"Ġprogress":4371,"osen":4372,"14":4373,"ouse":4374,"ĠSee":4375,"Ġstaff":4376,"ĠEine":4377,"Why":4378,"Ġlanguage":4379,"yle":4380,"Ġsur":4381,"Ġber":4382,"alier":4383,"Ġrefr":4384,"Ġlif":4385,"ground":4386,"Ġverme":4387,"Ã¤senz":4388,"ĠNote":4389,"Ġregards":4390,"Ġthemselves":4391,"Ġviews":4392,"ĠWord":4393,"ĠIhrem":4394,"Ġencourage":4395,"Ġregulations":4396,"imate":4397,"atever":4398,"Ġgeeignet":4399,"ĠRatschlÃ¤ge":4400,"software":4401,"Ġexists":4402,"ĠGrÃ¼ÃŁ":4403,"Ġwarn":4404,"Ġfixed":4405,"ĠVerbindung":4406,"ĠStÃ¶rungen":4407,"Ġvermeiden":4408,"wor":4409,"Ġtable":4410,"upd":4411,"PS":4412,"post":4413,"ĠRest":4414,"Ġbehind":4415,"ĠMySQL":4416,"Ġmerged":4417,"Ġentschuldigen":4418,"Ġrestrict":4419,"la":4420,"Ġers":4421,"Ġconvers":4422,"ynchron":4423,"Ġthreshold":4424,"ĠKompatibilitÃ¤ts":4425,"Ġadvertisements":4426,"leister":4427,"ĠIBM":4428,"stÃ¤nd":4429,"Ġsuper":4430,"Ġprim":4431,"Ġalternative":4432,"walt":4433,"Ġongoing":4434,"ĠUms":4435,"Ġslowdown":4436,"Server":4437,"Ġfigure":4438,"ĠKonfiguration":4439,"rateful":4440,"Ġminutes":4441,"imm":4442,"Ġensuring":4443,"Ġfreund":4444,"wohl":4445,"Ġcharact":4446,"Ex":4447,"bernet":4448,"ĠErgeb":4449,"Ġprogramming":4450,"ĠZugriffskontrol":4451,"Ġseparate":4452,"eut":4453,"konfiguration":4454,"Ġgrateful":4455,"lichkeiten":4456,"ĠbehÃ¤lt":4457,"Ġsupply":4458,"200":4459,"look":4460,"Ġoffers":4461,"griffen":4462,"Ġpreferred":4463,"ĠbeeintrÃ¤chtigen":4464,"ĠAbre":4465,"orr":4466,"elmÃ¤ÃŁ":4467,"Ġeines":4468,"ĠbenÃ¶tigt":4469,"Ġsize":4470,"ĠIP":4471,"Ġconsu":4472,"Ġabs":4473,"etzung":4474,"Ġgenaue":4475,"?)":4476,"Integration":4477,"Ġduplicates":4478,"Ġeasier":4479,"ĠDatabase":4480,"Ġmonths":4481,"Ġfrequent":4482,"ĠFehlerbehebung":4483,"ubernet":4484,"anned":4485,"Ġaddressing":4486,"witter":4487,"ubernetes":4488,"AM":4489,"dd":4490,"ĠCache":4491,"Ġsubjective":4492,"ĠUnann":4493,"ĠUnannehm":4494,"wer":4495,"isp":4496,"ĠAp":4497,"ĠVersuche":4498,"Ġdocument":4499,"Ġshortly":4500,"Ġcriteria":4501,"Ġpleased":4502,"Ġ365":4503,"ĠÃĦnderungen":4504,"En":4505,"ems":4506,"Ġgibt":4507,"Ġconsist":4508,"ĠUsers":4509,"ĠZo":4510,"wickl":4511,"ĠSecurity":4512,"Ġuses":4513,"Ġdiscounts":4514,"schutz":4515,"ritten":4516,"instellungen":4517,"bot":4518,"Ġsymptom":4519,"beits":4520,"Ġrestore":4521,"dienstleister":4522,"):":4523,"icated":4524,"Ġrevis":4525,"ĠUpdate":4526,"Ġletz":4527,"ferenz":4528,"icsearch":4529,"Ġpersonally":4530,"ĠRedis":4531,"ax":4532,"ĠElast":4533,"Ġdecid":4534,"bere":4535,"vid":4536,"Ġtimeline":4537,"Ġmanage":4538,"aktualis":4539,"ĠDokumentationen":4540,"Not":4541,"bit":4542,"ony":4543,"force":4544,"ĠReceived":4545,"Ġloc":4546,"ĠMarketingagentur":4547,"zure":4548,"Ġdabei":4549,"etwork":4550,"getreten":4551,"ĠElasticsearch":4552,")?":4553,"On":4554,"weit":4555,"erce":4556,"Ã¤uf":4557,"Ġtracking":4558,"ĠHe":4559,"ĠDiskussion":4560,"App":4561,"Comm":4562,"RL":4563,"vote":4564,"Ġdefinitely":4565,"Ġnotwendigen":4566,"ĠAlternatively":4567,"wischen":4568,"Ġban":4569,"Ġloss":4570,"hrend":4571,"ĠBest":4572,"ĠOut":4573,"âĢ¦":4574,"Ġreopened":4575,"ĠbestÃ¤tigen":4576,"eople":4577,"mail":4578,"Ġrule":4579,"Ġaufgetreten":4580,"ĠExcel":4581,"Ġfaced":4582,"ĠwÃ¤hrend":4583,"Ġvisual":4584,"Ġformatting":4585,"Ġmaterial":4586,"zen":4587,"onst":4588,"Ġrufen":4589,"ummer":4590,"Ġupload":4591,"Ġpattern":4592,"accur":4593,"Ġadvise":4594,"Ġbasically":4595,"Ġgemeldet":4596,"RA":4597,"Ġvirtual":4598,"Ã¤r":4599,"Ġactiv":4600,"ĠâĢ¦":4601,"Ġscreenshot":4602,"Overflow":4603,"bi":4604,"ĠAg":4605,"ĠKubernetes":4606,"ĠNA":4607,"ĠDatenb":4608,"Ġmerge":4609,"PU":4610,"plan":4611,"Ã¶sungen":4612,"wareness":4613,"Ġconducted":4614,"ynchronis":4615,"DIT":4616,"Ã¶nnen":4617,"Ġbedanken":4618,"igher":4619,"tery":4620,"ĠMed":4621,"ĠUnannehmlichkeiten":4622,"17":4623,"entsche":4624,"ift":4625,"ĠAntivirus":4626,"ounds":4627,"Ġcool":4628,"Ġexpand":4629,"Ġanalyze":4630,"atives":4631,"chan":4632,"ĠInternet":4633,"box":4634,"fox":4635,"Ġsymptoms":4636,"Ġcast":4637,"asch":4638,"Ġoutcomes":4639,"Ġdecide":4640,"cript":4641,"bsites":4642,"ĠiP":4643,"Ġentirely":4644,"Ġgenauer":4645,"Ġunbefug":4646,"\"?":4647,"Ġclosure":4648,"ĠSuch":4649,"Ġarg":4650,"ĠTeams":4651,"ĠVerfÃ¼gbarkeit":4652,"Ġconducting":4653,"iend":4654,"tre":4655,"Ġ=":4656,"Ġled":4657,"Ġbesteh":4658,"ĠArbeits":4659,"ÃŁerdem":4660,"Ġdieses":4661,"mÃ¼hungen":4662,"onest":4663,"Ġextern":4664,"ĠMost":4665,"ĠĠĠĠĠ":4666,"ĠSchwach":4667,"Ġmissing":4668,"Ġtotal":4669,"pos":4670,"zial":4671,"Ġgoogle":4672,"uelle":4673,"Ġclarify":4674,"Ġadvertising":4675,"uell":4676,"Ġinaccur":4677,"Ġunable":4678,"Ġareas":4679,"achstum":4680,"Ġdeletion":4681,"http":4682,"Ġfully":4683,"04":4684,"geben":4685,"Ġimages":4686,"ĠFrom":4687,"Ġunderperform":4688,"ĠWhere":4689,"Ġadministration":4690,"ĠerhÃ¶hen":4691,"Ġok":4692,"ĠWÃ¤":4693,"Ġstay":4694,"Ġ12":4695,"ibr":4696,"Ġdownload":4697,"Ġcreating":4698,"Ġclarification":4699,"Ġtalking":4700,"Ġsubst":4701,"Ġverschiedene":4702,"only":4703,"ĠNO":4704,"Ġsaw":4705,"Ġcustomers":4706,"party":4707,"Schritt":4708,"funktionen":4709,"js":4710,"Ġswitch":4711,"ieb":4712,"ĠWork":4713,"ĠMust":4714,"ĠdarÃ¼ber":4715,"ĠkÃ¼rzlich":4716,"ĠRestart":4717,"When":4718,"ero":4719,"uted":4720,"Ġasks":4721,"Ġoffered":4722,"Ġaktuelle":4723,"Ġsporadic":4724,"elt":4725,"aced":4726,"ĠAnswer":4727,"Ġfilter":4728,"Ġawareness":4729,"Ġhigher":4730,"anel":4731,"Ġprodu":4732,"aces":4733,"Ġartic":4734,"ynam":4735,"ĠJeff":4736,"ished":4737,"arbeiten":4738,"stellungen":4739,"ĠThen":4740,"prise":4741,"Ġcur":4742,"ĠAnweisungen":4743,"Ġquote":4744,"ody":4745,"mittel":4746,"Ġconstructive":4747,"ilt":4748,"Ġjud":4749,"Ġreboot":4750,"side":4751,"Ġrev":4752,"Ġsmart":4753,"Ġapproaches":4754,"ĠGesundheitsdienstleister":4755,"my":4756,"istics":4757,"Ġhelping":4758,"Ġbackground":4759,"ĠverfÃ¼gbaren":4760,"orporate":4761,"entscheidungen":4762,"inen":4763,"Ġded":4764,"ĠOK":4765,"Ġserverfault":4766,"Ġ50":4767,"ĠImmediate":4768,"Ġbar":4769,"Ġintended":4770,"Ġtakes":4771,"ĠInvestitionsstrategien":4772,"rechung":4773,"ining":4774,"atic":4775,"ersh":4776,"ireless":4777,"Ġbadges":4778,"Ġbereitzustellen":4779,"merksam":4780,"Ġself":4781,"ety":4782,"Ġcombin":4783,"Ġspend":4784,"ĠAnpass":4785,"ĠOf":4786,"lÃ¤ren":4787,"Ġstatement":4788,"Users":4789,"reen":4790,"asp":4791,"etting":4792,"ended":4793,"Ġfailed":4794,"Ġminimum":4795,"Ġgeeignetes":4796,"lang":4797,"nThank":4798,"Ġkrit":4799,"Ġextens":4800,"Ġdeclined":4801,"Ġallows":4802,"ampagne":4803,"ifen":4804,"irc":4805,"Ġknown":4806,"ĠdurchzufÃ¼hren":4807,"Ġinstalled":4808,"ĠRecent":4809,"atisf":4810,"Ġsie":4811,"itÃ¤ten":4812,"Ġher":4813,"Ġlost":4814,"elÃ¶":4815,"Ġupon":4816,"ĠHelp":4817,"ĠDatenschutz":4818,"Ġasker":4819,"ĠStudio":4820,"Ġsubmitting":4821,"Ġwent":4822,"rodu":4823,"Ġrid":4824,"Ġintegrated":4825,"Ġgeeigneten":4826,"ĠChrome":4827,"ĠSmartsheet":4828,"ĠNummer":4829,"ĠUmsetzung":4830,"Su":4831,"ues":4832,"ups":4833,"ĠPy":4834,"Ġexplicit":4835,"Ġchanging":4836,"Ġincreasing":4837,"answers":4838,"Ġextre":4839,"indow":4840,"ĠWhich":4841,"Ġcompromised":4842,"Ġupgrade":4843,"Ġcosts":4844,"Ġthinking":4845,"Ġwichtig":4846,"ĠfÃ¶rder":4847,"Ġgef":4848,"icherheit":4849,"Ġdecre":4850,"Ġenter":4851,"ĠProdukten":4852,"Ġglad":4853,"ĠNumber":4854,"Um":4855,"Ġdeb":4856,"ĠOffice":4857,"Ġsteig":4858,"Ġmodifications":4859,"Ġfirmware":4860,"Ġkeyboard":4861,"ĠSteps":4862,"hand":4863,"usi":4864,"Ġwhatever":4865,"Ġextra":4866,"Ġtrue":4867,"Ġenth":4868,"Ġportfolio":4869,"ĠVerbindungs":4870,"big":4871,"Ġlines":4872,"ĠWebsite":4873,"Ġexec":4874,"ĠKe":4875,"coming":4876,"Ġrecommended":4877,"ĠVorte":4878,"Ġkontaktiert":4879,"Ġobviously":4880,"WS":4881,"Ġ*":4882,"ask":4883,"igung":4884,"Ġsufficient":4885,"Ġmoved":4886,"Ġergriffen":4887,"Ġ11":4888,"Ġmehreren":4889,"ĠAlthough":4890,"Ġ-->":4891,"ios":4892,"Ġ?":4893,"onnect":4894,"Ġsumm":4895,"Ġdeser":4896,"ĠThanks":4897,"ologies":4898,"Ġassume":4899,"ĠBedÃ¼rfnisse":4900,"Sh":4901,"oll":4902,"ume":4903,"Ġverify":4904,"Ġdiscussions":4905,"Ġargu":4906,"ĠwÃ¤ren":4907,"iveness":4908,"ĠBedeut":4909,"stoÃŁ":4910,"Ġscheduling":4911,"Ġextreme":4912,"ĠBedeutung":4913,"bas":4914,"Ġaw":4915,"Ġslight":4916,"order":4917,"Ġfam":4918,"Ġverbesser":4919,"Ġprograms":4920,"ĠdurchgefÃ¼hrten":4921,"Ġsupposed":4922,"Ġcrap":4923,"off":4924,"enken":4925,"Ġfund":4926,"ietet":4927,"ĠAct":4928,"Ġincomp":4929,"plattform":4930,"Ġreviews":4931,"Ġcommunication":4932,"Ġerkund":4933,"likte":4934,"Ġthreat":4935,"Ġopport":4936,"Ġamong":4937,"ĠZap":4938,"letzungen":4939,"Ġwondering":4940,"Ġreduce":4941,"Ġremember":4942,"tenance":4943,"Ġupvoted":4944,"zeiten":4945,"Ġinvoice":4946,"Ġerheblich":4947,"]:":4948,"gaben":4949,"isen":4950,"Ġapps":4951,"atory":4952,"Ġalgorithms":4953,"ĠermÃ¶glichen":4954,"Ġumfassende":4955,"Ġerkundigen":4956,"uous":4957,"ĠCurrently":4958,"apid":4959,"Ġdeleting":4960,"Ġbehilf":4961,"ĠfÃ¶rdern":4962,"Ġbehilflich":4963,"ater":4964,"Ġdank":4965,"izes":4966,"Ġdesired":4967,"iguring":4968,"Ġworld":4969,"Ġbuy":4970,"but":4971,"Ġpropose":4972,"Ġges":4973,"Ġ13":4974,"Request":4975,"!!":4976,"Ġdanken":4977,"Ġpages":4978,"Ġfield":4979,"Ġhum":4980,"utions":4981,"ĠZusÃ¤tz":4982,"Ġexplaining":4983,"ĠZapier":4984,"Ġdankbar":4985,"chÃ¤":4986,"ĠMod":4987,"Ġknowing":4988,"ĠregelmÃ¤ÃŁ":4989,"Ġcleared":4990,"obot":4991,"Ġterm":4992,"missions":4993,"cerpt":4994,"Ġmalfunction":4995,"ath":4996,"ĠWachstum":4997,"Ġmechan":4998,"tige":4999,"Ġ30":5000,"Ġproposed":5001,"Ġexternal":5002,"15":5003,"Ġfirewalls":5004,"gehen":5005,"ĠInhal":5006,"Ġtherefore":5007,"Ġbackup":5008,"gment":5009,"rÃ¤n":5010,"Ġlisted":5011,"Ġinsufficient":5012,"IM":5013,"ĠfÃ¼hren":5014,"eto":5015,"ĠProject":5016,">,\\":5017,"acebook":5018,"Ġadjusting":5019,"](":5020,"konf":5021,"Ġthus":5022,"Ġinfo":5023,"Ġconfer":5024,"Ġsomewhat":5025,"Ġresetting":5026,"Das":5027,"list":5028,"oop":5029,"âĢĶ":5030,"Ġentsp":5031,"ubieten":5032,"ĠMarketingstrategien":5033,"Ġmemory":5034,"Ġanzubieten":5035,"22":5036,"you":5037,"ennen":5038,"ĠRo":5039,"Ġwants":5040,"Ġattack":5041,"Ġgeneric":5042,"Questions":5043,"Ġyes":5044,"ĠAWS":5045,"ĠFacebook":5046,"Ġcloud":5047,"Ġrepe":5048,"professional":5049,"Ġperformed":5050,"Ġcharges":5051,"Ġstreamline":5052,"Ġerfolgreich":5053,"ĠZoho":5054,"Ġsubstant":5055,"here":5056,"Ġtouch":5057,"Ġplug":5058,"Ġfrequently":5059,"SU":5060,"comm":5061,"Ġdomain":5062,"Ġrespect":5063,"ĠRes":5064,"Ġenhancement":5065,"Ġdefault":5066,"az":5067,"Ġdanke":5068,"Ġappar":5069,"ĠZug":5070,"ĠBezug":5071,"Ġcleanup":5072,"Ġverschiedenen":5073,"Ġperfectly":5074,"Ġsteigern":5075,"link":5076,"Ġcar":5077,"Ġbody":5078,"ĠContact":5079,"aw":5080,"Ġtips":5081,"Ġpick":5082,"ĠDatenanalys":5083,"Ġreasonable":5084,"Ġrole":5085,"Ġmaintenance":5086,"Ġdelay":5087,"Ġutilizing":5088,"Ġtalk":5089,"ometimes":5090,"ĠErgebnisse":5091,"Ġetw":5092,"Ġstehen":5093,"Ġnumbers":5094,"Ġloading":5095,"Ġcustomized":5096,"Ġtargeted":5097,"ĠfÃ¼":5098,"Ġut":5099,"Ġunclear":5100,"Ġlive":5101,"Ġaspect":5102,"Ġwebsites":5103,"Ġsolved":5104,"Ġvisit":5105,"Ġmodels":5106,"ĠbewÃ¤hr":5107,"waltung":5108,"ieber":5109,"Ġrandom":5110,"ĠReview":5111,"Ġmostly":5112,"Ġdarunter":5113,"Ġwelcome":5114,"elÃ¶st":5115,"bed":5116,"votes":5117,"Ġseek":5118,"rows":5119,"Ġprecise":5120,"chÃ¤ft":5121,"lish":5122,"ĠOther":5123,"fragen":5124,"Ġtook":5125,"Ġletzten":5126,"ried":5127,"Ġoverl":5128,"Ġminor":5129,"ĠKrankenhÃ¤":5130,"Problem":5131,"Ġquery":5132,"Ġetwa":5133,"mess":5134,"Ġ24":5135,"Ġattrib":5136,"Ġoperational":5137,"Ġoccurr":5138,"problemen":5139,"Ġplanen":5140,"Ġmine":5141,"ĠklÃ¤ren":5142,"izien":5143,"ĠLog":5144,"Ġreply":5145,"ffective":5146,"Ġ14":5147,"Ġboot":5148,"Ġpropos":5149,"ĠGrÃ¼ÃŁen":5150,"Ġphr":5151,"uten":5152,"ĠManagement":5153,"perienc":5154,"Ġdownvoting":5155,"Ġfreundlichen":5156,"ĠApache":5157,"gest":5158,"Ġsobald":5159,"Ġexchange":5160,"Ġdoch":5161,"Ġcalled":5162,"ĠStackOverflow":5163,"Ġremoving":5164,"obach":5165,"meta":5166,"Ġfavorite":5167,"16":5168,"lage":5169,"Ġcross":5170,"Ġgiving":5171,"And":5172,"Ġcontribute":5173,"onsider":5174,"Ġdeployment":5175,"Ġabsolute":5176,"mitteln":5177,"ĠZugang":5178,"apt":5179,"ĠFirst":5180,"Ġdiscour":5181,"Ġolder":5182,"Ġdefinition":5183,"ĠChat":5184,"Ġtesting":5185,"valu":5186,"Ġdiagnost":5187,"ĠMarkt":5188,"Ġunerwarte":5189,"Ġannoy":5190,"ĠIM":5191,"Ġnone":5192,"Ġnames":5193,"strategie":5194,"Ġalthough":5195,"Ġmanaging":5196,"Ġprojects":5197,"Ġfolks":5198,"Ġstrength":5199,"Ġmalware":5200,"ĠSchwachstellen":5201,"steuer":5202,"ptimierungs":5203,"ĠInvestitionsentscheidungen":5204,"ĠTelefonnummer":5205,"Ġvulnerability":5206,"ĠObwohl":5207,"IRA":5208,"ium":5209,"lack":5210,"Ġcirc":5211,"url":5212,"Ġunanswered":5213,"Ġgone":5214,"that":5215,"Ġexcerpt":5216,"Ġweiteren":5217,"Ġideas":5218,"greifen":5219,"Ġerlebt":5220,"Ġrecognize":5221,"Ġactivities":5222,"ĠDatenbank":5223,"icking":5224,"ĠSicherheitsver":5225,"ĠBemÃ¼hungen":5226,"Ġiniti":5227,"Ġexpertise":5228,"ĠEntscheidungen":5229,"Ġ$":5230,"Ã¶ÃŁ":5231,"Ġcoming":5232,"Ġmeine":5233,"Ġperforming":5234,"That":5235,"ĠJIRA":5236,"Ġshowing":5237,"abling":5238,"Ġscreen":5239,"ĠAbrechnungs":5240,"click":5241,"icious":5242,"Ġunfortunately":5243,"Ġzwischen":5244,"Ġ25":5245,"Ġapproved":5246,"Ġdemonst":5247,"Ġpie":5248,"entr":5249,"ĠDurch":5250,"aily":5251,"ĠURL":5252,"ĠNutzer":5253,"Ġinterrupt":5254,"ĠSystems":5255,"ables":5256,"haltung":5257,"stellung":5258,"Ġ,":5259,"isierte":5260,"ĠPower":5261,"Ġunseres":5262,"Ġmeasure":5263,"Ġinvolve":5264,"Ġprotecting":5265,",<":5266,"DB":5267,"Ġâ":5268,"iliar":5269,"Ġstated":5270,"ĠBy":5271,"Ġtopical":5272,"liegen":5273,"LAB":5274,"dden":5275,"gt":5276,"lust":5277,"rant":5278,"alc":5279,"Ġgraph":5280,"erely":5281,"ĠDisc":5282,"Ġsudden":5283,"MMMM":5284,"updates":5285,"ĠRestarting":5286,"Fi":5287,"PN":5288,"Ġwindow":5289,"Ġhit":5290,"Ġunlike":5291,"Ġwilling":5292,"ĠEinricht":5293,"prozesse":5294,"Ġignored":5295,"right":5296,"Ġtold":5297,"peration":5298,"ĠGit":5299,"Ġready":5300,"lastung":5301,"Ġassessment":5302,"Ġestabl":5303,"19":5304,"stud":5305,"Ġchance":5306,"ĠFehlern":5307,"ĠOutlook":5308,"Ġdedicated":5309,"iam":5310,"Ġbietet":5311,"Ġpasst":5312,"Ġdescrib":5313,"Ã¤higkeiten":5314,"Ġmajority":5315,"Ġnegative":5316,"stackoverflow":5317,"Ġburn":5318,"Ġbecomes":5319,"Ġnear":5320,"Ġeditor":5321,"iptions":5322,"Ġresponses":5323,"ynamics":5324,"Pr":5325,"ellen":5326,"osh":5327,"Ġguides":5328,"Ã¤tze":5329,"ype":5330,"lefonnummer":5331,"Ġlots":5332,"mÃ¶glichkeiten":5333,"Daten":5334,"ugg":5335,"Ġbeobach":5336,"licher":5337,"ĠSocial":5338,"Ġindividual":5339,"Ġvs":5340,"ustry":5341,"Ġprovides":5342,"ĠGeschÃ¤ft":5343,"arbeitung":5344,"Ġdraw":5345,"ĠSSD":5346,"Bitte":5347,"review":5348,"Ġbul":5349,"Ġhonest":5350,"ĠEff":5351,"ĠĠĠĠĠĠ":5352,"Ġexperts":5353,"linien":5354,"gur":5355,"mark":5356,"set":5357,"xim":5358,"ency":5359,"quality":5360,"imated":5361,"users":5362,"ource":5363,"ĠCPU":5364,"ehrte":5365,"Ġunderlying":5366,"Ġspeed":5367,"Ġhandling":5368,"Ġdisrupting":5369,"Ġgroup":5370,"Ġresulting":5371,"Ġumfassen":5372,"Ġpriorit":5373,"Ġlocked":5374,"Robot":5375,"Ġdire":5376,"Ġalone":5377,"Ġlooked":5378,"Ġinstance":5379,"levant":5380,"Ġindustry":5381,"Ġphones":5382,"Ġwait":5383,"Ġinfl":5384,"Ġrare":5385,"ĠEDIT":5386,"ĠKont":5387,"Ġmember":5388,"--------":5389,"ATLAB":5390,"Ġanalyzing":5391,"ĠVorteile":5392,"des":5393,"taining":5394,"uly":5395,"Ġ{":5396,"ague":5397,"ĠPerson":5398,"ĠRis":5399,"Ġcouldn":5400,"Ġenvironments":5401,"irtable":5402,"ĠfÃ¼hr":5403,"na":5404,"Ġdaily":5405,"urufen":5406,"ĠWill":5407,"ĠAut":5408,"Ġspecifics":5409,"ĠUnix":5410,"methoden":5411,"Ġprivileges":5412,"ER":5413,"Ġsess":5414,"Ġnotification":5415,"Ġreviewers":5416,"Ġrelevante":5417,"ĠVoraus":5418,"ĠSEO":5419,"Ġchoose":5420,"Ġswift":5421,"IF":5422,"Ġ|":5423,"ĠMATLAB":5424,"lichkeit":5425,"gesch":5426,"Ġeffectiveness":5427,"Ġpersonalized":5428,"Ġbott":5429,"Ġwarning":5430,"Ġenthusi":5431,"iles":5432,"Ġmanual":5433,"unktion":5434,"new":5435,"closed":5436,"Be":5437,"Ġ;":5438,"ĠAirtable":5439,"Ġstyle":5440,"udget":5441,"ichtlich":5442,"ĠMarkenwachstums":5443,"Ġineffective":5444,"Ġpositive":5445,"ĠAccoun":5446,"studien":5447,"32":5448,"Al":5449,"vol":5450,"ener":5451,"integration":5452,"stmÃ¶glich":5453,"ĠEvery":5454,"Ġoutput":5455,"schrif":5456,"Ġnetworks":5457,"ĠErste":5458,"Ġautomated":5459,"Ġmisconf":5460,"Commerce":5461,"OO":5462,"Tag":5463,"port":5464,"Ġbump":5465,"ĠPot":5466,"ĠDone":5467,"Ġergreifen":5468,"Ġbeta":5469,"Ġhandled":5470,"Ġstrengthen":5471,"ĠMit":5472,"Ġkeen":5473,"ĠNAS":5474,"30":5475,"ĠProzess":5476,"Infrastruktur":5477,"Ġfunctional":5478,"ĠDatensper":5479,"ĠWerkzeugen":5480,"Ġlegit":5481,"Ġreturns":5482,"ĠFallstudien":5483,"Ġdecided":5484,"nWe":5485,"Ġsales":5486,"ĠID":5487,"ĠPeople":5488,"swe":5489,"Ġ->":5490,"upid":5491,"ĠAltery":5492,"Ġfairly":5493,"Ġhalf":5494,"ĠAlteryx":5495,"Ġcenter":5496,"Ġoh":5497,"Ġgives":5498,"Ġgesch":5499,"Ġvi":5500,"Ġexc":5501,"ĠIns":5502,"Ġjoin":5503,"Ġspecifications":5504,"ĠSicherheitsl":5505,"ĠSpe":5506,"ĠschnellstmÃ¶glich":5507,"iendly":5508,"45":5509,"lier":5510,"Ġlay":5511,"ĠBes":5512,"ĠProgram":5513,"Ġsupported":5514,"Ġarch":5515,"Ġlove":5516,"Ġ2012":5517,"ĠMarke":5518,"schriften":5519,"ene":5520,"let":5521,"ĠDon":5522,"Ġdiscussed":5523,"Ġcompon":5524,"Ġsomewhere":5525,"ensus":5526,"Ġrequests":5527,"Ġpolicies":5528,"Ġ:)":5529,"Ġhindering":5530,"Ġmag":5531,"produ":5532,"Ġdiscrepancy":5533,"istered":5534,"Ġobjectives":5535,"Miner":5536,"NS":5537,"rote":5538,"Ġeager":5539,"ĠDynamics":5540,"Ġmob":5541,"Ġspace":5542,"antly":5543,"ĠRouter":5544,"ĠRapid":5545,"Ġvisible":5546,"Ġinquiring":5547,"Ġanzurufen":5548,"Ġrestrictions":5549,"Ġexplicitly":5550,"ĠRapidMiner":5551,"ĠAnswers":5552,"ĠHer":5553,"Ġworked":5554,"Telefonnummer":5555,"Ġtemporary":5556,"alware":5557,"ĠEngagement":5558,"merksamkeit":5559,"atur":5560,"ĠMon":5561,"def":5562,"ongo":5563,"genommen":5564,"vention":5565,"Ġmulti":5566,"iellen":5567,"Ġfrustr":5568,"ĠVerschlÃ¼sselungs":5569,"Ġsubmitted":5570,"Ġsomebody":5571,"Ġdenen":5572,"reative":5573,"ĠMethoden":5574,"Ġcollect":5575,"Ġevents":5576,"ĠNachricht":5577,"Ġefficiently":5578,"igital":5579,"Ġvend":5580,"Ġrepres":5581,"Ġconfigure":5582,"oubleshooting":5583,"Ġdrives":5584,"ĠAufmerksamkeit":5585,"ĠPerhaps":5586,"mers":5587,"mod":5588,"Ġdup":5589,"Ġfall":5590,"ĠWer":5591,"ĠAzure":5592,"ĠMongo":5593,"anning":5594,"Ġfinal":5595,"ĠEinb":5596,"ĠEinhaltung":5597,"Ġassign":5598,"bindung":5599,"weiter":5600,"Ġcircum":5601,"ubl":5602,"ĠnÃ¶tig":5603,"ĠFirm":5604,"head":5605,"ĠHad":5606,"Ġmanually":5607,"Ġconsensus":5608,"fahr":5609,"Ġbasis":5610,"werkzeu":5611,"ĠFirebase":5612,"Ġawarded":5613,"ĠZusÃ¤tzlich":5614,"Ġmouse":5615,"alk":5616,"idden":5617,"ĠVPN":5618,"Ġhasn":5619,"ĠUnfortunately":5620,"Ġopinions":5621,"ĠZugriffskontrollen":5622,"wicklung":5623,"onyms":5624,"No":5625,"arante":5626,"Ġpatience":5627,"Ġapplicable":5628,"Ġpointed":5629,"Ġverwendeten":5630,"Ġselected":5631,"Ġpotenzielle":5632,"ĠAcknowledging":5633,"ĠMongoDB":5634,"HP":5635,"los":5636,"ouble":5637,"omin":5638,"term":5639,"agine":5640,"ĠMany":5641,"ĠBesp":5642,"Ġdiscussing":5643,"abilit":5644,"Ġpermissions":5645,"Ã¶sung":5646,"Ġexploring":5647,"Ġsearching":5648,"Ġauto":5649,"appro":5650,"uthentifiz":5651,"ĠMÃ¶gliche":5652,"Ġdoubt":5653,"Ġslightly":5654,"60":5655,"ai":5656,"masch":5657,"Ġ>":5658,"ĠCaches":5659,"Ġnecessarily":5660,"Service":5661,"reiben":5662,"etools":5663,"25":5664,"bare":5665,"Ġwrote":5666,"iffer":5667,"Ġrequested":5668,"Ġdefined":5669,"rechungen":5670,"drive":5671,"uations":5672,"Ġsatisf":5673,"Ġbunch":5674,"Ġintent":5675,"quate":5676,"Ġdead":5677,"Ġchann":5678,"insichtlich":5679,"zusetzen":5680,"Ġverwenden":5681,"con":5682,"iation":5683,"Ġrows":5684,"ifik":5685,"izient":5686,"Ġcontest":5687,"Ġframe":5688,"Ġprotected":5689,"Einstellungen":5690,"Ġcard":5691,"Ġhinsichtlich":5692,"Ġelection":5693,"ush":5694,"Ġsto":5695,"Ġfees":5696,"Ġinterpre":5697,"Ġguarante":5698,"Ġdeliver":5699,"ĠNeustarts":5700,"Ġparticipate":5701,"wirkungen":5702,"ĠSuchmasch":5703,"Ġfamiliar":5704,"ĠgelÃ¶st":5705,"andra":5706,"Ġnobody":5707,"Ġabsolutely":5708,"lit":5709,"utieren":5710,"onday":5711,"Ġunserem":5712,"Ġpredictive":5713,"SaaS":5714,"Ġleaving":5715,"licke":5716,"assandra":5717,"Ġpromot":5718,"Ġsuggesting":5719,"ĠAuswirkungen":5720,"Ġreflect":5721,"ĠProduktivitÃ¤t":5722,"Ġeinges":5723,"Ġaccordingly":5724,"aden":5725,"Ġermitteln":5726,"leistung":5727,"Anleit":5728,"lÃ¤uf":5729,"Ġsollten":5730,"iamond":5731,"ĠSuchmaschinen":5732,"ML":5733,"Ġmicrosoft":5734,"ĠMalware":5735,"ĠGIF":5736,"meins":5737,"Ġconnected":5738,"Ġpractice":5739,"esonders":5740,"ĠFirefox":5741,"Ġfunctionalities":5742,"lose":5743,"Ġsenden":5744,"ionally":5745,"ĠAv":5746,"Ġnoted":5747,"ĠCassandra":5748,"ĠMonday":5749,"Ġanswerable":5750,"Ġtrust":5751,"Ġhighest":5752,"Ã¶rter":5753,"gehend":5754,"ret":5755,"Ġerz":5756,"Ġalloc":5757,"prÃ¼ft":5758,"Ġreplace":5759,"Ġauft":5760,"Ġohne":5761,"Ver":5762,"geln":5763,"Ġbase":5764,"velo":5765,"ills":5766,"Ġtrig":5767,"soptionen":5768,"isco":5769,"ĠPlatform":5770,"Ġstem":5771,"Ġlight":5772,"ĠWell":5773,"fortige":5774,"Ġintern":5775,"aph":5776,"Ġstrict":5777,"Ġcandidate":5778,"PrÃ¤senz":5779,"Update":5780,"ba":5781,"erous":5782,"Ġgame":5783,"Ġitems":5784,"Ã¶ch":5785,"ansion":5786,"Ġaccuracy":5787,"ĠAusfÃ¤lle":5788,"Ġparam":5789,"brechungen":5790,"ok":5791,"rid":5792,"word":5793,"Ġms":5794,"erstellung":5795,"ades":5796,"apping":5797,"driven":5798,"ĠDesk":5799,"ĠZielgruppen":5800,"Ġlife":5801,"Ġmobile":5802,"Ein":5803,"eks":5804,"sing":5805,"iter":5806,"Ġble":5807,"Ġbanned":5808,"Ġweak":5809,"Ã¼rze":5810,"solete":5811,"compl":5812,"fÃ¼hrung":5813,"Ġangep":5814,"ĠKeep":5815,"Ġopportunity":5816,"uc":5817,"iell":5818,"Ġze":5819,"ails":5820,"arding":5821,"geehrte":5822,"ĠgeprÃ¼ft":5823,"Ġje":5824,"ĠVerstÃ¤nd":5825,"Ġpath":5826,"Ġcred":5827,"Ġconsideration":5828,"ĠKonfigurations":5829,"izienz":5830,"ĠHadoop":5831,"64":5832,"uine":5833,"team":5834,"ief":5835,"under":5836,"Ġstupid":5837,"ĠInstead":5838,"ĠHub":5839,"Ġescal":5840,"Ġaudio":5841,"Ġcustomization":5842,"ĠKompatibilitÃ¤t":5843,"Ġrefresh":5844,"=\"":5845,"Media":5846,"relevant":5847,"Ġey":5848,"Ġgro":5849,"osten":5850,"Ġtele":5851,"Ġcompet":5852,"elling":5853,"ĠStand":5854,"ronic":5855,"ĠInvestitionsoptimierung":5856,"Ġcolor":5857,"ĠAktualisierungen":5858,"Ġargument":5859,"ĠgefÃ¤hr":5860,"ĠEinrichtung":5861,"veloper":5862,"But":5863,"yond":5864,"ĠIts":5865,"ĠSend":5866,"ifi":5867,"Ġvague":5868,"ĠBit":5869,"ĠBesonders":5870,"Ġdev":5871,"Ġheav":5872,"Ġaddressed":5873,"Ġerleich":5874,"Ġextremely":5875,"ĠEinblicke":5876,"De":5877,"limin":5878,"utet":5879,"Ġtact":5880,"onummer":5881,"Ġbother":5882,"Ġzusammen":5883,"Ġstates":5884,"izations":5885,"Ġhelped":5886,"Ġnewer":5887,"Ġunautor":5888,"Ġbeneficial":5889,"Ã¼nsch":5890,"Ġresulted":5891,"Ġstats":5892,"ĠEnglish":5893,"Ġmeantime":5894,"ashboards":5895,"kommen":5896,"vo":5897,"Ġgave":5898,"Ġleid":5899,"ĠDataRobot":5900,"Ġmaxim":5901,"Ġtotally":5902,"ĠFurthermore":5903,"Ġleverage":5904,"Ġweeks":5905,"illed":5906,"Ġtech":5907,"Ġgenuine":5908,"halb":5909,"Ġbroken":5910,"Ġdepends":5911,"Ġslowdowns":5912,"ĠInsbesondere":5913,"meinsam":5914,"Ne":5915,"code":5916,"Ġwireless":5917,"graph":5918,"lications":5919,"ĠJo":5920,"Ġprofessionals":5921,"ĠAbst":5922,"Ġadministrators":5923,"alesforce":5924,"ĠZielgruppe":5925,"Ġoccasional":5926,"ĠBesprechung":5927,"Ġfast":5928,"eters":5929,"ĠSalesforce":5930,"Ġunde":5931,"Ġderen":5932,"Ġdiesem":5933,"ĠFehlermeldung":5934,"ĠMeld":5935,"Ġindeed":5936,"ĠPotential":5937,"BS":5938,"Mit":5939,"Ġdat":5940,"Ġcoun":5941,"Ġnar":5942,"Ġuseless":5943,"Ġbesch":5944,"Ġdetaillierter":5945,"ĠgewÃ¼nsch":5946,"Ġearlier":5947,"Ġbuilt":5948,"ĠContent":5949,"Ġindem":5950,"Ġhu":5951,"Ġevalu":5952,"amer":5953,"Ġclass":5954,"ĠHin":5955,"Ġthanks":5956,"zeug":5957,"Ġbounties":5958,"ĠausfÃ¼hr":5959,"Ġlocalized":5960,"Ġvisualization":5961,"Ġproposal":5962,"aim":5963,"far":5964,"Ġant":5965,"imgur":5966,"ĠPHP":5967,"ĠDienst":5968,"Ġris":5969,"ĠInc":5970,"ĠBlog":5971,"Ġsharing":5972,"Ġteams":5973,"Ġsynonyms":5974,"ĠMarketingk":5975,"ique":5976,"Ġtransfer":5977,"xxxx":5978,"Ġinitiatives":5979,"bel":5980,"overy":5981,"Ġknows":5982,"ĠZiele":5983,"schein":5984,"Ġarisen":5985,"Ġconsidering":5986,"Ġinvolves":5987,"ĠXP":5988,"Ġdescribe":5989,"Ġbaldige":5990,"ĠDiskussionen":5991,"Ġunlikely":5992,"Press":5993,"hung":5994,"enk":5995,"ined":5996,"ides":5997,"imately":5998,"ĠAud":5999,"Ġserve":6000,"Ġdigitaler":6001,"ĠStat":6002,"product":6003,"Ġoverview":6004,"annt":6005,"Ġexpansion":6006,"Ã¼nd":6007,"aktualisierungen":6008,"Ġarticle":6009,"wert":6010,"zy":6011,"ester":6012,"Ġgern":6013,"Ġlower":6014,"Ġconcept":6015,"Ġrude":6016,"Ġambig":6017,"icks":6018,"Ġpatch":6019,"Ġtechnologies":6020,"ĠVorfÃ¤lle":6021,"ĠPatienten":6022,"ablauf":6023,"Ġforec":6024,"Ġharm":6025,"Ġarbeitet":6026,"ĠVerstÃ¤ndnis":6027,"gory":6028,"Ġborder":6029,"Ġexpress":6030,"Ġdisapp":6031,"ĠBecause":6032,"Ġgeehrtes":6033,"Ġinstallation":6034,"prÃ¼fungen":6035,"ĠKompatibilitÃ¤tsprobleme":6036,"ĠInhalts":6037,"liminary":6038,"NG":6039,"can":6040,"Ġsn":6041,"Ġpa":6042,"alid":6043,"lder":6044,"ĠAu":6045,"Ġrate":6046,"ĠRechn":6047,"ĠBerich":6048,"ĠTwitter":6049,"ĠWi":6050,"ĠRAM":6051,"Ġrepost":6052,"Ġallowing":6053,"Ġspeak":6054,"Ġproviders":6055,"phone":6056,"Ġeffizient":6057,"Ġdashboards":6058,"Ġignore":6059,"Ġdiskutieren":6060,"Ġrevision":6061,"ox":6062,"zahl":6063,"Ġrates":6064,"hrschein":6065,"ĠCenter":6066,"Ġimagine":6067,"active":6068,"Ġ28":6069,"Ã¼cks":6070,"Ġpayments":6071,"Ġkeeping":6072,"Ġautomation":6073,"Ġzukommen":6074,"Rec":6075,"find":6076,"Ġment":6077,"Ġfa":6078,"Ġbeant":6079,"vern":6080,"Ġanymore":6081,"Ġsetzen":6082,"Ġobsolete":6083,"Ġsichern":6084,"Ġelsewhere":6085,"lining":6086,"ĠermÃ¶glicht":6087,"ĠWordPress":6088,"Ġtablet":6089,"Ġapparently":6090,"Ġpiece":6091,"Ġrepresent":6092,"Ġerleichtern":6093,"Ġrever":6094,"ĠMore":6095,"ĠEd":6096,"Ġintegrieren":6097,"ipment":6098,"ĠExam":6099,"ĠTroubleshooting":6100,"Ġpriority":6101,"Ġapplies":6102,"Stack":6103,"Ġbottom":6104,"Ġnarrow":6105,"\")":6106,"hol":6107,"enen":6108,"Ġbal":6109,"Ġmass":6110,"anten":6111,"immen":6112,"Ġreached":6113,"ĠZugriffssteuer":6114,"ĠClose":6115,"Ġfocused":6116,"ĠBetrieb":6117,"Ġcommitted":6118,"ĠmacOS":6119,"sweise":6120,"Ġtactics":6121,"Ch":6122,"ipp":6123,"Ġaid":6124,"Ġfour":6125,"ads":6126,"Ġenabling":6127,"ands":6128,"Ġthoughts":6129,"ĠGerÃ¤ten":6130,"Ġlegal":6131,"Ġvariety":6132,"too":6133,"Ġwide":6134,"ĠSometimes":6135,"igt":6136,"cell":6137,"ĠDring":6138,"Ġgemeinsam":6139,"Ġstarting":6140,"specific":6141,"Ġincompatibility":6142,"file":6143,"nissen":6144,"vide":6145,"yper":6146,"ĠDuplic":6147,"actions":6148,"Ġmanaged":6149,"Ġrestarts":6150,"Ġtypically":6151,"Ġprivilege":6152,"Ġlicens":6153,"ky":6154,"Ġdiamond":6155,"Ġyield":6156,"Ġforums":6157,"Ġstackoverflow":6158,"Ġhighlighting":6159,"Ġtrigger":6160,"reffen":6161,"ters":6162,"usern":6163,"umb":6164,"ĠUp":6165,"ufact":6166,"ĠLÃ¶sungs":6167,"wendung":6168,"Ġreferring":6169,"Ġdisplayed":6170,"ĠFeel":6171,"Ġcategory":6172,"![":6173,"voted":6174,"Ġfault":6175,"used":6176,"Ġzeit":6177,"kehr":6178,"Ġaccompl":6179,"Ġoutside":6180,"ĠprÃ¤":6181,"Ġparts":6182,"Ġremote":6183,"Ġblack":6184,"Ġadministrator":6185,"Ġentsprech":6186,"Ġinterruptions":6187,"Der":6188,"rite":6189,"ĠTry":6190,"fÃ¼hren":6191,"Ġtechnische":6192,"ĠBeisp":6193,"Ġpurch":6194,"Ġcontributing":6195,"www":6196,"Ġprimary":6197,"page":6198,"erd":6199,"integr":6200,"atches":6201,"Ġfive":6202,"ĠhÃ¤uf":6203,"access":6204,"ooperation":6205,"Ġclaim":6206,"entials":6207,"Ġreli":6208,"Ġchecks":6209,"Ġlatter":6210,"Ġfunctions":6211,"Ġerforderlichen":6212,"Ġapplying":6213,"Ġcyber":6214,"Ġcycle":6215,"ĠPasswÃ¶rter":6216,"Best":6217,"Ġtw":6218,"Ġpen":6219,"Ġleider":6220,"ĠOff":6221,"ĠVerletzung":6222,"ĠVorschriften":6223,"Ġinteressiere":6224,"trag":6225,"Ġautomatic":6226,"Ġequipment":6227,"itch":6228,"ached":6229,"ĠFunkt":6230,"Ġtimely":6231,"Ġcomplex":6232,"flows":6233,"Ġoriginally":6234,"Ġintention":6235,"Ġbestehenden":6236,"ĠWÃ¤re":6237,"23":6238,"27":6239,"rough":6240,"utlich":6241,"version":6242,"Ġcomplain":6243,"Ġeffektiv":6244,"Ġsubstantial":6245,"ĠZugangs":6246,"alcul":6247,"esterday":6248,"hn":6249,"atung":6250,"Ġcorporate":6251,"Ġopp":6252,"ĠDigital":6253,"ĠTrans":6254,"ĠArbeitsablauf":6255,"Ġinaccurate":6256,"Ġhuman":6257,"ĠMeldung":6258,"hrscheinlich":6259,"Ab":6260,"ĠSign":6261,"ĠDr":6262,"Ġpurpos":6263,"Ġessentially":6264,"Ġvolume":6265,"Ġsysadmins":6266,"Ġsentence":6267,"Ġdecrease":6268,"Ġarguments":6269,"rÃ¤nkungen":6270,"EA":6271,"gn":6272,"Ġfal":6273,"Ġlose":6274,"ĠVTC":6275,"Ġtem":6276,"Ġstehe":6277,"Ġconfiguring":6278,"Ġsituations":6279,"DM":6280,"Now":6281,"Ġbegr":6282,"untern":6283,"ĠAnliegen":6284,"ĠGiven":6285,"Ġrequirement":6286,"Ġlogged":6287,"Ġflood":6288,"Ġirrelevant":6289,"ĠModerator":6290,"Ġcategor":6291,"Ġoccurrences":6292,"ĠKontonummer":6293,"Ġpurposes":6294,"18":6295,"nMit":6296,"Ġgre":6297,"ĠConsider":6298,"Ġdeveloper":6299,"Ġaufnehmen":6300,"Ġuntersucht":6301,"ĠRep":6302,"tokollen":6303,"Ġmonthly":6304,"Ġchoice":6305,"Ġbelongs":6306,"Ġcharacters":6307,"ĠActive":6308,"Ã¶ÃŁe":6309,"Book":6310,"flag":6311,"iates":6312,"Ġwenden":6313,"Ġcell":6314,"Ġnav":6315,"ĠAccess":6316,"ĠVM":6317,"Ġworkar":6318,"Ġcommunities":6319,"Ġdazu":6320,"ĠerhÃ¶h":6321,"Ġsuspens":6322,"Ġlegitimate":6323,"ĠSuchmaschinenoptimierung":6324,"Ġparameters":6325,"Note":6326,"nehm":6327,"ĠDa":6328,"ĠCisco":6329,"Ġdiscover":6330,"ĠProtokolle":6331,"Ġimpossible":6332,"ivial":6333,"schlÃ¼ssel":6334,"Ã¤nderungen":6335,"Ġexposure":6336,"ĠAnwendung":6337,"Ġcontains":6338,"Ġsubscriptions":6339,"Experienc":6340,"Ġunbefugten":6341,"Ġcomponents":6342,".,":6343,"Phone":6344,"TML":6345,"alten":6346,"ĠDat":6347,"ĠCy":6348,"ĠFort":6349,"Ġtrouble":6350,"abled":6351,"ĠgrÃ¼nd":6352,"Ġadjusted":6353,"Ġeventually":6354,"****":6355,"Ġmistake":6356,"Ġmistakes":6357,"Ġoverlap":6358,"24":6359,"Ġsound":6360,"accept":6361,"ĠCC":6362,"Ġ(\"":6363,"Ġclos":6364,"standing":6365,"Ġoptimal":6366,"ikip":6367,"ĠEnt":6368,"Ġminimieren":6369,"ĠSkalier":6370,"Ġpatterns":6371,"has":6372,"site":6373,"Ġink":6374,"ĠSorry":6375,"iehen":6376,"Ġneue":6377,"ĠUse":6378,"ĠTool":6379,"while":6380,"Ġpractical":6381,"Ġdiagnose":6382,"Ġviol":6383,"Er":6384,"Ġ\\":6385,"Ġdest":6386,"Ġpict":6387,"Ġlength":6388,"ĠPort":6389,"Ġintegriert":6390,"ĠDatenauf":6391,"Ġoffensive":6392,"ĠNew":6393,"Ġeingesetzt":6394,"cent":6395,"isierten":6396,"Ġlinux":6397,"Ġalign":6398,"Ġumgehend":6399,"Ġclicking":6400,"Ġrecurr":6401,"Ġprinter":6402,"Ġoffice":6403,"Ġrealize":6404,"Ġdepart":6405,"Ġconversation":6406,"Ġsummary":6407,"erdings":6408,"Dienstleistungen":6409,"Would":6410,"bie":6411,"Ġtut":6412,"onne":6413,"Ġbudget":6414,"Ġfelt":6415,"image":6416,"Ġstick":6417,"ĠMS":6418,"Ġregardless":6419,"Ã¼berlastung":6420,"Ġgenerate":6421,"Ġwaren":6422,"HO":6423,"voting":6424,"Ġanonym":6425,"Ġpin":6426,"ationen":6427,"Ġverified":6428,"geschn":6429,"adequate":6430,"Ã¶rtern":6431,"Ġfeels":6432,"ĠEins":6433,"ĠRecently":6434,"Ã¤higkeit":6435,"ĠMacBook":6436,"Ġcompromise":6437,"Ġraised":6438,"rifft":6439,"Ġcharacter":6440,"Ġdupe":6441,"ĠDringlichkeit":6442,"ikipedia":6443,"67":6444,"mo":6445,"ĠâĶ":6446,"Ļ¦":6447,"eta":6448,"ĠMail":6449,"Ġdee":6450,"ĠNetwork":6451,"Ġbetrifft":6452,"Ġqual":6453,"Ġsave":6454,"Ġmodeling":6455,"Ġsuccessfully":6456,"Ġcommunic":6457,"Ġthreats":6458,"ĠHeraus":6459,"Ġrisks":6460,"!)":6461,"tax":6462,"cha":6463,"ars":6464,"ĠCreative":6465,"achr":6466,"ĠBas":6467,"Ġeduc":6468,"Ġmaintaining":6469,"ĠiOS":6470,"ĠBedenken":6471,"Ġtermin":6472,"Ġtelling":6473,"Ġglau":6474,"Ġentsche":6475,"ĠBeratung":6476,"worten":6477,"bereit":6478,"ĠNOT":6479,"Ġprioritize":6480,"ifferent":6481,"Ġchannels":6482,"wort":6483,"Ġinadequate":6484,"stood":6485,"Ġseemed":6486,"Ġcredit":6487,"Ġinvalid":6488,"ĠBeteil":6489,"Ġputting":6490,"Ġdetermin":6491,"Ġindicates":6492,"Ġpromotions":6493,"cont":6494,"Ġsil":6495,"Ġcards":6496,"Ġrout":6497,"ĠKampagne":6498,"mitted":6499,"lÃ¤uter":6500,"Ġadvance":6501,"Ã¼ssen":6502,"ĠAcknowledged":6503,"ĠOpenID":6504,"Ġdirection":6505,"ĠDuplicate":6506,"aste":6507,"Ġgaming":6508,"ĠDNS":6509,"through":6510,"ivitÃ¤ten":6511,"Ġconfir":6512,"Ġmatch":6513,"gesetzt":6514,"Ġtreten":6515,"Ġpreviously":6516,"ĠMÃ¶glichkeiten":6517,"Ġskalier":6518,"Ġwahrscheinlich":6519,"ĠTechniken":6520,"89":6521,"fact":6522,"Ġbook":6523,"unde":6524,"essere":6525,"key":6526,"Ġvital":6527,"ĠMer":6528,"ĠInst":6529,"ĠKÃ¶nnen":6530,"place":6531,"Ġrecal":6532,"Ġsomehow":6533,"Ġreasoning":6534,"Ġentstand":6535,"Ġreaders":6536,"ĠDatensicherheit":6537,"Ġassum":6538,"Ġlevels":6539,"ĠfÃ¼hrt":6540,"appropriate":6541,"ĠâĶĤ":6542,"ST":6543,"det":6544,"ften":6545,"ners":6546,"ĠmÃ¼ssen":6547,"Ġlar":6548,"Ġimpress":6549,"ĠHome":6550,"Ġcomputing":6551,"ompatible":6552,"ĠPrem":6553,"Ġintrodu":6554,"Ġarbeiten":6555,"entral":6556,"Ġhuge":6557,"ĠAuÃŁerdem":6558,"best":6559,"dec":6560,"Ġcooperation":6561,"Ġbessere":6562,"Ġgate":6563,"Ġgra":6564,"isten":6565,"Ġassisting":6566,"Ġpossibility":6567,"aken":6568,"Ġsync":6569,"ĠShop":6570,"Ġclarity":6571,"iago":6572,"Ġsafeguarding":6573,"ĠEntsch":6574,"Ġinvoices":6575,"ltimately":6576,"computer":6577,"konferenz":6578,"ĠAnpassung":6579,"Ġcredentials":6580,"Grid":6581,"Sign":6582,"Ġbeyond":6583,"Ġzero":6584,"ausfall":6585,"Ġcontaining":6586,"Ġsolving":6587,"ensor":6588,"fluss":6589,"Ġhosted":6590,"Ġregulatory":6591,"ĠEffizienz":6592,"ĠgefÃ¤hrdet":6593,"ĠSendGrid":6594,"date":6595,"yy":6596,"outs":6597,"Ġvirus":6598,"ĠMin":6599,"ĠFirewalls":6600,"Ġmanufact":6601,"Ġbesorg":6602,"ĠDoc":6603,"ĠVorschlÃ¤ge":6604,"Ġgramm":6605,"ĠDesktop":6606,"Ġscheduled":6607,"Spot":6608,"Ġjudge":6609,"ĠKrankenhÃ¤usern":6610,"33":6611,"master":6612,"old":6613,"Ġsamm":6614,"ĠIF":6615,"eth":6616,"Ġunn":6617,"verage":6618,"elfen":6619,"Ġrecord":6620,"deleted":6621,"luding":6622,"Ġanalysieren":6623,"Ġminimal":6624,"Ġgenuinely":6625,"Ġentscheid":6626,"Link":6627,"LÃ¶sungen":6628,"mon":6629,"Ġtrotz":6630,"Ġwin":6631,"Ġpush":6632,"etup":6633,"Ġbegan":6634,"Ġunique":6635,"ĠDown":6636,"Ġscen":6637,"Ġentry":6638,"ĠĠĠĠĠĠĠĠĠĠĠ":6639,"Ġfollowed":6640,"why":6641,"ĠAlgorith":6642,"Ġlaunch":6643,"igured":6644,"Ġhosting":6645,"ĠTags":6646,"Ġearned":6647,"ĠGeschÃ¤fts":6648,"Edit":6649,"Yes":6650,"cut":6651,"ries":6652,"informationen":6653,"Ġcod":6654,"Ġfire":6655,"Ġstructure":6656,"ĠVote":6657,"ommun":6658,"hoben":6659,"Ġ16":6660,"Ġkeys":6661,"Ġkeine":6662,"ĠInvestigate":6663,"Ġdevelopers":6664,"Ġexamine":6665,"Ġspecialist":6666,"Ġprimarily":6667,"Ġmagic":6668,"40":6669,"80":6670,"Ġahead":6671,"atible":6672,"reicht":6673,"ĠSyn":6674,"Ġforts":6675,"ppy":6676,"Ġkonf":6677,"Ġextent":6678,"ĠOver":6679,"ĠProblemen":6680,"Ġ27":6681,"Ġworse":6682,"close":6683,"Ġconfusion":6684,"Ġdatas":6685,"ĠHerausforderungen":6686,"-)":6687,"Campaign":6688,"from":6689,"ock":6690,"ĠPossible":6691,"erstellen":6692,"Ġshut":6693,"Ġhappening":6694,"ĠNode":6695,"Ġcurious":6696,"Ġcombination":6697,"Ġaccomplish":6698,"KÃ¶nnen":6699,"even":6700,"Ġcut":6701,"Ġblie":6702,"ashing":6703,"Ġgab":6704,"thon":6705,"ĠBr":6706,"Ġfinds":6707,"ĠRequest":6708,"Ġentwick":6709,"ubuntu":6710,"fÃ¼hrt":6711,"ĠZusammenarbeit":6712,"ĠBereits":6713,"teilung":6714,"Ġdistin":6715,"Ġcommitments":6716,"ĠEntscheid":6717,"lusive":6718,"Ġtopicality":6719,"Ġvendor":6720,"LL":6721,"SS":6722,"iten":6723,"Ġbeit":6724,"oter":6725,"ament":6726,"ĠHTML":6727,"Ġremind":6728,"Ġsuggests":6729,"Ġsevere":6730,"Ġkinds":6731,"Ġperiods":6732,"ĠFinanzuntern":6733,"Super":6734,"Ġsammeln":6735,"chimp":6736,"Ġnennen":6737,"versuche":6738,"amed":6739,"Ġclosely":6740,"wachung":6741,"Ġexplained":6742,"Ġemployee":6743,"laub":6744,"Encounter":6745,"ĠregelmÃ¤ÃŁige":6746,"ĠDatensperr":6747,"ĠHubSpot":6748,"Lieber":6749,"Ġshe":6750,"ieg":6751,"agraph":6752,"ĠKosten":6753,"ĠHave":6754,"ibungs":6755,"Ġtechnically":6756,"Ġaddresses":6757,"ĠEnd":6758,"ĠNeed":6759,"Ġwording":6760,"ĠAllerdings":6761,"ĠFehlerbeheb":6762,"ĠRegarding":6763,"Ġaspects":6764,"Akt":6765,"Point":6766,"Vielen":6767,"yman":6768,"Ġ~":6769,"Ġcond":6770,"see":6771,"Ġfinanz":6772,"Ġinstalling":6773,"Ġerleben":6774,"Ġverwendet":6775,"Ġelectronic":6776,"âĶĢâĶĢâĶĢâĶĢâĶĢâĶĢâĶĢâĶĢ":6777,"fahrung":6778,"ĠMailchimp":6779,"host":6780,"lines":6781,"ograph":6782,"Ġtreat":6783,"Ġwalk":6784,"anies":6785,"Ġodd":6786,"Ġreibungs":6787,"usive":6788,"Ġerreicht":6789,"Ġcontr":6790,"Ġmanner":6791,"ordin":6792,"Ġaccepting":6793,"While":6794,"ĠApprec":6795,"Ġlaw":6796,"ĠAusfall":6797,"Ġscripts":6798,"Ġnormally":6799,"Ġparticipation":6800,"Ġkonnte":6801,"vidence":6802,"Should":6803,"ĠFunktional":6804,"DF":6805,"TF":6806,"hÃ¤n":6807,"Ġconsequ":6808,"hem":6809,"abat":6810,"Ġguy":6811,"ously":6812,"Ġcommenting":6813,"ggested":6814,"anner":6815,"Ġsimpl":6816,"Ġpreventing":6817,"Ġsyntax":6818,"Ġangebot":6819,"Ġeffektiver":6820,"Ġleveraging":6821,"konflikte":6822,"esome":6823,"Ġnotifications":6824,"andt":6825,"ĠerlÃ¤uter":6826,"Ġoutline":6827,"ĠLink":6828,"Ġcontacted":6829,"nahme":6830,"ĠEinsch":6831,"Ġfailing":6832,"Ġphishing":6833,"Ġeventuelle":6834,"ĠUntersuchungen":6835,"ĠauÃŁerdem":6836,"Ġscenar":6837,"vm":6838,"este":6839,"orm":6840,"Ġmachen":6841,"Ġos":6842,"Ġevidence":6843,"ull":6844,"program":6845,"Ġmessaging":6846,"Ġconsistent":6847,"ĠVerbindungsprobleme":6848,"Ġdiagnostics":6849,"ĠgroÃŁ":6850,"AN":6851,"Ad":6852,"aut":6853,"erer":6854,"ativ":6855,"orer":6856,"Ġmid":6857,"Ġfortz":6858,"anted":6859,"Ġinteraction":6860,"ĠServerfault":6861,"Ġworry":6862,"Ġdriver":6863,"versionen":6864,"Ġdisrupted":6865,"Ġadvant":6866,"ĠVersion":6867,"Ġumfas":6868,"richtlinien":6869,"Ġeinge":6870,"Ġscreenshots":6871,"bian":6872,"oshop":6873,"Ġenthusiasts":6874,"Ġallocation":6875,"enkins":6876,"iber":6877,"Ġwid":6878,"chang":6879,"ĠTL":6880,"amt":6881,"ĠDanke":6882,"Ġmoving":6883,"ĠerfÃ¼":6884,"ikis":6885,"Ġcleaned":6886,"Ġexpectations":6887,"ĠDatenverlust":6888,"Ġbugs":6889,"ĠAnalysis":6890,"ĠModerators":6891,"PSS":6892,"ĠAvast":6893,"Windows":6894,"Ġthrow":6895,"itude":6896,"Ġfits":6897,"Ġinappropriate":6898,"ĠSPSS":6899,"Ġnu":6900,"Ġbevor":6901,"agent":6902,"ĠDiago":6903,"econd":6904,"Ġkorre":6905,"ĠCode":6906,"ĠRA":6907,"Ġnoise":6908,"Ġinterests":6909,"Ġ2019":6910,"Ġverursachen":6911,"legal":6912,"Ġtemporarily":6913,"gebenen":6914,"Ġunderperforming":6915,"Ġrepeated":6916,"Ġannoying":6917,"Ġdescribed":6918,"Ġauftreten":6919,"Ġambiguous":6920,"Ġbeitragen":6921,"!\"":6922,"SF":6923,"enty":6924,"verfahren":6925,"Ġwhite":6926,"pth":6927,"Ġsofortige":6928,"ĠAdmin":6929,"Ġcommented":6930,"Ġdifferences":6931,"ĠIhres":6932,"ĠErhÃ¶":6933,"ĠRecommend":6934,"ĠĠĠĠĠĠĠĠĠĠĠĠĠĠĠĠĠĠĠĠĠĠĠĠĠĠĠĠĠĠĠĠ":6935,"Ġparagraph":6936,"Ġerkunden":6937,"Ġsurpr":6938,"IME":6939,"ĠIMO":6940,"CS":6941,"Just":6942,"aud":6943,"Ġwende":6944,"Ġinner":6945,"usion":6946,"ĠEach":6947,"ĠEvern":6948,"Ġcompatible":6949,"Ġcompanies":6950,"Ġeinz":6951,"Ġsupports":6952,"ischer":6953,"Ġphys":6954,"ĠkÃ¼rzlichen":6955,"Ġretagged":6956,"Ġpackages":6957,"ĠEvernote":6958,"Are":6959,"Flow":6960,"One":6961,"ng":6962,"itect":6963,"Ġnomin":6964,"andon":6965,"Ġprepar":6966,"Ġinstit":6967,"Ġusefulness":6968,"ĠTelefonkonferenz":6969,"Ġregularly":6970,"Ġfrequency":6971,"Ġdistrib":6972,"omething":6973,"rie":6974,"ĠAbl":6975,"Ġitem":6976,"Ġals":6977,"ĠAnt":6978,"ibilities":6979,"ĠSozial":6980,"Ġperspect":6981,"einstellungen":6982,"Ġbisherigen":6983,"helpful":6984,"Ġlicense":6985,"ĠMitarbeit":6986,"Ġinterpret":6987,"Ġil":6988,"Ġmen":6989,"Ġmar":6990,"learn":6991,"Ġhur":6992,"Ġrew":6993,"ĠAuthentifiz":6994,"ĠMake":6995,"Ġsplit":6996,"ĠRabat":6997,"Ġtheme":6998,"ĠApplications":6999,"Ġqueues":7000,"ĠGeb":7001,"ĠPython":7002,"Ġheavily":7003,"34":7004,"Some":7005,"ned":7006,"Ġbehoben":7007,"Ġappe":7008,"Ġgez":7009,"Ġcompared":7010,"ĠGener":7011,"espace":7012,"hopping":7013,"Ġmitigate":7014,"everal":7015,"ĠExpl":7016,"ĠTherefore":7017,"Ġlists":7018,"Ġacknowledgment":7019,"Ġbrowsers":7020,"Ġunerlaub":7021,"Ġplayers":7022,"Ġmisconfigured":7023,"ĠerlÃ¤utern":7024,"57":7025,"Tr":7026,"ool":7027,"ises":7028,"Ġubuntu":7029,"Ġsuits":7030,"Ġdesk":7031,"Ġperman":7032,"Ġpress":7033,"Ġpromotion":7034,"Ġtechnischen":7035,"einen":7036,"ĠJenkins":7037,"Ġvorgenommen":7038,"Ġcertifications":7039,"ĠArt":7040,"Ġvalued":7041,"incerely":7042,"Ġwarrant":7043,"ĠCompl":7044,"Ġconferences":7045,"ĠStatistics":7046,"Ġunnecess":7047,"edit":7048,"ĠSe":7049,"Ã¼mm":7050,"Ġcomplic":7051,"ums":7052,"Ġtrivial":7053,"Ġplanning":7054,"Ġbetreffen":7055,"Ġpreliminary":7056,"ualisierung":7057,"uencer":7058,"viously":7059,"ĠIntegrationsprozess":7060,"Ġexception":7061,"Ġobjective":7062,"ĠbestÃ¤tige":7063,"Ġthoroughly":7064,"Ġconfused":7065,"Ġcovered":7066,"Ġgraphics":7067,"Ġtwice":7068,"Ġlarger":7069,"iour":7070,"lau":7071,"pad":7072,"Ġaverage":7073,"ente":7074,"Ġobs":7075,"ĠBack":7076,"ĠerÃ¶rtern":7077,"ĠFlag":7078,"gliche":7079,"Ġconsol":7080,"Ġveralteter":7081,"Ġrolling":7082,"Ġbreakdown":7083,"Ġoccasionally":7084,"Ġerstellen":7085,",\"":7086,"Ag":7087,"BA":7088,"fÃ¤higkeiten":7089,"orage":7090,"Ġfunktion":7091,"etag":7092,"ĠSlack":7093,"Ġna":7094,"Ġfort":7095,"ĠPDF":7096,"Ġstra":7097,"gear":7098,"ĠAnlage":7099,"ultiple":7100,"Ġoptimized":7101,"ĠIntegrationen":7102,"Ġfeeling":7103,"ĠNotion":7104,"Ġcontributions":7105,"Ġkonnten":7106,"Ġconfusing":7107,"Ġrollback":7108,"Ġdouble":7109,"Ġbesorgt":7110,"28":7111,"bad":7112,"good":7113,"Ġbek":7114,"oters":7115,"ĠkÃ¼mm":7116,"acies":7117,"ĠUhr":7118,"ĠKN":7119,"Ġgele":7120,"Ġcalling":7121,"Ġprep":7122,"ĠUnterbrechungen":7123,"Ġconflicting":7124,"Ġbehaviour":7125,"Ġempfehle":7126,"Ġberichten":7127,"Ġdeserve":7128,"Ġbeobachtet":7129,"Ġ**":7130,"ĠIS":7131,"Ġyesterday":7132,"ĠSoll":7133,"Ġforget":7134,"ĠTown":7135,"Ġconver":7136,"Ġren":7137,"ipated":7138,"Ġgeneration":7139,"Ġshared":7140,"Ġsubsequ":7141,"ĠEnter":7142,"Ġencouraged":7143,"Ġunerwartete":7144,"ĠAppreciate":7145,"'.":7146,"esit":7147,"ĠSich":7148,"actory":7149,"ffe":7150,"ĠOptim":7151,"ĠLike":7152,"Ġscale":7153,"Ġreasonably":7154,"Ġexamining":7155,"Ġ2011":7156,"Ġsession":7157,"Ġanonymous":7158,"Ġimpression":7159,"ĠSozialmed":7160,"cking":7161,"ats":7162,"Ġsake":7163,"Ġnet":7164,"ĠNest":7165,"Ġscheinen":7166,"Ġappreciates":7167,"ĠInvestitionsanalyse":7168,"Ġaimed":7169,"Ġinputs":7170,"Ġstrongly":7171,"Ġplugins":7172,"ĠRisik":7173,"Ġpaid":7174,"ĠkÃ¼mmern":7175,"Looking":7176,"ying":7177,"Ġwider":7178,"Ġunk":7179,"iment":7180,"using":7181,"Ġsofort":7182,"Ġspot":7183,"Ġserves":7184,"ĠVerwendung":7185,"frame":7186,"ĠErk":7187,"Ġmeets":7188,"Ġdealing":7189,"mission":7190,"Ġvermutet":7191,"Ġredirect":7192,"Ġlocation":7193,"cellent":7194,"ĠFortsch":7195,"Ġmanufactur":7196,"Ġentwickeln":7197,"resp":7198,"Ġcore":7199,"Ġcalcul":7200,"Ġhop":7201,"Ġeben":7202,"Ġunus":7203,"Ġforce":7204,"Ġlik":7205,"ĠTensor":7206,"Ġanywhere":7207,"ĠKunde":7208,"services":7209,"Ġtruly":7210,"Ġcompar":7211,"Ġpromoting":7212,"Ġmodify":7213,"Ġformul":7214,"faq":7215,"Ġweiterhelfen":7216,"ĠAbonne":7217,"Ġangemess":7218,"Ġmissed":7219,"Ġturned":7220,"bindungen":7221,"Ġunderperformance":7222,"ĠMarketingkampagnen":7223,"Ġsuspension":7224,"ĠKNIME":7225,"Kampagnen":7226,"Or":7227,"dent":7228,"Ġdial":7229,"Ġcor":7230,"ĠAm":7231,"Ġstackexchange":7232,"ĠCle":7233,"Ġspent":7234,"ĠOBS":7235,"Ġwaste":7236,"ĠNet":7237,"Ġ22":7238,"Ġnoch":7239,"blog":7240,"Ġconnecting":7241,"Ã¼cken":7242,"Ġflaw":7243,"ĠComputer":7244,"ĠausfÃ¼hrliche":7245,"Ġperspective":7246,"ĠTensorFlow":7247,"fix":7248,"Ġwikis":7249,"ision":7250,"isieren":7251,"Ġpix":7252,"ana":7253,"Ġliter":7254,"ĠPart":7255,"add":7256,"Ġincompatible":7257,"Ġplenty":7258,"Ġpercent":7259,"gener":7260,"ĠSchritten":7261,"Ġcontents":7262,"ĠMarkenbe":7263,"Ġearly":7264,"Ġinitiated":7265,"Ġhoffe":7266,"witches":7267,"ĠNetzwerkver":7268,"Ġachieved":7269,"should":7270,"ĠImage":7271,"ĠPreis":7272,"Ġerste":7273,"ĠMedien":7274,"ĠWÃ¤ren":7275,"ĠHinweise":7276,"ĠErhÃ¶hung":7277,"Ġillegal":7278,"]][":7279,"lÃ¶sung":7280,"ĠbemÃ¼":7281,"igation":7282,"ĠWoo":7283,"ĠPh":7284,"Ġneither":7285,"ĠSobald":7286,"Ġinstability":7287,"neustart":7288,"Ġmainly":7289,"Ġcrashing":7290,"Ġdepending":7291,"Ġerfolglos":7292,"TTT":7293,"Ġawesome":7294,"Ġdemonstrate":7295,"ĠActiveCampaign":7296,"Ġconfirmed":7297,"factor":7298,"ĠIFTTT":7299,"ĠSicherstellung":7300,"MR":7301,"currently":7302,"jang":7303,"Ġtwitter":7304,"itere":7305,"Ġcable":7306,"ĠSynchronis":7307,"Ġlab":7308,"plo":7309,"astung":7310,"Ġpromoted":7311,"ĠdurchfÃ¼hren":7312,"Ġrelevanten":7313,"Ġspeaking":7314,"Ġbusinesses":7315,"Ġveralteten":7316,"Ġleads":7317,"Ġsuspicious":7318,"igerung":7319,"Ġdraft":7320,"Ġlosses":7321,"Ġfundament":7322,"Recently":7323,"ĠEntscheidungs":7324,"ĠCompliance":7325,"Ġgeleert":7326,"Add":7327,"Linux":7328,"OT":7329,"llen":7330,"nBest":7331,"Ġfaster":7332,"ĠDru":7333,"ĠThose":7334,"Ġalle":7335,"telle":7336,"plÃ¤":7337,"ival":7338,"ĠHall":7339,"earbeit":7340,"ĠGood":7341,"lude":7342,"Ġapprove":7343,"Any":7344,"Ġphase":7345,"ĠUrg":7346,"Ġended":7347,"Ġpointing":7348,"ĠDatensicherheits":7349,"Ġdepend":7350,"Ġunexpectedly":7351,"tagged":7352,"Ġpoorly":7353,"Ġindex":7354,"ĠDurchfÃ¼hrung":7355,"werkzeuge":7356,"ĠWooCommerce":7357,"jango":7358,"100":7359,"Ġche":7360,"align":7361,"Ġhidden":7362,"elated":7363,"ĠDjango":7364,"aching":7365,"endes":7366,"Ġreconf":7367,"ĠÃ¼berwach":7368,"rowser":7369,"Ġencrypt":7370,"Ġscaling":7371,"Ġsuspended":7372,"____":7373,"Ġinaccuracies":7374,"Ġokay":7375,"Ġdebate":7376,"Ġmechanism":7377,"ĠbewÃ¤hrte":7378,"Ġrecurring":7379,"Ġglaube":7380,"Ġstraight":7381,"Konfiguration":7382,"bal":7383,"nVielen":7384,"Ġsounds":7385,"Ġpip":7386,"ĠSage":7387,"iebs":7388,"ĠDis":7389,"Ġmode":7390,"ĠFol":7391,"ants":7392,"ĠRails":7393,"Ġregistered":7394,"ĠVerletzungen":7395,"ĠServices":7396,"Ġworried":7397,"Ġgrowing":7398,"ertain":7399,"Ġgewandt":7400,"Ġposition":7401,"ĠPrÃ¼":7402,"ĠKonfigurationen":7403,"ĠWerbe":7404,"Ġforecasts":7405,"39":7406,"86":7407,"Post":7408,"pal":7409,"Ġic":7410,"onc":7411,"Ġbatch":7412,"Ġultimately":7413,"Ġrelease":7414,"ĠWifi":7415,"Ġconform":7416,"izable":7417,"Ġvertraulich":7418,"ĠgefÃ¼hrt":7419,"about":7420,"ĠGo":7421,"ĠĠĠĠĠĠĠ":7422,"Ġ[![":7423,"....":7424,"web":7425,"Ġgenerating":7426,"Ġaktuell":7427,"ennt":7428,"Ġfacts":7429,"Ġbetroffene":7430,"regular":7431,"Ġmalfunctions":7432,"Ġphrase":7433,"ĠDatenaufbereit":7434,"Ġkonfigur":7435,"ĠGebÃ¼hren":7436,"Ġebenfalls":7437,"Des":7438,"Ġcult":7439,"Ġcook":7440,"ĠSqu":7441,"Ġisol":7442,"Ġusern":7443,"Ġexcellent":7444,"ĠUTC":7445,"ĠMat":7446,"ĠMesh":7447,"ĠFre":7448,"ĠProfessional":7449,"Ġcharge":7450,"ĠĠĠĠĠĠĠĠĠ":7451,"ĠĠĠĠĠĠĠĠĠĠ":7452,"Ġconsiderable":7453,"uby":7454,"ĠfrÃ¼":7455,"Ġexposed":7456,"Ġreferen":7457,"Ġsidebar":7458,"Ġhistor":7459,"ĠAnsÃ¤tze":7460,"ĠDiscord":7461,"ĠRAID":7462,"Possible":7463,"Vers":7464,"Ġdates":7465,"orn":7466,"stimm":7467,"formed":7468,"ĠInformation":7469,"ĠInfrastruktur":7470,"Ġerweiter":7471,"ĠFr":7472,"ĠFÃ¤higkeit":7473,"ĠProvide":7474,"ĠVis":7475,"Ġcontroll":7476,"Ġguys":7477,"Ġreaches":7478,"Ġbestimmen":7479,"Ġimplementiert":7480,"friendly":7481,"Ġdifferently":7482,"Ġdetaillierten":7483,"Ġfixing":7484,"Ġcleaning":7485,"ĠMÃ¶glicherweise":7486,"Ġfolder":7487,"Ġestimated":7488,"ĠComments":7489,"basierte":7490,"Ġarchitect":7491,"Ġfortschritt":7492,"Ġumfassten":7493,"Management":7494,"hlen":7495,"erung":7496,"Ġdil":7497,"rop":7498,"Ġhyp":7499,"aries":7500,"Ġnotable":7501,"geme":7502,"acker":7503,"Ġ150":7504,"Ġmehrerer":7505,"ĠWhats":7506,"Ġsuited":7507,"Ġumfasst":7508,"ĠKontaktieren":7509,"Ġblocked":7510,"Ġnearly":7511,"Ġguarantee":7512,"Ġdetailliertere":7513,"ĠCyber":7514,"Ġpicture":7515,"Ġinnerhalb":7516,"bu":7517,"eg":7518,"ekte":7519,"fang":7520,"Ġflex":7521,"arm":7522,"ĠAbs":7523,"Ġran":7524,"sub":7525,"orton":7526,"Ġdisconnect":7527,"ĠVirtual":7528,"ignis":7529,"Ġjo":7530,"ĠGaming":7531,"ĠUnder":7532,"protokollen":7533,"Ġhospitals":7534,"Ġlogo":7535,"Ġelimin":7536,"Ġmigrating":7537,"Produ":7538,"ĠContest":7539,"Ġemployed":7540,"Ġkritischen":7541,"ĠDatenanalysetools":7542,"Ġrarely":7543,"ĠAutom":7544,"ĠgewÃ¼nschten":7545,"ommunik":7546,"ĠFinanzunternehmen":7547,"##":7548,"Currently":7549,"Here":7550,"Sc":7551,"Sicherheits":7552,"bung":7553,"iers":7554,"syn":7555,"wide":7556,"Ġhesit":7557,"igr":7558,"orting":7559,"ĠAnother":7560,"Ġtrick":7561,"ĠLa":7562,"ĠNorton":7563,"Ġgenutz":7564,"Ġdecent":7565,"Ġachieving":7566,"Ã¶rderung":7567,"Ġmisconfiguration":7568,"ĠAnalysen":7569,"ĠZugriffskontrolle":7570,"ublik":7571,"Ġangepasst":7572,"ĠSozialmedien":7573,"Synchronis":7574,"cke":7575,"gang":7576,"google":7577,"linux":7578,"ty":7579,"ĠISO":7580,"ots":7581,"oney":7582,"ytes":7583,"prÃ¤senz":7584,"Ġproduction":7585,"raform":7586,"Ġkept":7587,"ĠSystemen":7588,"Ġfactor":7589,"Ġcontributor":7590,"Ġstatements":7591,"Ġmisalign":7592,"Ġdringende":7593,"Ġpotenziellen":7594,"Ġconsult":7595,"Ġdatasets":7596,"agento":7597,"lauben":7598,"Hub":7599,"aps":7600,"free":7601,"alv":7602,"usst":7603,"Ã¼cke":7604,"ista":7605,"ĠFree":7606,"Ġowner":7607,"Ġfinally":7608,"ĠTerraform":7609,"Ġraising":7610,"LAN":7611,"ĠBetracht":7612,"aktualisierung":7613,"ĠAnpassungen":7614,"Ġdemonstr":7615,"Anleitungen":7616,"Ã¶chten":7617,"ĠSollten":7618,"bre":7619,"anbi":7620,"Ġintr":7621,"ĠDifferent":7622,"Ġvast":7623,"Ġstating":7624,"etails":7625,"Ġleeren":7626,"ĠRuby":7627,"ĠHospital":7628,"pse":7629,"Ġ17":7630,"Ġmitz":7631,"Ġgenerated":7632,"Ġsicherstellen":7633,"ĠMÃ¶glichkeit":7634,"Ġupgrading":7635,"ĠKonflikte":7636,"Ġwiederher":7637,"ershell":7638,"schlÃ¼sselung":7639,"ĠNetgear":7640,"59":7641,"Cl":7642,"IO":7643,"Noted":7644,"md":7645,"wood":7646,"Ġpure":7647,"ĠSetup":7648,"unk":7649,"owershell":7650,"Ġconv":7651,"ĠThr":7652,"keits":7653,"uster":7654,"ĠMagento":7655,"Ġspread":7656,"Ġmatters":7657,"Ġbrief":7658,"Ġeditors":7659,"Ġrelate":7660,"aves":7661,"Ġruns":7662,"Ġcrashed":7663,"schiede":7664,"Ġanalyzed":7665,"ĠAgain":7666,"ĠiPhone":7667,"ĠbewÃ¤hrten":7668,"Ġburnin":7669,"Ġswiftly":7670,"Ġlayout":7671,"Ġentstanden":7672,"66":7673,"Sch":7674,"ey":7675,"px":7676,"pend":7677,"iti":7678,"Ġmor":7679,"ĠIdent":7680,"otal":7681,"Ã¤her":7682,"ĠBesch":7683,"Ġplaces":7684,"astic":7685,"Ġ250":7686,"quiring":7687,"uteilen":7688,"spe":7689,"ĠkÃ¼rzliche":7690,"Ġbuilding":7691,"Ġcounter":7692,"Ġcategories":7693,"Ġinklusive":7694,"Ġmitzuteilen":7695,"Ben":7696,"flich":7697,"hre":7698,"network":7699,"some":7700,"erve":7701,"Ġthous":7702,"ĠSto":7703,"stÃ¤r":7704,"urz":7705,"ĠElection":7706,"ĠKB":7707,"etings":7708,"Ġoffering":7709,"fee":7710,"ĠOnly":7711,"leitet":7712,"2013":7713,"weisen":7714,"ĠAufgaben":7715,"Ġvermutlich":7716,"lusion":7717,"Ġestablished":7718,"Ġstopped":7719,"ĠZugriffssteuerungen":7720,"ĠThreshold":7721,"',":7722,"500":7723,"85":7724,"Since":7725,"reignis":7726,"etc":7727,"verletzung":7728,"iche":7729,"ĠTutorials":7730,"ersky":7731,"Ġadds":7732,"Ġtagging":7733,"ommod":7734,"ĠUnternehm":7735,"ĠSoftwareupdates":7736,"Ġnumerous":7737,"Ġaccommod":7738,"However":7739,"Ġseconds":7740,"does":7741,"aspersky":7742,"Ġattributed":7743,"ĠAccounting":7744,"ĠEinschrÃ¤nkungen":7745,"Ġunnecessary":7746,"DR":7747,"Nummer":7748,"PO":7749,"PT":7750,"marketing":7751,"optimierungs":7752,"Ġid":7753,"Ġmoney":7754,"Ġfore":7755,"Ġlibr":7756,"cember":7757,"ĠTime":7758,"adurch":7759,"Ġsupporting":7760,"ĠServerÃ¼berlastung":7761,"ĠSicherheitsvor":7762,"Ġcovers":7763,"Ġsyncing":7764,"Tool":7765,"Ġliegt":7766,"ĠSomeone":7767,"Ġcommands":7768,"Ġexecution":7769,"ĠSicherheitsverletzung":7770,"abilitÃ¤t":7771,"Ġconsequences":7772,"Ġobsc":7773,"ĠUnternehmens":7774,"First":7775,"bytes":7776,"dle":7777,"ohl":7778,"stÃ¶r":7779,"verwaltung":7780,"ĠProtection":7781,"ĠOper":7782,"sofar":7783,"Ġunderstood":7784,"Ġapproval":7785,"Ġattached":7786,"enzen":7787,"ĠUrspr":7788,"Ġneueste":7789,"Ġfactors":7790,"utorial":7791,"Ġinteressieren":7792,"Ġprivate":7793,"Ġslugg":7794,"ĠPasswort":7795,"ĠGitHub":7796,"Ġeye":7797,"ĠprÃ¤z":7798,"Ġblacklist":7799,"ĠUhrzeit":7800,"Ġunusual":7801,"Ġdialog":7802,"Ġsluggish":7803,"37":7804,"Ber":7805,"IS":7806,"because":7807,"ian":7808,"when":7809,"erfahrung":7810,"onent":7811,"Ġhang":7812,"Ġluck":7813,"ĠWin":7814,"ĠDiagn":7815,"Ġmeiner":7816,"achines":7817,"ĠBel":7818,"Ġspelling":7819,"ĠKaspersky":7820,"ĠSure":7821,"Ġinformierte":7822,"Ġengaging":7823,"ĠExample":7824,"Ġsichere":7825,"Ġends":7826,"ĠApps":7827,"Ġmelde":7828,"Ġerhebliche":7829,"Ġverbessert":7830,"Ġevaluate":7831,"amera":7832,"Ġgateway":7833,"Ġentscheidend":7834,"ĠEnterprise":7835,"Ġusername":7836,"Ġdilig":7837,"hck":7838,"mac":7839,"Ġband":7840,"Ġmot":7841,"Ġinsofar":7842,"Ġreward":7843,"ĠTop":7844,"Ġabuse":7845,"Ġabandon":7846,"ĠBased":7847,"ĠKer":7848,"Ġumzusetzen":7849,"undred":7850,"ĠSoftwareversionen":7851,"Ġautor":7852,"Ġstands":7853,"ĠNeu":7854,"Ġ2013":7855,"ichtigen":7856,"Ġextensive":7857,"Ġetwaige":7858,"Ġinternal":7859,"Ġmenu":7860,"Ġpercentage":7861,"earbeitung":7862,"->":7863,"home":7864,"reib":7865,"itz":7866,"Ġbeg":7867,"ĠPNG":7868,"Ġweight":7869,"Ġerne":7870,"ĠFÃ¶rderung":7871,"Ġtrend":7872,"oret":7873,"ĠVerstoÃŁ":7874,"Ġaccessible":7875,"ĠEinstellungen":7876,"Ġfails":7877,"Ġexplains":7878,"ĠDecember":7879,"Ġmisunder":7880,"ĠGeben":7881,"ĠFirmware":7882,"Ġerzielen":7883,"masters":7884,"29":7885,"dis":7886,"eps":7887,"kompatibilit":7888,"png":7889,"zun":7890,"isation":7891,"Ġpun":7892,"Ġbecoming":7893,"Ġgames":7894,"Ġlag":7895,"ĠWikipedia":7896,"ĠAI":7897,"ĠstÃ¤r":7898,"Ġselection":7899,"tzeit":7900,"Ġregret":7901,"etworking":7902,"Ġinstances":7903,"avid":7904,"zeigen":7905,"Ġinside":7906,"Ġoperation":7907,"Ġfunctioning":7908,"2010":7909,"wartet":7910,"Ġhopefully":7911,"Ġfavour":7912,"Ġpacks":7913,"ĠAnsatz":7914,"Ġreboots":7915,"Ġframework":7916,"ĠMalwarebytes":7917,"Ġkorrekt":7918,"hardware":7919,"nUm":7920,"Ġpain":7921,"cht":7922,"ara":7923,"ammer":7924,"ĠDV":7925,"Ġwhose":7926,"Ġstru":7927,"ĠMachine":7928,"ĠBoth":7929,"Ġrecovery":7930,"ĠHaving":7931,"ĠHTT":7932,"ĠLieber":7933,"Ġanalyt":7934,"Ġbrought":7935,"ĠVorfalls":7936,"ĠMetr":7937,"Ġinstallieren":7938,"Ġcustomizable":7939,"ĠAtwood":7940,"Ġsuppose":7941,"ĠPosts":7942,"Ġintermitt":7943,"Ġfaq":7944,"Ġdepartment":7945,"Ġroutine":7946,"ĠUrgent":7947,"Ġaccommodate":7948,"ND":7949,"Per":7950,"Rep":7951,"ÃĹ":7952,"atik":7953,"Ġdump":7954,"isms":7955,"Ġanimated":7956,"ĠnÃ¤her":7957,"ĠAir":7958,"Ġusual":7959,"Ġrat":7960,"Ġvary":7961,"Ġalert":7962,"Ġextended":7963,"Ġadmit":7964,"Ġdetection":7965,"Ġ18":7966,"Ġobtain":7967,"Ġdiesen":7968,"Ġtells":7969,"Ġdirectory":7970,"Ġlangsam":7971,"Ġ:-)":7972,"Ġargue":7973,"Ġproducing":7974,"belastung":7975,"ĠMini":7976,"Ġpreparing":7977,"Ġpixels":7978,"Panel":7979,"TS":7980,"eme":7981,"rain":7982,"schen":7983,"Ġill":7984,"Ġtun":7985,"ichtet":7986,"sues":7987,"Ġwegen":7988,"ĠThemen":7989,"Ġserved":7990,"atency":7991,"ĠVerfahren":7992,"Ġsteht":7993,"Ġscan":7994,"Ġagre":7995,"folgen":7996,"Ġoccurs":7997,"Ġcritic":7998,"ĠPlan":7999,"ĠGrund":8000,"stools":8001,"Ġpotenziell":8002,"ĠBetriebs":8003,"Ġuploader":8004,"ĠPowerPoint":8005,"Ġmouseover":8006,"ĠAdministr":8007,"ĠUrsprung":8008,"At":8009,"dn":8010,"fre":8011,"eshing":8012,"Ġmicro":8013,"tec":8014,"arespace":8015,"ĠWiki":8016,"ĠPS":8017,"istry":8018,"ĠMan":8019,"ĠEreignis":8020,"Ġcompil":8021,"ĠVerwaltung":8022,"Ġrelatively":8023,"ĠAsking":8024,"Ġbelieved":8025,"ĠGesamt":8026,"Ġdamage":8027,"Ġaccurately":8028,"Ġbulk":8029,"produkte":8030,"Ġescalate":8031,"ĠDrive":8032,"Ġworkaround":8033,"Ġphysical":8034,"Ġgeziel":8035,"Ġconsoles":8036,"Agentur":8037,"ĠSquarespace":8038,"zunehmen":8039,"case":8040,"fung":8041,"ml":8042,"nTo":8043,"nCould":8044,"was":8045,"Ġtwe":8046,"ison":8047,"Ġanzu":8048,"check":8049,"Ġquestioner":8050,"Ġstability":8051,"ĠBad":8052,"Ġdeems":8053,"ĠOptionen":8054,"ĠSub":8055,"Ġmangeln":8056,"ĠStart":8057,"isches":8058,"Ġclearer":8059,"Ġexperiences":8060,"Ġlimits":8061,"Ġbereitgestellt":8062,"Ġbuying":8063,"Ġcircumst":8064,"ĠMerge":8065,"ĠKeras":8066,".âĢĿ":8067,"NE":8068,"patch":8069,"ql":8070,"Ġage":8071,"Ġmerely":8072,"Ġrein":8073,"Ġlinking":8074,"Ġlatency":8075,"ĠDid":8076,"ĠCW":8077,"ĠUI":8078,"Ġadap":8079,"berry":8080,"ĠRetag":8081,"ĠLast":8082,"Ġbecame":8083,"ĠTeilen":8084,"Ġbackups":8085,"Ġofferings":8086,"Analys":8087,"Ġaccident":8088,"Ġmigrations":8089,"Ġvermute":8090,"Ġconversion":8091,"ĠiPod":8092,"ĠOtherwise":8093,"ĠâĨ":8094,"ĠBereitstellung":8095,"ĠDrupal":8096,"ĠMathem":8097,"DP":8098,"NU":8099,"cA":8100,"moder":8101,"ered":8102,"iny":8103,"atures":8104,"rete":8105,"etre":8106,"ellow":8107,"ĠverstÃ¤r":8108,"Ġanybody":8109,"Ġimpl":8110,"ĠRight":8111,"Ġeinzu":8112,"Ġintervention":8113,"Ġaffects":8114,"Ġimplementieren":8115,"Ġspezielle":8116,"Ġreferences":8117,"Ġtelefonieren":8118,"ĠZugriffsversuche":8119,"Ġindicating":8120,"ĠIntegrationsprobleme":8121,"Ġclicked":8122,"ĠPlus":8123,"Ġstories":8124,"Ġskills":8125,"ĠScore":8126,"screen":8127,"Ġconference":8128,"ĠRoom":8129,"Ġdelayed":8130,"ĠAccount":8131,"defender":8132,"ĠFirma":8133,"Ġmentions":8134,"Ġbeantragen":8135,"Ġbalancing":8136,"ĠBeispiele":8137,"Ġvertrauliche":8138,"ĠAbsolute":8139,"49":8140,"Ġfurn":8141,"Ġhundred":8142,"arf":8143,"Ġlate":8144,"ulation":8145,"inden":8146,"gew":8147,"Ġneeding":8148,"ĠProblembe":8149,"schlagen":8150,"ape":8151,"Ġharder":8152,"Ġfollows":8153,"Ġindicated":8154,"Ġreplaced":8155,"Ġindividuelle":8156,"Ġirregular":8157,"ĠErfolgs":8158,"Question":8159,"ĠAgentur":8160,"atica":8161,"CD":8162,"got":8163,"move":8164,"nv":8165,"informed":8166,"Ġantic":8167,"Ġmachines":8168,"Ġintend":8169,"ĠSD":8170,"ĠSimp":8171,"there":8172,"Ġsuc":8173,"grade":8174,"ĠWeitere":8175,"nown":8176,"Ġschnellen":8177,"Ġacknowledges":8178,"Ġadmins":8179,"Ġstatistics":8180,"Ġflash":8181,"Ġgenauere":8182,"Ġmechanisms":8183,"ĠRoot":8184,"Ġattacks":8185,"Also":8186,"Ġintroduced":8187,"Ġwiederherzustellen":8188,"69":8189,"VM":8190,"reate":8191,"chtzeit":8192,"Ġmix":8193,"Ġinser":8194,"techn":8195,"Ġhot":8196,"entwicklung":8197,"Ġev":8198,"igma":8199,"agiar":8200,"ĠDef":8201,"Ġheard":8202,"Ġtyping":8203,"folge":8204,"ocal":8205,"Ġterr":8206,"Ġtests":8207,"Ġfocusing":8208,"Ġeffektive":8209,"Does":8210,"Probleme":8211,"clickthrough":8212,"ĠAuto":8213,"Tagline":8214,"Ġbumped":8215,"ĠGIFs":8216,"Ġopposed":8217,"Ġterminal":8218,"Ġgrammar":8219,"ĠFehlerbehebungs":8220,"Ġhurt":8221,"Ġnaht":8222,"gemeine":8223,"ĠWhatsApp":8224,"Ġfurnish":8225,"Ġsucceed":8226,"RE":8227,"nersh":8228,"optionen":8229,"Ġpanel":8230,"owers":8231,"imilar":8232,"ĠAkten":8233,"ĠDream":8234,"arely":8235,"ĠMSO":8236,"ĠIntell":8237,"ĠFigma":8238,"Ġplain":8239,"Ġreprodu":8240,"bex":8241,"ungssystem":8242,"raid":8243,"Ġbestimm":8244,"ĠQual":8245,"ĠAsana":8246,"zeich":8247,"Ġtypical":8248,"ielsweise":8249,"Systems":8250,"Ġremoval":8251,"ĠInvestitionsdaten":8252,"Ġrebooted":8253,"Ġcontributed":8254,"fohlen":8255,"Ġglitch":8256,"ĠTrends":8257,"Ġvoll":8258,"ĠRisiken":8259,"findung":8260,"Ġfortzus":8261,"cAfee":8262,"eider":8263,"Ġrevert":8264,"Ġreleased":8265,"Ġbeisp":8266,"vey":8267,"Ġstored":8268,"Ġnotify":8269,"ĠBooks":8270,"ĠAnlag":8271,"ussion":8272,"Ġincompatib":8273,"Ġthinks":8274,"Ġpartnersh":8275,"Ġlearned":8276,"ĠMarkengr":8277,"Ġretrie":8278,"lipse":8279,"ĠArea":8280,"ĠSteigerung":8281,"Ġbeginning":8282,"Ġrefreshing":8283,"Ġbestehende":8284,"ĠbemÃ¼hen":8285,"Ġbeispielsweise":8286,"Box":8287,"gy":8288,"nd":8289,"nWir":8290,"rd":8291,"oups":8292,"Ġcatch":8293,"ĠmaÃŁ":8294,"Ġunhelpful":8295,"ĠToo":8296,"ĠPhot":8297,"ailable":8298,"Ġkennen":8299,"Ġstore":8300,"ustarten":8301,"geg":8302,"Ġprem":8303,"Ġpreview":8304,"ĠServers":8305,"wendungen":8306,"folios":8307,"lÃ¤r":8308,"Ġgotten":8309,"tags":8310,"ĠKrankenhÃ¤user":8311,"ipps":8312,"Ġdiscovered":8313,"Ġdeemed":8314,"ĠAntwort":8315,"ĠMitarbeiter":8316,"Ġdiligently":8317,"ĠMathematica":8318,"Ġfortzusetzen":8319,"Ġincompatibilities":8320,"TP":8321,"hler":8322,"sm":8323,"orch":8324,"lements":8325,"Ġhate":8326,"ĠWLAN":8327,"sue":8328,"ĠBrowser":8329,"Ġscheme":8330,"count":8331,"ĠZeitplan":8332,"Ġfriendly":8333,"ĠInvestitionsoptimierungs":8334,"Ġprogrammers":8335,"Ġconstrain":8336,"Ġblocks":8337,"ĠTechnolog":8338,"Ġredund":8339,"reiber":8340,"Ġhonestly":8341,"Ġsessions":8342,"ĠAbstÃ¼rze":8343,"Ġtempl":8344,"ĠerfÃ¼llen":8345,"Ġmanufacturer":8346,"reibung":8347,"47":8348,"TL":8349,"fte":8350,"files":8351,"lÃ¶sungen":8352,"poin":8353,"wid":8354,"Ġbat":8355,"ingly":8356,"ĠThink":8357,"Ġsozial":8358,"ĠGed":8359,"ogy":8360,"Ġfehler":8361,"Ġkeeps":8362,"Ġsaf":8363,"Ã¶rt":8364,"Ġshowed":8365,"Ġinstalliert":8366,"cles":8367,"ĠPCs":8368,"ĠDerzeit":8369,"Ġelections":8370,"werke":8371,"ĠPersonally":8372,"ĠgeschÃ¼tz":8373,"Ġlicensing":8374,"integrations":8375,"ymantec":8376,"ĠvollstÃ¤nd":8377,");":8378,"AC":8379,"data":8380,"Ġaf":8381,"Ġhil":8382,"arly":8383,"ested":8384,"Ġforth":8385,"Ġformer":8386,"ĠWas":8387,"Ġziehen":8388,"Ġstuck":8389,"ĠHD":8390,"Ġworkst":8391,"Ġunternehmen":8392,"barkeits":8393,"Ġinformiert":8394,"Ġgray":8395,"Ġprocedure":8396,"Ġsollte":8397,"analysen":8398,"Ġextension":8399,"ĠBesorg":8400,"ĠBitdefender":8401,"Ġobscure":8402,"ĠMetriken":8403,"Dashboards":8404,"eah":8405,"hers":8406,"setzen":8407,"xp":8408,"Ġtends":8409,"ĠwÃ¼n":8410,"Ġpan":8411,"ĠMcAfee":8412,"Ġerwarte":8413,"ĠAntrag":8414,"ighted":8415,"ference":8416,"upassen":8417,"ĠSoftwarekonflikte":8418,"Ġlogging":8419,"Analytics":8420,"problems":8421,"Ġtreated":8422,"ĠDatenverarbeitung":8423,"ĠMeet":8424,"Ġerheblichen":8425,"ĠSSL":8426,"orrent":8427,"ĠModell":8428,"lÃ¤ufe":8429,"ĠExamine":8430,"geschneider":8431,"Ġsurprised":8432,"Ġhesitate":8433,"Ġstrugg":8434,"ĠGeduld":8435,"details":8436,"iant":8437,"nel":8438,"patches":8439,"reason":8440,"Ġbash":8441,"unities":8442,"igible":8443,"termin":8444,"ulous":8445,"Ã¤den":8446,"ĠWebex":8447,"Ġexcel":8448,"Ġverw":8449,"Ġupcoming":8450,"ops":8451,"Ġwillkommen":8452,"Ġoutright":8453,"Ġchosen":8454,"ĠSuggest":8455,"Ġcomply":8456,"Ġsolves":8457,"Ġpossibilities":8458,"raft":8459,"ception":8460,"ualisierungen":8461,"ichtbarkeit":8462,"ĠJav":8463,"Ġvorschlagen":8464,"Ġmarkdown":8465,"Ġtested":8466,"etriken":8467,"Ġtransactions":8468,"Ġassuming":8469,"Ġanzupassen":8470,"Ġannual":8471,"ĠAlternativ":8472,"ĠStÃ¶rung":8473,"Ġindepend":8474,"Ġfigured":8475,"Ġdeserves":8476,"ĠSicherheitslÃ¼cke":8477,"ĠDocu":8478,"Ġinstitution":8479,"Ġliterally":8480,"Ġanalytical":8481,"ĠmaÃŁgeschneider":8482,"Ġhilft":8483,"GB":8484,"Kontakt":8485,"Optimierung":8486,"ees":8487,"opt":8488,"xy":8489,"Ġsincerely":8490,"ores":8491,"level":8492,"Ġfill":8493,"alyt":8494,"ĠSource":8495,"Ġmein":8496,"Ġanswerer":8497,"ĠProj":8498,"Ġregistr":8499,"Ġarbit":8500,"rap":8501,"Ġengines":8502,"ĠJuly":8503,"ĠVorgehen":8504,"Ġblue":8505,"oughts":8506,"ĠLeider":8507,"Ġrefers":8508,"Ġintu":8509,"likten":8510,"update":8511,"Ġrevisions":8512,"Requesting":8513,"Ġfrustrating":8514,"ĠRechnung":8515,"ĠAnlagest":8516,"87":8517,"disc":8518,"iet":8519,"iben":8520,"same":8521,"Ġaff":8522,"Ġtheory":8523,"letion":8524,"anforderungen":8525,"iebe":8526,"stieg":8527,"igating":8528,"imon":8529,"ĠWieder":8530,"usiness":8531,"achten":8532,"ĠMÃ¶chten":8533,"ĠEMR":8534,"Ġsollen":8535,"schwierigkeiten":8536,"iously":8537,"fram":8538,"ĠSicherheitsaud":8539,"Ġconcise":8540,"tellungs":8541,"fair":8542,"lÃ¤ss":8543,"Ġihre":8544,"phas":8545,"ĠIntegrationsmÃ¶glichkeiten":8546,"Ġhomework":8547,"Ġempfohlen":8548,"including":8549,"ĠWorkflows":8550,"aspberry":8551,"naire":8552,"ĠReputation":8553,"ĠBeteiligung":8554,"ĠInstall":8555,"Ġcircumstances":8556,":\"":8557,"After":8558,"Im":8559,"Ihr":8560,"Work":8561,"ipped":8562,"losen":8563,"ober":8564,"rag":8565,"vet":8566,"your":8567,"onus":8568,"atus":8569,"request":8570,"Ġwatch":8571,"Ġmail":8572,"Ġmaster":8573,"Ġungen":8574,"igungs":8575,"olfram":8576,"uste":8577,"pty":8578,"ĠBig":8579,"opard":8580,"ĠOT":8581,"ĠLassen":8582,"Ġnewbie":8583,"ssystem":8584,"Ġbestand":8585,"Ġcoordin":8586,"Ġstarts":8587,"ĠMarketingstrategie":8588,"uellen":8589,"Ġopened":8590,"apped":8591,"Ġnotwendige":8592,"Ġcarefully":8593,"Ġresets":8594,"Ġworthy":8595,"Ġparent":8596,"ĠDebian":8597,"Ġsmaller":8598,"Ġsensiblen":8599,"ĠSkype":8600,"Ġpresented":8601,"Ġinflu":8602,"Ġgrey":8603,"ĠDatum":8604,"ĠEinsatz":8605,"Ġrecalibr":8606,"Ġosx":8607,"ĠPhishing":8608,"aravel":8609,"44":8610,"CA":8611,"biqu":8612,"ube":8613,"Ġ)":8614,"ernen":8615,"Ġwes":8616,"Ġunver":8617,"Ġnotified":8618,"ackt":8619,"Ġadher":8620,"Ġadapt":8621,"ĠKommunik":8622,"ablÃ¤ufe":8623,"Ġplaced":8624,"lication":8625,"ĠStrateg":8626,"Ġwhenever":8627,"ĠZeiten":8628,"ĠDatensystem":8629,"Ġsorts":8630,"ĠGew":8631,"Ġrouters":8632,"Ġconsumer":8633,"Ġenterprise":8634,"Ġreliable":8635,"ĠbegrÃ¼ÃŁ":8636,"ĠSkalierbarkeit":8637,"Ġsubsequent":8638,"neustarts":8639,"ivalent":8640,"Ġterrible":8641,"Ġfehlerha":8642,"Ġsafety":8643,"source":8644,"Ġtutorial":8645,"Ġcreat":8646,"eding":8647,"quis":8648,"ĠBount":8649,"Ġdeuten":8650,"Ġleaves":8651,"ausfÃ¤lle":8652,"ĠLive":8653,"ĠLade":8654,"ĠLaravel":8655,"Ġplagiar":8656,"Inquiring":8657,"reputation":8658,"Ġ500":8659,"ĠXY":8660,"Ġopening":8661,"opened":8662,"2014":8663,"tivir":8664,"Ġbroader":8665,"ĠImages":8666,"Ġchoices":8667,"Ġreduced":8668,"Ġretagging":8669,"Ġthreads":8670,"gehende":8671,"posts":8672,"langsam":8673,"Ġerfolgreiche":8674,"Ġcommunicate":8675,"Ġpartnerships":8676,"ĠwÃ¼nschen":8677,"All":8678,"Kon":8679,"Torch":8680,"co":8681,"lung":8682,"words":8683,"Ġhyper":8684,"omal":8685,"statt":8686,"Ġunrelated":8687,"ĠTipps":8688,"achte":8689,"ĠBlack":8690,"ĠAntivir":8691,"ĠZur":8692,"âĢĭ":8693,"Ġweren":8694,"gestell":8695,"ĠExpress":8696,"ektivitÃ¤t":8697,"Ġreads":8698,"ĠBefore":8699,"Ġdelighted":8700,"Ġground":8701,"ĠDatenverletzungen":8702,"ĠPlug":8703,"ĠPyTorch":8704,"Ġverbesserte":8705,"Ġsuddenly":8706,"Ġbleiben":8707,"Ġborderline":8708,"ĠRecommendations":8709,"36":8710,"ded":8711,"lting":8712,"ny":8713,"test":8714,"Ġtone":8715,"Ġdadurch":8716,"ĠTH":8717,"ĠTY":8718,"Ġweird":8719,"ĠWeek":8720,"ĠUsing":8721,"ĠRaspberry":8722,"ĠProblemlÃ¶sung":8723,"Ġfeas":8724,"ĠVersuch":8725,"cks":8726,"ĠpersÃ¶n":8727,"ĠmÃ¶glicher":8728,"Ġattitude":8729,"Ġlogic":8730,"ĠExper":8731,"otherboard":8732,"Ġphot":8733,"Ġpoll":8734,"ĠBedarf":8735,"ĠunterstÃ¼tzt":8736,"Ġutilized":8737,"ĠDatenverschlÃ¼sselung":8738,"fÃ¤llen":8739,"Ġpredictions":8740,"ĠâĻ¦":8741,"MMMMMMMM":8742,"Ġinfluencer":8743,"Ġ;)":8744,"Ġmisconfigurations":8745,"wertung":8746,"Ġreverse":8747,"Ġtriggered":8748,"Ġscenario":8749,"Ġculture":8750,"ĠPhotoshop":8751,"ĠDocuSign":8752,"55":8753,"Router":8754,"Ubuntu":8755,"office":8756,"power":8757,"zah":8758,"Ġtroll":8759,"Ġce":8760,"Ġpaste":8761,"Ġintens":8762,"Ġbegeg":8763,"Ġunreg":8764,"Ġonto":8765,"ĠWho":8766,"suggested":8767,"oog":8768,"Ġerlauben":8769,"ĠGNU":8770,"duction":8771,"Ġallgemeine":8772,"Ġemphas":8773,"Ġentries":8774,"Ġidentical":8775,"Ġmodified":8776,"Ġ2010":8777,"boarding":8778,"Ġdefinitive":8779,"zugriff":8780,"Ġcopied":8781,"Ġincorrectly":8782,"Ġupgrades":8783,"Ġrolled":8784,"Ġnegatively":8785,"Ġcombined":8786,"Ġbullet":8787,"werkzeugen":8788,"xxxxxxxx":8789,"ĠRabatte":8790,"ĠâĨĴ":8791,"ĠBesorgnis":8792,"?,":8793,"Le":8794,"rary":8795,"Ġtour":8796,"Ġswitches":8797,"aniel":8798,"storage":8799,"que":8800,"ĠTwo":8801,"ĠWolfram":8802,"formance":8803,"Ġexcess":8804,"Ġexcl":8805,"ĠBis":8806,"Ġspending":8807,"Ġhelfe":8808,"jective":8809,"ĠVersucht":8810,"eiten":8811,"Ġimplementations":8812,"ĠSystemupdates":8813,"ighten":8814,"Ġvereinf":8815,"Ġsignal":8816,"feld":8817,"ĠFAQs":8818,"apps":8819,"Ġrefund":8820,"Ġrobuste":8821,"Ġturns":8822,"ĠzukÃ¼nftiger":8823,"Ġlaptops":8824,"ĠLeistungsprobleme":8825,"Apps":8826,"Ġdecreased":8827,"Ġmalfunctioning":8828,"Ġbleibt":8829,"Ġunautorisierten":8830,"ĠgrÃ¼ndliche":8831,"ĠTYPO":8832,"Have":8833,"IP":8834,"run":8835,"âľ":8836,"Ġdang":8837,"Ġcounts":8838,"arb":8839,"une":8840,"agn":8841,"ĠDashboards":8842,"istic":8843,"Ġsuff":8844,"Ġerweit":8845,"ankly":8846,"Ġincorporate":8847,"antic":8848,"ĠLTS":8849,"ĠVerhind":8850,"block":8851,"ccording":8852,"Ġblah":8853,"Ġideal":8854,"Ġcollection":8855,"Ġkontaktiere":8856,"installation":8857,"Ġ2014":8858,"Ġangegebenen":8859,"Ġparticipating":8860,"Ġcrappy":8861,"Ġraise":8862,"Ġmaterials":8863,"Ġresponding":8864,"ĠGrÃ¼ÃŁe":8865,"konfigurationen":8866,"Ġdocumented":8867,"basierten":8868,"Anleitung":8869,"Ġtelephone":8870,"ĠRechnungen":8871,"ĠEntwicklung":8872,"ĠAlgorithmen":8873,"ĠAuthentifizierungs":8874,"anbieter":8875,"width":8876,"zahlen":8877,"26":8878,"99":8879,"?âĢĿ":8880,"fil":8881,"ihe":8882,"iFi":8883,"eno":8884,"Ġtoler":8885,"room":8886,"Ġreaction":8887,"Ġnatur":8888,"Ġbearbeiten":8889,"ĠPi":8890,"ĠMo":8891,"opy":8892,"Ġreconc":8893,"Ġtimeouts":8894,"Ġamounts":8895,"espond":8896,"ĠVerk":8897,"comment":8898,"âĢĥ":8899,"ikit":8900,"Ġcommentary":8901,"Ġrelating":8902,"Ġrecommending":8903,"Ġbadly":8904,"Ġremaining":8905,"Ġ40":8906,"zusch":8907,"auft":8908,"arbeitet":8909,"ĠNetzwerks":8910,"Ġdealt":8911,"Ġdiagnosing":8912,"Ġalternatives":8913,"ucket":8914,"Ġfundierte":8915,"Ġentsprechen":8916,"Ġcircumvent":8917,"ĠPortfolio":8918,"Ġpinpoint":8919,"Ġblieben":8920,"Ġunerlaubten":8921,"ĠISP":8922,"ĠAnlagestrategien":8923,"cast":8924,"dienstleistungen":8925,"lauf":8926,"written":8927,"Ġsalv":8928,"Ġcmd":8929,"Ġbound":8930,"Ġobl":8931,"str":8932,"ichte":8933,"Ġknew":8934,"ĠVR":8935,"ĠVide":8936,"ĠLeit":8937,"Ġcompleted":8938,"ĠZielen":8939,"Ġregister":8940,"aSh":8941,"Ġconclusion":8942,"wendigkeit":8943,"ĠBei":8944,"Ġsignifik":8945,"Ġrights":8946,"Ġunapp":8947,"Ġsearches":8948,"ĠvorlÃ¤uf":8949,"Ġinitially":8950,"Ġtitles":8951,"Ġauditing":8952,"Ġselecting":8953,"Ġwaiting":8954,"Ġstreamlining":8955,"Thanks":8956,"Ġequivalent":8957,"Ã¤ufe":8958,"awk":8959,"Ġutmost":8960,"Ġunerwarteten":8961,"Ġyielded":8962,"Abteilung":8963,"achrichten":8964,"ĠBeschreibung":8965,"stÃ¶rungen":8966,"Ġmotiv":8967,"ĠDVD":8968,"ĠVerhinderung":8969,"?\".":8970,"Cont":8971,"From":8972,"hin":8973,"iJ":8974,"mus":8975,"Ġcal":8976,"Ġinfolge":8977,"ilogy":8978,"Ġ(<":8979,"Ġtimeframe":8980,"ĠDatenintegration":8981,"ustomers":8982,"Ġpreference":8983,"ĠNotwendigkeit":8984,"ĠNetzwerke":8985,"Ġpersonalisierte":8986,"Ġworded":8987,"Ġvermuten":8988,"Ġhighlighted":8989,"ĠSkal":8990,"ĠComment":8991,"Ġgained":8992,"Ġarticles":8993,"Ġsummar":8994,"Ġdiscourage":8995,"Ġestablish":8996,"Ġentsprechenden":8997,"Ġgrav":8998,"ĠExplorer":8999,".(":9000,"01":9001,"don":9002,"ergy":9003,"ination":9004,"Ġdaten":9005,"iste":9006,"Ġcapt":9007,"Ġfan":9008,"ĠSur":9009,"ulate":9010,"ady":9011,"Ġdisable":9012,"ĠViel":9013,"itteil":9014,"ĠschÃ¶n":9015,"schn":9016,"Ġinvestigations":9017,"ipher":9018,"These":9019,"Ġsearched":9020,"ĠOrgan":9021,"Ġrejection":9022,"Regeln":9023,"Ġrefine":9024,"Ġbigger":9025,"Ġridic":9026,"ĠIDEA":9027,"ĠSicherheitslÃ¼cken":9028,"ĠVerschlÃ¼sselungsmethoden":9029,"Experienced":9030,"stimmigkeiten":9031,"Benutzer":9032,"ĠstÃ¤rken":9033,"âĢĭâĢĭ":9034,"enovo":9035,"Off":9036,"tons":9037,"ĠcPanel":9038,"Ġbur":9039,"ĠSecond":9040,"Ġrect":9041,"quem":9042,"Ġunc":9043,"thank":9044,"Ġvetting":9045,"Ġsuchen":9046,"Ġenabled":9047,"together":9048,"ĠDatenqu":9049,"delete":9050,"ĠUniFi":9051,"Ġprinc":9052,"Ġscroll":9053,"prove":9054,"aktiken":9055,"Answer":9056,"Ġupvoting":9057,"Ġvoranz":9058,"ĠzurÃ¼ckzusetzen":9059,"Ġindication":9060,"gefÃ¼hrt":9061,"ifizierung":9062,"Ġportion":9063,"Ġcopying":9064,"ĠScikit":9065,"Ġemployees":9066,"Ġequally":9067,"Ġpackage":9068,"ĠAbrechn":9069,"New":9070,"Experiencing":9071,"ĠBasically":9072,"Desk":9073,"Ġabandoned":9074,"Ġerneut":9075,"nvielen":9076,"ĠIntelliJ":9077,"ĠbegrÃ¼ÃŁen":9078,"stattung":9079,"Ger":9080,"He":9081,"Nr":9082,"have":9083,"self":9084,"eds":9085,"leting":9086,"ĠSymantec":9087,"Ġreve":9088,"stÃ¶ÃŁe":9089,"ĠTom":9090,"utreiben":9091,"Ġvo":9092,"Ġdeep":9093,"Ġjump":9094,"Ġempty":9095,"iale":9096,"ĠReihe":9097,"ĠĠĠĠĠĠĠĠĠĠĠĠ":9098,"ighth":9099,"Ġfacility":9100,"Ġprotocol":9101,"Ġverbunden":9102,"ĠMarkdown":9103,"auer":9104,"Ġconflict":9105,"Ġboard":9106,"ĠÃľberwachung":9107,"ĠMeetings":9108,"Ġineff":9109,"Ġmeetings":9110,"Ġelected":9111,"ĠConnect":9112,"Ġattribution":9113,"Ġundeleted":9114,"Ġangebotenen":9115,"Ġicon":9116,"ĠgeschÃ¼tzt":9117,"ĠVielzahl":9118,"Ġvoranzutreiben":9119,"pun":9120,"ram":9121,"taken":9122,"write":9123,"atar":9124,"reenshot":9125,"itÃ¤ts":9126,"Ġtoward":9127,"leb":9128,"Ġfight":9129,"Ġflow":9130,"roy":9131,"ifies":9132,"format":9133,"ĠMedia":9134,"agements":9135,"ĠRelated":9136,"ĠLear":9137,"Ġinterruption":9138,"They":9139,"ĠAdditional":9140,"ĠSystemausfall":9141,"aktivitÃ¤ten":9142,"ĠJane":9143,"Ġbold":9144,"ĠGerÃ¤t":9145,"Ġsicheren":9146,"Ġ90":9147,"Ġslhck":9148,"Ġproduced":9149,"plattformen":9150,"Ġeyes":9151,"ĠEntschuldigen":9152,"Ġdistinction":9153,"ublikum":9154,"vetted":9155,"biquiti":9156,"OM":9157,"sl":9158,"search":9159,"Ġought":9160,"Ġcorre":9161,"ingu":9162,"ĠhÃ¶":9163,"Ġforgot":9164,"Ġkomp":9165,"Ġdepth":9166,"ĠHand":9167,"Ġ1000":9168,"ĠRemember":9169,"Ġdefine":9170,"Ġappropriately":9171,"ĠNeustarten":9172,"ĠPatches":9173,"ĠChang":9174,"Ġmerging":9175,"Ġreplacing":9176,"Ġsmoothly":9177,"Ġhalten":9178,"AMP":9179,"azon":9180,"ĠgeschÃ¤tz":9181,"Ġguaranteed":9182,"Ġjegliche":9183,"Ġreposting":9184,"Ġmiddle":9185,"ĠPrÃ¼fung":9186,"CP":9187,"LÃ¶sung":9188,"ait":9189,"after":9190,"itten":9191,"Ġhier":9192,"utable":9193,"ĠDam":9194,"Ġerken":9195,"ĠAnmeld":9196,"Ġtiming":9197,"ĠNighth":9198,"ĠDatenvis":9199,"Ġgetroffen":9200,"Ġprint":9201,"Ġoptimiert":9202,"Ġoptimizations":9203,"aktions":9204,"Ġimpacts":9205,"othet":9206,"Ã¤nder":9207,"Plattformen":9208,"Ġconstantly":9209,"Ġidentifiziert":9210,"Ġerkannt":9211,"Ġinefficient":9212,"ĠOneNote":9213,"ĠBericht":9214,"Ġrestric":9215,"Ã¤ndig":9216,"Ġpublicity":9217,"Umgeb":9218,"ĠInhalte":9219,"desktop":9220,"accepted":9221,"Aktualisierungen":9222,"Tracker":9223,"Ġconverted":9224,"Ġarchitecture":9225,"Ġratio":9226,"Kontaktieren":9227,"ĠNighthawk":9228,"35":9229,"hib":9230,"kung":9231,"ora":9232,"Ġcit":9233,"Ġbonus":9234,"Ġping":9235,"Ġfont":9236,"Ġinher":9237,"etter":9238,"ĠSa":9239,"Ġquestionnaire":9240,"ĠThoughts":9241,"ĠMehr":9242,"ĠBearbeitung":9243,"ĠEffect":9244,"Ġinclined":9245,"eseen":9246,"Ġedge":9247,"Ġunderstandable":9248,"Ġ29":9249,"tigen":9250,"ĠSicherheitsfunktionen":9251,"...\"":9252,"etzungen":9253,"Ġhandful":9254,"Where":9255,"enzeiten":9256,"Ġvorhand":9257,"Ġdeveloping":9258,"Ã¼rzt":9259,"maz":9260,"ĠAccept":9261,"ĠBedÃ¼rfnissen":9262,"Ġrevised":9263,"ugging":9264,"Ġassigned":9265,"Ġangepas":9266,"Ġzeigt":9267,"ĠShopware":9268,"Ġflexible":9269,"ĠmaÃŁgeschneiderte":9270,"ĠGewÃ¤hrleist":9271,"Ġcreatives":9272,"++":9273,"Fin":9274,"OR":9275,"Person":9276,"With":9277,"bro":9278,"metriken":9279,"tab":9280,"uct":9281,"ziele":9282,"},":9283,"atically":9284,"Ġsqu":9285,"Ġwall":9286,"edits":9287,"Ġfellow":9288,"Ġlacking":9289,"ĠWart":9290,"ĠPlÃ¤":9291,"ĠDuring":9292,"Ġade":9293,"itech":9294,"ĠVL":9295,"ained":9296,"ĠLow":9297,"Ġplus":9298,"Ġmanager":9299,"Ġprere":9300,"Ġ220":9301,"riting":9302,"ĠServerbelastung":9303,"Ġinforming":9304,"plicate":9305,"Ġfaces":9306,"Ġfewer":9307,"Ġeligible":9308,"Ġbusy":9309,"ĠSpitz":9310,"Ġstrange":9311,"Ġ64":9312,"phones":9313,"Ġindicator":9314,"bersecurity":9315,"Ġregulars":9316,"locked":9317,"Ġaims":9318,"Ġannoun":9319,"Ġresponsible":9320,"ĠObviously":9321,"Ġ2008":9322,"ĠberÃ¼cks":9323,"Ġtablets":9324,"2008":9325,"Ġdiscouraged":9326,"Ġexcerpts":9327,"ĠMonitor":9328,"Ġprinters":9329,"Ġassumption":9330,"ĠPremium":9331,"ĠAbonnement":9332,"ĠMarkengrÃ¶ÃŁe":9333,"?.":9334,"Top":9335,"brechung":9336,"fass":9337,"pc":9338,"cher":9339,"Ġhorr":9340,"ĠSol":9341,"Ġnur":9342,"Ġniche":9343,"Ġglo":9344,"pper":9345,"Ġconvert":9346,"Ġusb":9347,"grad":9348,"ĠHP":9349,"abfragen":9350,"sole":9351,"Ġinteract":9352,"ĠUnless":9353,"hold":9354,"Ġreviewer":9355,"Ġremapping":9356,"ĠSicherheitspatches":9357,"Ġworden":9358,"Ġblat":9359,"Ġindicators":9360,"Ġcommonly":9361,"123":9362,"Ġgefunden":9363,"Ġergriffenen":9364,"community":9365,"Ġcompetitive":9366,"gnosen":9367,"ĠerhÃ¶hte":9368,"ĠDatenaufbereitung":9369,"Ġafraid":9370,"mazon":9371,"Com":9372,"bd":9373,"joy":9374,"microsoft":9375,"nwir":9376,"orge":9377,"Ġbarely":9378,"Ġbackt":9379,"Ġunfair":9380,"olic":9381,"Ġaside":9382,"foreseen":9383,"erein":9384,"Ġkill":9385,"Ġenforce":9386,"ĠMitteil":9387,"oph":9388,"Ġshell":9389,"Ġintegrierten":9390,"Ġseries":9391,"ĠHyper":9392,"Ġ2000":9393,"intosh":9394,"Ġpartially":9395,"...)":9396,"erkzeug":9397,"Ġreader":9398,"Ġconsiderations":9399,"Ġcapable":9400,"ĠLeave":9401,"Ġviewed":9402,"Ġboil":9403,"ĠBedro":9404,"Ġbringen":9405,"Ġformats":9406,"Ġformatted":9407,"Ġseriousness":9408,"obei":9409,"Ġverschiedener":9410,"Ġ###":9411,"atisierung":9412,"Ġwiederhol":9413,"Ġkritische":9414,"ĠIMHO":9415,"Ġsilly":9416,"Encountered":9417,"Ġadvantage":9418,"imonials":9419,"ĠAntiviren":9420,"Ġerweitern":9421,"Data":9422,"Med":9423,"nt":9424,"uchen":9425,"zip":9426,"Ġdark":9427,"Ġwobei":9428,"Ġbi":9429,"anwendungen":9430,"roved":9431,"Ġunsure":9432,"Ġgreen":9433,"ĠAru":9434,"Ġrene":9435,"ĠFile":9436,"Ġleak":9437,"Ġincorpor":9438,"dule":9439,"ĠGu":9440,"apers":9441,"front":9442,"oding":9443,"ĠÃĹ":9444,"Ġpaying":9445,"Ġpassender":9446,"Ġkinda":9447,"Ġtestimonials":9448,"Ġresearched":9449,"Ġreopening":9450,"Ġmalicious":9451,"ĠGesundheitsdaten":9452,"Ġboosting":9453,"Ġvalues":9454,"Ġscripting":9455,"wicklungen":9456,"!!!!":9457,"Ġmaximize":9458,"Ġdisappear":9459,"ĠBetriebssystem":9460,"Ġconditions":9461,"Ġfinanzielle":9462,"Admin":9463,"Ġdistribution":9464,"Ġlabel":9465,"Ġconvin":9466,"ĠPlugins":9467,"ĠGewÃ¤hrleistung":9468,"ĠAruba":9469,"(\"":9470,"Ac":9471,"Don":9472,"During":9473,"ES":9474,"Lab":9475,"OU":9476,"]?":9477,"bucket":9478,"gÃ¤n":9479,"non":9480,"rÃ¤":9481,"rash":9482,"Ġcorr":9483,"arently":9484,"Ġreality":9485,"Ġprob":9486,"Ġlately":9487,"Ġlenken":9488,"Ġonboarding":9489,"ĠPract":9490,"ĠDashboard":9491,"Ġrant":9492,"Ġnotes":9493,"allow":9494,"ĠCM":9495,"ĠUbiquiti":9496,"Ġimmer":9497,"Ġbuttons":9498,"pril":9499,"Ġemer":9500,"boot":9501,"ĠbestmÃ¶glich":9502,"ĠReal":9503,"Ġdriving":9504,"Ġelabor":9505,"Ġpatients":9506,"Ġprofess":9507,"Ġprofiles":9508,"Ġpassed":9509,"ĠXero":9510,"linik":9511,"Reg":9512,"PACS":9513,"Ġchallenge":9514,"Ġcybersecurity":9515,"ĠEngine":9516,"Ġharsh":9517,"Ġapparent":9518,"ĠVerschlÃ¼sselungsverfahren":9519,"ĠhÃ¤ufig":9520,"ĠTransl":9521,"********":9522,"ĠEndpoint":9523,"respons":9524,"Ġfundamental":9525,"ĠEntscheidungsfindung":9526,"Ġarbitrary":9527,"ĠSpitzenzeiten":9528,"ĠMitteilung":9529,"38":9530,"FAQ":9531,"Ġtick":9532,"Ġpending":9533,"lean":9534,"Ġunforeseen":9535,"Ġhack":9536,"ĠDep":9537,"Ġstum":9538,"Ġsees":9539,"Ġshot":9540,"ĠHigh":9541,"Ġthereby":9542,"ĠGibt":9543,"Ġregistry":9544,"ĠStill":9545,"Ġparty":9546,"Ġbranding":9547,"Ġworst":9548,"Ġ32":9549,"Ġpointless":9550,"ĠLeeren":9551,"Ġmerit":9552,"Ġkeywords":9553,"Ġcareful":9554,"Unix":9555,"Ġunerwartet":9556,"Ġresponsibility":9557,"Ġcovering":9558,"Ġtabs":9559,"Ġ2009":9560,"Ġexpanding":9561,"Ġannoyed":9562,"Ġundelete":9563,"ĠShopify":9564,"Ġfirefox":9565,"ĠAblÃ¤ufe":9566,"plÃ¤ne":9567,"Ġencrypting":9568,"Ġungena":9569,"Ġerkennen":9570,"Ġrenew":9571,"48":9572,"77":9573,"??":9574,"Customers":9575,"Ge":9576,"SL":9577,"cled":9578,"hard":9579,"ipping":9580,"lan":9581,"person":9582,"sol":9583,"stelle":9584,"Ġten":9585,"arter":9586,"Ġrevers":9587,"verse":9588,"ĠTest":9589,"ĠTopic":9590,"ungsoptionen":9591,"ĠWel":9592,"ĠDritt":9593,"Ġsole":9594,"Ġstab":9595,"Ġaltogether":9596,"ĠCol":9597,"ĠConf":9598,"Ġcalls":9599,"itionally":9600,"ossibly":9601,"ĠYet":9602,"ĠSicherheitsprotokollen":9603,"Ġentdec":9604,"Ġengage":9605,"ĠEinfluss":9606,"Ġautomate":9607,"virt":9608,"2021":9609,"Ġcontinued":9610,"Ġlazy":9611,"Ġtransaction":9612,"ĠBenutz":9613,"Ġprivacy":9614,"uldigung":9615,"Ġboxes":9616,"Ġbeginnen":9617,"zureich":9618,"Ġopportunities":9619,"ĠSicherheitsverstoÃŁ":9620,"ĠGitLab":9621,"ifikationen":9622,"ĠSkalierbarkeits":9623,"ĠPremiere":9624,"changes":9625,"Ġhoping":9626,"Ġhypothet":9627,"Ġgenutzt":9628,"ĠQuality":9629,"Ġconstraints":9630,"ĠSicherheitsaudits":9631,"ĠEffects":9632,"?\\":9633,"ories":9634,"Ġbemer":9635,"status":9636,"Ġvoters":9637,"ĠCore":9638,"ĠES":9639,"ĠEither":9640,"ĠFÃ¤higkeiten":9641,"ĠAnlagen":9642,"Ġrecover":9643,"Ġembed":9644,"Ġart":9645,"apaz":9646,"ological":9647,"Ġbesond":9648,"Ġexisted":9649,"rupted":9650,"Ġgrund":9651,"Ġcycles":9652,"Ġassessments":9653,"ferenzen":9654,"Ġeingeleitet":9655,"Ġpurely":9656,"Ġredundant":9657,"schnitt":9658,"Ġridiculous":9659,"Ġrectify":9660,"800":9661,"==":9662,"FS":9663,"blick":9664,"fach":9665,"ĠÂł":9666,"inent":9667,"itle":9668,"Ġpowers":9669,"Ġintell":9670,"ĠSys":9671,"suming":9672,"Ġvirt":9673,"ulations":9674,"Ġstable":9675,"Ġstory":9676,"Ġaler":9677,"ĠMein":9678,"ĠInde":9679,"Ġadopt":9680,"ĠKÃ¼rz":9681,"ĠAnzeigen":9682,"Ġcontract":9683,"Ġclut":9684,"ĠLenovo":9685,"Ġbypass":9686,"ernel":9687,"glichen":9688,"Which":9689,"short":9690,"Ġcontained":9691,"Ġmisle":9692,"Ġdropped":9693,"ĠBestÃ¤tig":9694,"Ġcarried":9695,"ĠBitbucket":9696,"Ġanti":9697,"ĠFunktionalitÃ¤ten":9698,"Ġcomparison":9699,"ploys":9700,"Ġerwarteten":9701,"ĠDatenquellen":9702,"Ġgrundleg":9703,"Of":9704,"di":9705,"gig":9706,"uments":9707,"ziale":9708,"âĻ¦":9709,"Ġbeein":9710,"Ġoffen":9711,"Ġunw":9712,"Ġgut":9713,"ĠTV":9714,"ĠAss":9715,"ĠAND":9716,"Ġrough":9717,"Ġrender":9718,"ĠBl":9719,"ĠEchtzeit":9720,"Ġumgesetzt":9721,"ĠVista":9722,"Ġnews":9723,"Ġgreater":9724,"Ġmodules":9725,"available":9726,"Ġ51":9727,"Ġpassendes":9728,"Ġexped":9729,"Ġdefinitions":9730,"Ġoverloads":9731,"Ġmentioning":9732,"Ġtailor":9733,"Ġimportantly":9734,"ĠTried":9735,"Ġlangsame":9736,"ĠRegular":9737,"2003":9738,"ĠResetting":9739,"ĠLogin":9740,"Ġbekannt":9741,"Ġmisalignment":9742,"Ġcriticism":9743,"DPR":9744,"etreff":9745,"Ġintuitive":9746,"Ġaffil":9747,"ĠunverzÃ¼glich":9748,"Ġunapproved":9749,"Ġvoice":9750,"Ġprerequis":9751,"54":9752,"AI":9753,"besch":9754,"iends":9755,"ns":9756,"zifikationen":9757,"istet":9758,"Ġanomal":9759,"leich":9760,"ĠSache":9761,"ĠSearch":9762,"ĠTP":9763,"ĠTreiber":9764,"agrant":9765,"Ġrad":9766,"Ġstance":9767,"Ġenjoy":9768,"ĠElect":9769,"Ġshall":9770,"Ġchances":9771,"Ġundertaken":9772,"Ġaufmerksam":9773,"Ġobwohl":9774,"fficial":9775,"Ġreadability":9776,"Ġvisiting":9777,"Ġapart":9778,"Web":9779,"Ġneuer":9780,"Ġbrings":9781,"ĠNetzwerkkonfiguration":9782,"uppet":9783,"Community":9784,"asked":9785,"ĠEntschuldigung":9786,"Ġhundreds":9787,"ĠVerkauf":9788,"ĠNetzwerkeinstellungen":9789,"90":9790,"?).":9791,"hip":9792,"pha":9793,"Ġmotherboard":9794,"aning":9795,"ĠSeveral":9796,"Ġunfriendly":9797,"ĠDaniel":9798,"ĠThus":9799,"Ġsty":9800,"Ã¤te":9801,"ĠMay":9802,"Ġdeg":9803,"ĠVotes":9804,"ĠVerein":9805,"Ġrecall":9806,"schl":9807,"Ġemploys":9808,"ueless":9809,"Anweisungen":9810,"versorg":9811,"Prozess":9812,"ulnerabilit":9813,"ĠCheck":9814,"supported":9815,"Ġknowledgeable":9816,"Ġaiming":9817,"Ġdistingu":9818,"aschin":9819,"Ġincomplete":9820,"ĠDatenbankabfragen":9821,"OOOO":9822,"weiterung":9823,"Ġsatisfaction":9824,"ĠJohn":9825,"Ġantworten":9826,"ĠBerichter":9827,"Ġflooding":9828,"Encountering":9829,"ĠfrÃ¼h":9830,"Ġintrusion":9831,"Ġforever":9832,"\").":9833,"AR":9834,"EN":9835,"GPT":9836,"PC":9837,"fassen":9838,"must":9839,"oT":9840,"wa":9841,"erved":9842,"Ġsample":9843,"ombin":9844,"ĠAS":9845,"osx":9846,"Ġstale":9847,"Ã¤u":9848,"ĠInd":9849,"ĠOptimierungs":9850,"ĠGDPR":9851,"ĠVerm":9852,"Ġoverly":9853,"Ġgold":9854,"Ġpartition":9855,"Ġmodern":9856,"Ġcreates":9857,"Ġsaved":9858,"ĠErhalt":9859,"Ġdemand":9860,"although":9861,"Ġbehand":9862,"opefully":9863,"ĠMarkenentwicklung":9864,"likt":9865,"Ġ60":9866,"ĠVersch":9867,"Ġangewend":9868,"vision":9869,"Ġassumed":9870,"Ġexceptions":9871,"ĠBenutzererfahrung":9872,"ĠPrior":9873,"nov":9874,"ustrator":9875,"Projektmanagementplattform":9876,"athy":9877,"Ġplugin":9878,"ĠProgramm":9879,"ĠJoel":9880,"Ġpenalt":9881,"Ġcomplicated":9882,"ĠOptimization":9883,"Ġcontributors":9884,"ĠHTTP":9885,"ĠProblembehebung":9886,"Ġpanels":9887,"Ġvereinfachen":9888,"âĢĥâĢĥ":9889,"Well":9890,"conf":9891,"durch":9892,"fill":9893,"maybe":9894,"networking":9895,"pip":9896,"uz":9897,"Ġtiers":9898,"isiert":9899,"Ġpubl":9900,"edback":9901,"ĠIll":9902,"Ġhits":9903,"ĠAmazon":9904,"ife":9905,"ecure":9906,"Ġsequ":9907,"Ġsegment":9908,"Ġspons":9909,"ussions":9910,"Ġproblematic":9911,"Ġcallback":9912,"ibrate":9913,"Ġinterf":9914,"Ġ23":9915,"Ġprocessor":9916,"001":9917,"Ġconnectors":9918,"inute":9919,"Ġendless":9920,"Ġeth":9921,"ĠAktivitÃ¤ten":9922,"Ġacknowledging":9923,"bersicht":9924,"Ġshortcut":9925,"Ġhover":9926,"Ġbrowsing":9927,"ĠDatenverletzung":9928,"ĠDev":9929,"Ġencouraging":9930,"Ġcompromising":9931,"Ġlacks":9932,"Ġslot":9933,"Ġmeaningful":9934,"without":9935,"ership":9936,"Ġfields":9937,"ĠPersonal":9938,"Ġoutputs":9939,"Ġsatisfactory":9940,"ĠAudits":9941,"Ġmassive":9942,"ĠLÃ¶sungsans":9943,"Ġbudgets":9944,"Ġskalierbaren":9945,"ĠSynonym":9946,"ĠFunktionalitÃ¤t":9947,"Ġpermanent":9948,"Ġangemessene":9949,"Ġspreadsheet":9950,"Ġthousands":9951,"gestellten":9952,"anticipated":9953,"Personally":9954,"Ġelaborate":9955,"46":9956,"?\",":9957,"EDIT":9958,"Must":9959,"UI":9960,"pecially":9961,"since":9962,"esen":9963,"Ġsix":9964,"reation":9965,"Ġcat":9966,"Ġblo":9967,"Ġminute":9968,"Ġfilled":9969,"ĠSomething":9970,"Ġrele":9971,"Ġassure":9972,"ptions":9973,"theit":9974,"Ġverd":9975,"Ġersten":9976,"ausch":9977,"Ġfehl":9978,"Ġoffic":9979,"rauch":9980,"Ġwanting":9981,"ĠSoftwareaktualisierungen":9982,"Ġroles":9983,"ĠSystemprotokolle":9984,"avor":9985,"fordern":9986,"ĠEspecially":9987,"Ġblank":9988,"leiten":9989,"Ġpreferences":9990,"werkzeug":9991,"Ġgeeigneter":9992,"ĠClosed":9993,"Ġdescriptions":9994,"Ã¤hlen":9995,"Ġdaher":9996,"Ġkonk":9997,"Ġindividuell":9998,"ĠWithout":9999,"worth":10000,"ĠActually":10001,"Tags":10002,"Ġbeantworten":10003,"Ġskalierbare":10004,"ĠFortschritt":10005,"ĠÃ¼berwachen":10006,"Ġmorning":10007,"ĠIdentifizierung":10008,"ĠStoÃŁ":10009,"ĠDiagnose":10010,"Ġfavourite":10011,"Ġclutter":10012,"Ġdegree":10013,"?](":10014,"Comp":10015,"Fehler":10016,"LE":10017,"card":10018,"fills":10019,"papers":10020,"tip":10021,"ziehen":10022,"Ġdiv":10023,"Ġpir":10024,"aling":10025,"Ġinbox":10026,"ural":10027,"ĠAM":10028,"irable":10029,"istory":10030,"Ã¤mp":10031,"ĠMultiple":10032,"Ġadobe":10033,"ĠKlinik":10034,"ĠOk":10035,"Ġtimest":10036,"ĠLocal":10037,"Ġschlage":10038,"ĠZwischen":10039,"Ġrepair":10040,"ulti":10041,"ĠUnstimmigkeiten":10042,"ĠWhether":10043,"asting":10044,"aScript":10045,"Ã¤tzen":10046,"ĠRead":10047,"Ġbackend":10048,"ĠForm":10049,"Ġeverybody":10050,"aufenden":10051,"ielt":10052,"Analyse":10053,"Ġseverity":10054,"exe":10055,"Ġagreement":10056,"Ġdeals":10057,"ĠZielp":10058,"Ġportal":10059,"ĠVerbindungen":10060,"Ġvirtualization":10061,"ĠArbeitsablÃ¤ufe":10062,"ĠregelmÃ¤ÃŁig":10063,"ĠFehlernachrichten":10064,"holen":10065,"ĠBran":10066,"Ġinterpretation":10067,"ĠRisiko":10068,"Ġpipeline":10069,"Ġhistorical":10070,"sync":10071,"Ġsozialen":10072,"ĠDatenvisualisierung":10073,"ĠStoÃŁzeiten":10074,"95":10075,">?":10076,"Funktionen":10077,"Over":10078,"Several":10079,"maÃŁ":10080,"wiki":10081,"ativen":10082,"Ġbequem":10083,"Ġevol":10084,"Ġprove":10085,"verstoÃŁ":10086,"ĠALL":10087,"umes":10088,"Ġabusive":10089,"ĠMSE":10090,"inding":10091,"ĠFl":10092,"Ġserial":10093,"standards":10094,"ĠSystemkonfiguration":10095,"Ġinsight":10096,"Ġdemands":10097,"Ġorganizations":10098,"Ġsubjects":10099,"Ġausge":10100,"Ġexpecting":10101,"Ġtransl":10102,"Ġlargely":10103,"ĠAnwendungs":10104,"ĠWebApps":10105,"ĠPrest":10106,"ĠPerformance":10107,"konsist":10108,"Ġproduce":10109,"Ġrespective":10110,"Ġphrased":10111,"ĠWerbung":10112,"Ġbothered":10113,"geschnitten":10114,"mittedly":10115,"Ġdistinct":10116,"ĠGenerally":10117,"Ġpermanently":10118,"Ġmisunderstanding":10119,"Workflows":10120,"Ġcorrespond":10121,"virtual":10122,"Gener":10123,"aq":10124,"aug":10125,"gments":10126,"wing":10127,"Ġtons":10128,"Ġthumb":10129,"itively":10130,"Ġansp":10131,"anÃ¤":10132,"Ġunivers":10133,"Ġunanticipated":10134,"terey":10135,"ĠDavid":10136,"ires":10137,"osit":10138,"aded":10139,"Ġmodem":10140,"ierenden":10141,"Ġspaces":10142,"ĠKVM":10143,"ĠNatur":10144,"ĠbestÃ¤ndig":10145,"ĠSchul":10146,"Ġemails":10147,"ĠSystemneustarts":10148,"ichtlinien":10149,"Ġaktiv":10150,"Ġdocuments":10151,"ĠShare":10152,"iction":10153,"Ġstring":10154,"irma":10155,"Ġbrowse":10156,"Ask":10157,"Ġobserv":10158,"Ġrefining":10159,"Ġinconsistency":10160,"ymptome":10161,"ServerFault":10162,"onestly":10163,"ĠDatenschutzverletzung":10164,"Ġdiagnostic":10165,"ĠMonterey":10166,"Ġreliability":10167,"Ġpenal":10168,"Ġnavigate":10169,"chaften":10170,"Ġdetermined":10171,"Ġcoding":10172,"vmware":10173,"ĠVisual":10174,"Ġagreed":10175,"ĠBislang":10176,"ĠOrganisation":10177,"Ġangepasste":10178,"Ġentdeckt":10179,"Ġhypothetical":10180,"AL":10181,"Mac":10182,"faden":10183,"kann":10184,"lar":10185,"âģ":10186,"Ġcables":10187,"Ġbanner":10188,"Ġhence":10189,"ĠTake":10190,"forward":10191,"Ġzugeschnitten":10192,"ulated":10193,"Ġlets":10194,"Ġincent":10195,"Ġreconnect":10196,"ackintosh":10197,"scha":10198,"Ġrelation":10199,"Ġpersistent":10200,"Ġ300":10201,"Ġ360":10202,"Ġexistence":10203,"Ġvisited":10204,"Ġplacements":10205,"Ġcorrected":10206,"Ġaccum":10207,"Ġihr":10208,"Ġ48":10209,"ĠSpam":10210,"haft":10211,"Ġacknowledged":10212,"spam":10213,"Ġloads":10214,"ĠScreen":10215,"Ġattracting":10216,"Integrationen":10217,"Ġconsistently":10218,"Ġrevise":10219,"Support":10220,"ĠWachstums":10221,"Ġpicked":10222,"ĠChatGPT":10223,"ĠMarktwachstum":10224,"Ġunautorisierte":10225,"Ġharmful":10226,"Ġsnark":10227,"Ġfalse":10228,"Ġrecalibrate":10229,"Ġreibungslosen":10230,"Ġreferenced":10231,"Bericht":10232,"Ġmangelnde":10233,"Ġaccidentally":10234,"ĠFehlerbehebungsmaÃŁnahmen":10235,"zeichn":10236,"hinweis":10237,"Ġbemerkt":10238,"Ġprerequisites":10239,"ĠIllustrator":10240,"98":10241,"AS":10242,"Dashboard":10243,"Most":10244,"Part":10245,"mal":10246,"oke":10247,"richten":10248,"will":10249,"Ġsister":10250,"Ġwohl":10251,"Ġhouse":10252,"estr":10253,"ĠSymptome":10254,"Ġelements":10255,"Ġstar":10256,"Ġabst":10257,"gemÃ¤ÃŁ":10258,"ĠBI":10259,"ĠBro":10260,"Ġspir":10261,"ĠVBA":10262,"Ġclueless":10263,"Ġspecified":10264,"itional":10265,"Ġquotes":10266,"Ġletting":10267,"aktor":10268,"Ġbesuchen":10269,"Ġmodifying":10270,"Ġreadable":10271,"ĠAnrufzeit":10272,"ĠEinstieg":10273,"ĠvorÃ¼ber":10274,"Ġspammers":10275,"arbeitungs":10276,"ĠAbout":10277,"Ġ2016":10278,"Ġeventuell":10279,"Unsere":10280,"Ġrequiring":10281,"Ġholding":10282,"Ġspecialized":10283,"ĠRechnungsstellung":10284,"Ġoverlapping":10285,"Ġbeschreiben":10286,"ĠEditor":10287,"Ġpurchase":10288,"flags":10289,"Ġdestroy":10290,"ĠBeteiligungs":10291,"Ġappeared":10292,"Ġbattery":10293,"aShop":10294,"ĠverdÃ¤ch":10295,"ĠPrestaShop":10296,"Maybe":10297,"hat":10298,"kapaz":10299,"main":10300,"top":10301,"type":10302,"vanced":10303,"Ġcentral":10304,"Ġinnov":10305,"Ġhor":10306,"Ġhide":10307,"Ġhint":10308,"Ġunix":10309,"ambig":10310,"Ġration":10311,"izieren":10312,"ĠCase":10313,"Ġleisten":10314,"Ġteach":10315,"Ġwert":10316,"...]":10317,"aktionen":10318,"gets":10319,"Ġinvite":10320,"ashion":10321,"except":10322,"iginal":10323,"Ġsignificance":10324,"gangen":10325,"ĠlÃ¶schen":10326,"ĠAktualisieren":10327,"Ġmerits":10328,"ĠÃľberlastung":10329,"Ġturning":10330,"unterschiede":10331,"roller":10332,"Ġbewer":10333,"Ġmomentan":10334,"Ġheader":10335,"ĠAgile":10336,"ĠMedical":10337,"ĠMedizin":10338,"konflikten":10339,"produkten":10340,"ĠAbsturz":10341,"ĠConsidering":10342,"Ġblieb":10343,"Ġcontrast":10344,"Ġeffektivere":10345,"ĠTLS":10346,"Ġbandwidth":10347,"Ġanticipated":10348,"ĠSDK":10349,"Ġbackticks":10350,"09":10351,"Moder":10352,"Ob":10353,"aper":10354,"domain":10355,"nKÃ¶nnten":10356,"pflich":10357,"Ġton":10358,"reated":10359,"entlich":10360,"ĠSwitch":10361,"lders":10362,"ĠAble":10363,"Ġstagn":10364,"Ġenfor":10365,"ftopic":10366,"ĠCentral":10367,"ĠMem":10368,"ander":10369,"Ġdegrad":10370,"ĠVoting":10371,"Ġchose":10372,"Ġsolid":10373,"Ġschw":10374,"tools":10375,"ultate":10376,"Ġjustified":10377,"Ġrestoring":10378,"frist":10379,"ĠInvestigating":10380,"Ġfixes":10381,"Ġgroups":10382,"Ġcolum":10383,"Ġpreserve":10384,"ĠCommerce":10385,"Ġadminister":10386,"Ġclarifying":10387,"Ġcontinuous":10388,"fluous":10389,"unterbrechungen":10390,"Ġinvoicing":10391,"Ġsector":10392,"Ġsuperfluous":10393,"bereich":10394,"ĠKey":10395,"Ġrepeat":10396,"ĠIDE":10397,"Ġfalsch":10398,"Ġworkarounds":10399,"monitor":10400,"Ġseverely":10401,"autom":10402,"Ġadvantages":10403,"Ġrepeatedly":10404,"Version":10405,"Scans":10406,"ĠprÃ¤zis":10407,"Ġtweak":10408,"technical":10409,"Ġplagiarism":10410,"ĠSurface":10411,"ĠLearn":10412,"\":":10413,"fers":10414,"fÃ¤h":10415,"spr":10416,"stellungs":10417,"ĠtÃ¤":10418,"ercial":10419,"alle":10420,"etch":10421,"Ġnight":10422,"Ġunrespons":10423,"Ġunzureich":10424,"Ġforced":10425,"ams":10426,"ĠDO":10427,"Ã¶tz":10428,"ists":10429,"Ġcomb":10430,"Ġabgest":10431,"Ġdisabled":10432,"Ġanswerers":10433,"romitt":10434,"Ġposters":10435,"lowing":10436,"ĠjÃ¼n":10437,"ĠVery":10438,"Ġguest":10439,"ruction":10440,"compass":10441,"schritte":10442,"Ġarise":10443,"weich":10444,"ĠTele":10445,"whel":10446,"Ġverbinden":10447,"Ġrealized":10448,"ĠgewÃ¤hr":10449,"Ġinitiate":10450,"Ġcustomize":10451,"Ġcompliant":10452,"ĠRÃ¼ckruf":10453,"ployment":10454,"Ġexamined":10455,"Ġexplanations":10456,"ĠScreenshot":10457,"Ġdisplaying":10458,"Ġdisagre":10459,"ĠFeedback":10460,"ĠKundendienstteam":10461,"luste":10462,"ĠSeems":10463,"Ġrestriction":10464,"ĠWorkflow":10465,"Umfeld":10466,"Shell":10467,"Ġbootable":10468,"ĠEffektivitÃ¤t":10469,"Ġconfigured":10470,"Ġstrictly":10471,"Ġcompetition":10472,"ĠZugriffssteuerung":10473,"ĠBeispiel":10474,"Ġdeeper":10475,"yyyy":10476,"Ġjudgement":10477,"Ġreconfiguring":10478,"ĠGesamtleistung":10479,"Ġbestimmte":10480,"lÃ¤rung":10481,"points":10482,"Ġverwalten":10483,"Ġweshalb":10484,"dikt":10485,"durchschnitt":10486,"03":10487,"Pad":10488,"US":10489,"core":10490,"iations":10491,"kun":10492,"rong":10493,"zust":10494,"onom":10495,"oute":10496,"Ġanpass":10497,"arte":10498,"ĠWerkzeug":10499,"ĠApril":10500,"Ġsoziale":10501,"ĠUs":10502,"ĠAnn":10503,"Ġgem":10504,"Ġclue":10505,"Ġcluster":10506,"Ġquant":10507,"Ġnewb":10508,"Ġfirms":10509,"rypt":10510,"Ġinspect":10511,"endencies":10512,"Ġincred":10513,"Ġfriend":10514,"Ġ80":10515,"irectory":10516,"eek":10517,"fallen":10518,"they":10519,"Ġproposing":10520,"Ġseamlessly":10521,"Ġresponded":10522,"Ġberaten":10523,"Ġreplacement":10524,"Ġmaximum":10525,"ĠBerichts":10526,"ĠExamples":10527,"Ġeducation":10528,"ĠgroÃŁe":10529,"Ġindexing":10530,"ĠVirtualBox":10531,"ĠLaptop":10532,"Ġconsultation":10533,"Ġinfluence":10534,"kanntheit":10535,"ĠAbleton":10536,"ĠjÃ¼ng":10537,"kunft":10538,"EST":10539,"Liebe":10540,"betr":10541,"clipse":10542,"gl":10543,"gabe":10544,"mote":10545,"paste":10546,"tle":10547,"chten":10548,"ĠhÃ¶ch":10549,"Ġhammer":10550,"Ġuninter":10551,"Ġland":10552,"verwalt":10553,"ĠTre":10554,"ĠAccording":10555,"Ġkernel":10556,"umps":10557,"ageable":10558,"endar":10559,"ĠProduct":10560,"Ġtrad":10561,"Ġcompare":10562,"Ġunsatisf":10563,"sein":10564,"ĠSofortige":10565,"Ġ21":10566,"Ġaccessed":10567,"atoren":10568,"Ġunterdurchschnitt":10569,"Ġbreaking":10570,"ĠUmfang":10571,"Ġanalyses":10572,"avil":10573,"need":10574,"tected":10575,"Integr":10576,"ĠMetro":10577,"liver":10578,"backup":10579,"ĠNothing":10580,"2011":10581,"ĠdurchgefÃ¼hrte":10582,"Ġauthors":10583,"Ġskill":10584,"ĠerhÃ¶ht":10585,"Ġrooms":10586,"ĠZahlungsmethoden":10587,"Dokumentation":10588,"scans":10589,"ĠZoom":10590,"Ġwichtige":10591,"marks":10592,"Ġfrustration":10593,"Ġvendors":10594,"uthentifizierung":10595,"okub":10596,"ĠprÃ¤dikt":10597,"Ġoppos":10598,"achrichtig":10599,"Ġangeboten":10600,"Ġfunktionieren":10601,"Ġprepared":10602,"Ġnahtlose":10603,"ĠvollstÃ¤ndig":10604,"ĠJavaScript":10605,"Ġindependent":10606,"Ġunregistered":10607,"ĠgeschÃ¤tzt":10608,"ĠPractices":10609,"Ġofficially":10610,"Ġrationale":10611,"76":10612,"Optimierungs":10613,"firma":10614,"gers":10615,"ipl":10616,"mar":10617,"well":10618,"wusst":10619,"Ġ}":10620,"ery":10621,"esher":10622,"anwhile":10623,"Ġfashion":10624,"ĠIoT":10625,"Ġproactive":10626,"Ġlosing":10627,"ĠTar":10628,"ĠTra":10629,"Ġconsole":10630,"Ġneuen":10631,"umably":10632,"ĠUP":10633,"ĠMoment":10634,"Ġverfolgen":10635,"ĠIntel":10636,"html":10637,"thernet":10638,"ivile":10639,"ĠplÃ¶tz":10640,"ultane":10641,"bemÃ¼hungen":10642,"Ġalles":10643,"Ġjustify":10644,"Ã¼berwachung":10645,"ikes":10646,"ĠLÃ¶schen":10647,"ĠAdding":10648,"Ġexplo":10649,"ĠSicherheitsprÃ¼fungen":10650,"ĠFehlerhinweis":10651,"prÃ¼fen":10652,"expl":10653,"email":10654,"Ġcolors":10655,"auigkeit":10656,"Ġputs":10657,"Ġglance":10658,"Ġcareer":10659,"ĠInterested":10660,"ĠdafÃ¼r":10661,"fortunate":10662,"Ġreducing":10663,"ĠDesign":10664,"Ġhinder":10665,"Ġconsistency":10666,"ĠGesundheitsdienstleisters":10667,"common":10668,"Datenanalyse":10669,"design":10670,"hÃ¤ngen":10671,"Ġreproduce":10672,"ĠHDD":10673,"alytik":10674,"CAD":10675,"ĠSkalierung":10676,"ĠDamit":10677,"Ġhorrible":10678,"Ġintellig":10679,"ĠgewÃ¤hrle":10680,"okubai":10681,"51":10682,"58":10683,"By":10684,"Ġwane":10685,"Ġmith":10686,"ette":10687,"Ġreword":10688,"Ġrend":10689,"Ġundo":10690,"grades":10691,"Ġextend":10692,"illa":10693,"ourne":10694,"ierend":10695,"ierende":10696,"Ġsegments":10697,"iesen":10698,"Ġacron":10699,"ĠGen":10700,"Ġpermitted":10701,"Ġremed":10702,"aktion":10703,"Ġlogical":10704,"gleich":10705,"Ġfresher":10706,"ĠMarkenprÃ¤senz":10707,"ĠzusÃ¤tzlichen":10708,"ĠzurÃ¼ckgefÃ¼hrt":10709,"ĠClosing":10710,"ĠLeistungen":10711,"Ġcycled":10712,"Ġguessing":10713,"Ġdeploying":10714,"ĠEditing":10715,"ĠComponent":10716,"ĠiPad":10717,"Ġextensions":10718,"Ġwidely":10719,"Ġzeitna":10720,"Ġnavigation":10721,"ĠAnpassungsoptionen":10722,"âĶĢâĶĢâĶĢâĶĢâĶĢâĶĢâĶĢâĶĢâĶĢâĶĢâĶĢâĶĢâĶĢâĶĢâĶĢâĶĢ":10723,"ĠMarkenbekanntheit":10724,"Ġjobs":10725,"Ġeliminate":10726,"Ġsucceeded":10727,"ĠKommunikation":10728,"OP":10729,"fin":10730,"first":10731,"kbd":10732,"optim":10733,"win":10734,"would":10735,"ximate":10736,"yes":10737,"error":10738,"Ġdumb":10739,"isierter":10740,"Ġmus":10741,"anity":10742,"ilst":10743,"Ġnamed":10744,"stream":10745,"Ġofftopic":10746,"Ġunfortunate":10747,"ĠWor":10748,"ĠDell":10749,"Ġround":10750,"adly":10751,"Ġstage":10752,"illion":10753,"Ġimager":10754,"ĠEU":10755,"Ġintegrates":10756,"ĠHi":10757,"Ġplanned":10758,"cken":10759,"oodle":10760,"ĠSoftwarefehler":10761,"ĠServerkapaz":10762,"Ġ34":10763,"ĠBeing":10764,"Angriff":10765,"Ġcorrections":10766,"example":10767,"Ġcomplaining":10768,"answerable":10769,"installing":10770,"reng":10771,"clean":10772,"Ġvideos":10773,"fficiencies":10774,"ĠImplementierungs":10775,"Ġrobuster":10776,"Ġlanguages":10777,"ĠTechnology":10778,"Ġsentences":10779,"position":10780,"Ġcurios":10781,"ĠOften":10782,"SUS":10783,"168":10784,"Ġ;;":10785,"Ġexcuse":10786,"Ġcodes":10787,"Ġcookies":10788,"Ġerweiterte":10789,"ĠAutoCAD":10790,"ĠProjekte":10791,"ĠBlackboard":10792,"âľĹ":10793,"ĠVideo":10794,"ĠBerichterstattung":10795,"ĠZwischenzeit":10796,"ĠgewÃ¤hrleistet":10797,"Ġzeitnahe":10798,"Ġimagery":10799,"bru":10800,"nIn":10801,"erichtet":10802,"ĠIE":10803,"asking":10804,"unte":10805,"Ġgoog":10806,"ided":10807,"imer":10808,"versuch":10809,"erecht":10810,"Ġencompass":10811,"Ġdismiss":10812,"ĠMigr":10813,"ĠLook":10814,"ĠNone":10815,"recommend":10816,"ĠGUI":10817,"ĠVerlust":10818,"Ġpert":10819,"Ġperipher":10820,"prache":10821,"ungsgemÃ¤ÃŁ":10822,"Ġnewcom":10823,"ikatoren":10824,"Ġrelates":10825,"Ġbrands":10826,"Ġapproximate":10827,"Ġsimultane":10828,"etzwerk":10829,"Ġreferred":10830,"Ġchatroom":10831,"ĠTelefonan":10832,"zugen":10833,"ĠNobody":10834,"fortable":10835,"Ġbislang":10836,"Ġscrew":10837,"engine":10838,"Ġignor":10839,"Ġvolumes":10840,"Ġ95":10841,"Specifically":10842,"Ġlocking":10843,"zialisten":10844,"Ġcarry":10845,"Ġmeinem":10846,"ĠPowerShell":10847,"Ġdeadlines":10848,"ĠStandards":10849,"Ġreverting":10850,"ĠEdits":10851,"DMA":10852,"ĠVMware":10853,"Ġdetermining":10854,"ĠAblauf":10855,"Ġcookie":10856,"Perhaps":10857,"Ġstruggling":10858,"Ġfeasibility":10859,"thanks":10860,"Ġreveal":10861,"Ġvorhanden":10862,"Ġalerts":10863,"wahr":10864,"athya":10865,"Ġmithilfe":10866,"Bot":10867,"Port":10868,"Sk":10869,"Sometimes":10870,"connect":10871,"kampagnen":10872,"ris":10873,"ties":10874,"zule":10875,"Ã©":10876,"Ġip":10877,"Ġtang":10878,"erc":10879,"Ġbank":10880,"Ġfost":10881,"rose":10882,"Ġnons":10883,"urb":10884,"otic":10885,"ichts":10886,"Ġcongest":10887,"sually":10888,"ĠCrash":10889,"ĠMoodle":10890,"Ġversuchen":10891,"Ġsehen":10892,"ĠEclipse":10893,"Ġtries":10894,"ĠRichtlinien":10895,"Ġsolicit":10896,"duplicate":10897,"esehen":10898,"Ġinteractions":10899,"ĠVerstÃ¶ÃŁe":10900,"Ġquoted":10901,"Ġparties":10902,"Ġpartial":10903,"Ġmoderating":10904,"Ġaggress":10905,"apache":10906,"bracht":10907,"Ġtypo":10908,"Ġcolle":10909,"Ġtargets":10910,"Ġangeben":10911,"tract":10912,"Ġadministrative":10913,"stermin":10914,"Ġbiggest":10915,"Ġplayer":10916,"2007":10917,"ĠNOD":10918,"ĠReviewing":10919,"Ġdirekt":10920,"------------":10921,"Ġrefreshed":10922,"Ġbegrenz":10923,"Ġmargin":10924,"Ġreferencing":10925,"ION":10926,"Ġlibrary":10927,"Ġcompiled":10928,"ĠBigCommerce":10929,"Ġrecalibrating":10930,"ĠWartungs":10931,"Ġcongestion":10932,"<<":10933,"Dienst":10934,"Good":10935,"auss":10936,"cern":10937,"please":10938,"Ġciv":10939,"Ġposing":10940,"chat":10941,"Ġinsist":10942,"Ġrely":10943,"unction":10944,"style":10945,"streng":10946,"Ġgaining":10947,"olve":10948,"Ġhacking":10949,"Ġsum":10950,"umente":10951,"ĠCI":10952,"ĠFF":10953,"ĠProbably":10954,"ĠOct":10955,"ĠOliver":10956,"Ġgepl":10957,"Ġchart":10958,"ĠNever":10959,"ĠGmail":10960,"ĠToday":10961,"elled":10962,"Ġ[...]":10963,"ĠVerarbeitung":10964,"Ġsteady":10965,"Ġprice":10966,"Ġpreis":10967,"ĠRemo":10968,"ĠZeitra":10969,"Ġeffects":10970,"medizin":10971,"forderung":10972,"ĠErweiterung":10973,"heiten":10974,"Ġcorrective":10975,"Ġwebin":10976,"Ġliegen":10977,"fehlern":10978,"Ġports":10979,"Ġhinweisen":10980,"Ġskip":10981,"ĠAnsible":10982,"Ġheads":10983,"Ġfacebook":10984,"posting":10985,"Ġaufgetretenen":10986,"ĠDatensperre":10987,"Ġfrustrated":10988,"Ġzeigen":10989,"Ġheavy":10990,"ĠÃ¼berwacht":10991,"enntnisse":10992,"Ġcontroller":10993,"kompatibilitÃ¤t":10994,"Ġmicroservices":10995,"Analysen":10996,"Ġanomalies":10997,"Ġangewendet":10998,"aught":10999,"Ġopposite":11000,"Konf":11001,"Sicherheit":11002,"bote":11003,"cap":11004,"pin":11005,"zieren":11006,"encing":11007,"inge":11008,"Ġpose":11009,"chtig":11010,"ros":11011,"ica":11012,"ĠSep":11013,"Ġreper":11014,"start":11015,"Ġpros":11016,"Ġproof":11017,"urd":11018,"Ġunf":11019,"igten":11020,"ĠDue":11021,"ailing":11022,"ĠThough":11023,"ĠThings":11024,"Ġstatt":11025,"Ġsem":11026,"Ġerr":11027,"Ġerw":11028,"ĠVal":11029,"Ġtrilogy":11030,"plays":11031,"ĠRol":11032,"ĠGet":11033,"ĠGPU":11034,"ĠDatenzugriff":11035,"Ġpertain":11036,"Ġimproper":11037,"Ġmessen":11038,"Ġprevents":11039,"Ġ2022":11040,"Ġfriends":11041,"ĠMarkenagentur":11042,"Ġblogs":11043,"ĠunterstÃ¼tze":11044,"ĠKonferenz":11045,"flash":11046,"ĠArch":11047,"SET":11048,"Ġmism":11049,"ĠSchutzmaÃŁnahmen":11050,"ĠAnyway":11051,"ĠMeanwhile":11052,"Ġvolunte":11053,"Ġdeployed":11054,"Ġpublicly":11055,"ĠApologies":11056,"ĠZusÃ¤tzliche":11057,"Beim":11058,"ĠEverything":11059,"Ġweakness":11060,"Ġpurchases":11061,"Ġcloser":11062,"Ġbevorzug":11063,"Ġfunktioniert":11064,"Ġrenamed":11065,"Additionally":11066,"Ġcheap":11067,"Ġlibraries":11068,"Reporting":11069,"ĠEreignisse":11070,"Ġinsert":11071,"Konto":11072,"Ġprobable":11073,"leaner":11074,"Ġbesonders":11075,"Ġmisleading":11076,"Ġexpedite":11077,"Ġdistinguish":11078,"ository":11079,"Ġschwache":11080,"Betreff":11081,"Con":11082,"Google":11083,"Wer":11084,"bur":11085,"funktion":11086,"lad":11087,"nThe":11088,"rest":11089,"real":11090,"Ġdistr":11091,"Ġtheoret":11092,"Ġfrow":11093,"Ġhall":11094,"iling":11095,"unless":11096,"ichern":11097,"ĠAD":11098,"Ġconvention":11099,"Ġproven":11100,"ĠMX":11101,"ĠInfl":11102,"ĠBald":11103,"ĠESET":11104,"Ġerf":11105,"Ġerreich":11106,"Ġshor":11107,"ĠKnow":11108,"ĠVagrant":11109,"ĠHier":11110,"ĠLooks":11111,"ogames":11112,"Ġunderway":11113,"standard":11114,"urround":11115,"Ġletter":11116,"Ġaccessibility":11117,"ĠUntersuchen":11118,"llo":11119,"Ġbench":11120,"ĠRemove":11121,"atty":11122,"Ġsaving":11123,"Ġpersonnel":11124,"Ġremained":11125,"Ġgranted":11126,"Ġarrive":11127,"Ġcontribution":11128,"nIch":11129,"Ġworthwhile":11130,"Ġsending":11131,"Ġhostile":11132,"ĠAnyone":11133,"iversary":11134,"Ġalternate":11135,"Ġestimate":11136,"preview":11137,"ĠRechnungsstellungs":11138,"ĠErgebnissen":11139,"Ġsufficiently":11140,"aterial":11141,"Ġrandomly":11142,"Ġbeobachten":11143,"Ġzusammenzu":11144,"ĠBerichte":11145,"Charm":11146,"ĠZugangssteuer":11147,"ĠgrÃ¼ndlich":11148,"Ġ27001":11149,"TFM":11150,"Ġmarking":11151,"Ġprepare":11152,"Ġfortschrittlicher":11153,"ĠSicherheitsvorfall":11154,"Ġreinfor":11155,"Ġmixed":11156,"Ġrestricted":11157,"Ġglobal":11158,"Ġincredibly":11159,"ĠTrello":11160,"Ġunsatisfactory":11161,"Ġpertinent":11162,"Ġwebinars":11163,"='":11164,"?(":11165,"Fe":11166,"Pl":11167,"ahren":11168,"bank":11169,"books":11170,"cp":11171,"cs":11172,"lim":11173,"loss":11174,"mern":11175,"nOur":11176,"ple":11177,"information":11178,"onse":11179,"atical":11180,"itative":11181,"Ġdah":11182,"Ġbooks":11183,"leep":11184,"esting":11185,"ĠShopping":11186,"stabilitÃ¤t":11187,"Ġgerecht":11188,"ĠTyp":11189,"Ġordn":11190,"ustausch":11191,"Ġerlit":11192,"Ġadhere":11193,"Ġtimelines":11194,"ĠRather":11195,"Ġoutlining":11196,"licit":11197,"stechn":11198,"process":11199,"Ġrestored":11200,"icken":11201,"Ġrelative":11202,"Ġhardly":11203,"Ġbesides":11204,"ĠKundenbindung":11205,"Ġhandy":11206,"Ġseinen":11207,"Ġcapital":11208,"ĠKrankenhausauft":11209,"application":11210,"Ġviewing":11211,"Ġsecured":11212,"Ġclarified":11213,"Ġdependencies":11214,"ĠDevelop":11215,"ĠConst":11216,"Ġkritisches":11217,"ĠPyCharm":11218,"ĠLogitech":11219,"Ġexcited":11220,"Ġcomponent":11221,"Ġeffizienter":11222,"DMI":11223,"acceptable":11224,"Ġassumptions":11225,"Ġnomination":11226,"Ġrewrite":11227,"ĠXYZ":11228,"ĠZurÃ¼cks":11229,"Ġdangerous":11230,"ĠprÃ¤zisere":11231,"ĠordnungsgemÃ¤ÃŁ":11232,"Ġerlitten":11233,"%.":11234,"31":11235,"ED":11236,"IR":11237,"Mod":11238,"correct":11239,"iest":11240,"kin":11241,"ĠÃ¤u":11242,"Ġtorrent":11243,"Ġarose":11244,"itches":11245,"Ġpull":11246,"ĠIvo":11247,"Ġreven":11248,"ilos":11249,"ĠAT":11250,"ecks":11251,"Ġvoter":11252,"ĠCurrent":11253,"ĠCrucial":11254,"Ġdisplays":11255,"ĠBeta":11256,"ĠProvid":11257,"ĠKombin":11258,"Ġgegen":11259,"Ġoutcome":11260,"Ġeinsetzen":11261,"Ġdesire":11262,"Ġaufzunehmen":11263,"Ã¼berprÃ¼fungen":11264,"Ġfreut":11265,"ĠUnterschiede":11266,"Ġoffline":11267,"Ġsets":11268,"iences":11269,"Ġpool":11270,"ressourcen":11271,"ĠĠĠĠĠĠĠĠĠĠĠĠĠ":11272,"zeigt":11273,"ĠDok":11274,"ĠAlready":11275,"Ġlisten":11276,"ĠEnh":11277,"Ġdemo":11278,"Ġdemograph":11279,"Ġstanding":11280,"Ġcolour":11281,"ĠAktionen":11282,"iquette":11283,"Ġglat":11284,"Ġveraltet":11285,"ĠArbeit":11286,"ĠWebmasters":11287,"Ġeingeh":11288,"Ġcrazy":11289,"Ġbeginner":11290,"ĠFinanzfirma":11291,"ĠSSH":11292,"Ġpopularity":11293,"Ġfiltering":11294,"Ġutility":11295,"ĠSpezifikationen":11296,"4567":11297,"tragung":11298,"Ġpushed":11299,"ĠAlgorithmus":11300,"Ġscenarios":11301,"Ġbevorzugen":11302,"ĠSimple":11303,"Ġbegegnen":11304,"ĠPlÃ¤ne":11305,"ĠVerkaufs":11306,"ĠSchulungen":11307,"Ġgemacht":11308,"Ġreperc":11309,"\"),":11310,"53":11311,"79":11312,"Bere":11313,"FC":11314,"URL":11315,"Was":11316,"bug":11317,"elect":11318,"hink":11319,"oper":11320,"shopping":11321,"Ġ`":11322,"release":11323,"Ġmaschin":11324,"Ġflo":11325,"Ġandroid":11326,"ett":11327,"ĠSimilar":11328,"Ġnative":11329,"Ġgering":11330,"imal":11331,"ushing":11332,"ĠDrop":11333,"hris":11334,"Ã¤re":11335,"Ġdisput":11336,"Ġupset":11337,"ĠFL":11338,"ĠFix":11339,"Ġtrat":11340,"udge":11341,"platform":11342,"ĠLate":11343,"Ġthemes":11344,"Ġscop":11345,"ungsprozess":11346,"Ġnewest":11347,"ahmen":11348,"Ġbenutzer":11349,"0000":11350,"ĠReopen":11351,"wenden":11352,"Ġdram":11353,"mpeg":11354,"Ġhandles":11355,"Ġstartup":11356,"ĠErstellung":11357,"ĠKron":11358,"Ġduplicated":11359,"Ġsurely":11360,"ĠVerbesserungs":11361,"Ġprogrammer":11362,"Ġlieber":11363,"fehlers":11364,"Ġresearching":11365,"valid":11366,"ginx":11367,"ĠFinally":11368,"Ġstreamlined":11369,"Ġinefficiencies":11370,"ĠSchwachstelle":11371,"geschlagen":11372,"Ġbumping":11373,"defin":11374,"ĠerhÃ¶hten":11375,"Ġqualify":11376,"Ġpressing":11377,"Ġunknown":11378,"ĠPartic":11379,"Ġtricky":11380,"Ġpunish":11381,"patched":11382,"Ġadapter":11383,"Ġworkstations":11384,"ĠBounty":11385,"ĠLadezeiten":11386,"ĠpersÃ¶nlich":11387,"Ġreconcile":11388,"Ġsummarize":11389,"Ġreversed":11390,"shortcut":11391,"ĠfrÃ¼hest":11392,"Ġcorresponding":11393,"Ġdegradation":11394,"Ġcuriosity":11395,"strengungen":11396,"Ġrepercussions":11397,"Dr":11398,"Draft":11399,"Meta":11400,"Office":11401,"customer":11402,"male":11403,"raten":11404,"vas":11405,"zing":11406,"erleb":11407,"Ġsurround":11408,"ref":11409,"itored":11410,"Ġcp":11411,"Ġchr":11412,"Ġcite":11413,"Ġcaching":11414,"Ġpair":11415,"Ġmut":11416,"Ġgent":11417,"mention":11418,"Ġrapid":11419,"Ġkilled":11420,"Ġdisallow":11421,"ĠOh":11422,"Ġwasting":11423,"ĠRufen":11424,"ĠHas":11425,"ĠListe":11426,"Ġcomposing":11427,"ĠGetting":11428,"Ġdigest":11429,"depth":11430,"behalten":11431,"Ġperception":11432,"reading":11433,"ahoo":11434,"apter":11435,"anners":11436,"ĠReport":11437,"losure":11438,"ĠSicherheitsproblem":11439,"ĠSicherheitsprÃ¼fung":11440,"Ġwhereas":11441,"Ã¤che":11442,"ĠEnsuring":11443,"Ġmonitored":11444,"Ġfrankly":11445,"ĠgrÃ¶ÃŁ":11446,"tokoll":11447,"ĠComms":11448,"ĠShouldn":11449,"ĠÃľbersicht":11450,"Ġpowerful":11451,"ĠPreliminary":11452,"ĠAnything":11453,"Ġcopyright":11454,"Ġnoticeable":11455,"Ġconsulting":11456,"Ġrevamp":11457,"Ġoccurring":11458,"perationen":11459,"ĠSpezialisten":11460,"ĠgewÃ¼nscht":11461,"productive":11462,"Ġentsprechend":11463,"ĠhÃ¤ufige":11464,"Erstellung":11465,"Ġreminder":11466,"Ġdisconnections":11467,"ĠNeuinstallation":11468,"ĠTechnologien":11469,"Ġkompromitt":11470,"Ã¤ndert":11471,"ulnerabilitÃ¤ten":11472,"worthy":11473,"ĠtÃ¤glichen":11474,"weichungen":11475,"ĠKombination":11476,"IX":11477,"ING":11478,"TW":11479,"better":11480,"mor":11481,"tl":11482,"ĠÂ":11483,"innen":11484,"Ġwater":11485,"oren":11486,"char":11487,"chestr":11488,"Ġmuss":11489,"asks":11490,"verlÃ¤ss":11491,"ĠASUS":11492,"ĠzÃ¼":11493,"than":11494,"ĠkÃ¤mp":11495,"ayer":11496,"ĠBo":11497,"Ġshar":11498,"ĠKÃ¼rze":11499,"servers":11500,"ĠHackintosh":11501,"abs":11502,"abst":11503,"ĠDatenintegrations":11504,"Ġarising":11505,"Ġexperiment":11506,"bled":11507,"Ġprocessed":11508,"llt":11509,"ĠSoftwareprodukte":11510,"oday":11511,"Ġblame":11512,"althcare":11513,"Ġphilos":11514,"Ġfresh":11515,"obile":11516,"ĠVerste":11517,"ĠApparently":11518,"ĠÃľberprÃ¼fen":11519,"ĠDatensÃ¤tze":11520,"Ġportfolios":11521,"Ġsorted":11522,"ĠSchutzes":11523,"Ġobjection":11524,"systeme":11525,"ĠBereiche":11526,"Ġexpanded":11527,"Ġentered":11528,"Ġpieces":11529,"Ġviable":11530,"Ġescalated":11531,"Chat":11532,"Ġdestination":11533,"Ġtrotzdem":11534,"ĠAuthentifizierung":11535,"ĠAbonnements":11536,"plÃ¤nen":11537,"ĠProfessionals":11538,"Ġpotenzieller":11539,"ĠThinkPad":11540,"arbage":11541,"punkte":11542,"ĠhÃ¶flich":11543,"Ġblatantly":11544,"personal":11545,"ĠKÃ¼rzlich":11546,"ĠPrioritÃ¤t":11547,"zeichnungen":11548,"Ġdahinter":11549,"08":11550,"Dienste":11551,"Every":11552,"Let":11553,"TB":11554,"Today":11555,"gel":11556,"who":11557,"Ġ..":11558,"Ġcent":11559,"Ġbits":11560,"ests":11561,"ĠSame":11562,"ĠPar":11563,"ĠDM":11564,"ĠDenn":11565,"Ġstays":11566,"Ġnoticing":11567,"ĠCSS":11568,"ĠverzÃ¶ger":11569,"Ġseit":11570,"bericht":11571,"ĠRend":11572,"ĠRahmen":11573,"Ġtimeout":11574,"ĠVerkehr":11575,"Ġbrain":11576,"Ġguideline":11577,"Ġoverwhel":11578,"Ġheart":11579,"ĠĠĠĠĠĠĠĠĠĠĠĠĠĠ":11580,"Ġfollowers":11581,"ertifiz":11582,"ĠIssues":11583,"ĠVorhers":11584,"ĠZugriffe":11585,"Ġhandelt":11586,"Inter":11587,"Ġformal":11588,"Ġapologizes":11589,"ĠzusÃ¤tzlicher":11590,"Ġpreferable":11591,"Program":11592,"Ġdifficulty":11593,"Ġactionable":11594,"Ġsecurely":11595,"Ġstatist":11596,"ekten":11597,"greg":11598,"Ġreinstalled":11599,"Ġbinary":11600,"Ġeingerichtet":11601,"Ġcountry":11602,"Ġassociation":11603,"Ġreplied":11604,"Ġfolders":11605,"immt":11606,"Ġutilities":11607,"Ġetwaigen":11608,"ĠLogs":11609,"Ġdescribes":11610,"255":11611,"Ġfaith":11612,"ĠSeite":11613,"Ġrename":11614,"ĠMarkenbewusst":11615,"ĠSynchronisations":11616,"ĠCyberan":11617,"ĠAutomatisierung":11618,"ĠSimply":11619,"ĠInvestitionsdatenanalyse":11620,"Ġcoordinate":11621,"ĠvorlÃ¤ufige":11622,"Ġsegmentation":11623,"Ġreleases":11624,"ĠAMD":11625,"ĠBranchen":11626,"Ġwohlbehalten":11627,"Ġuninterrupted":11628,"Integrations":11629,"zulegen":11630,"Ġcivil":11631,"Ġerreichbar":11632,"68":11633,"Kunden":11634,"Oh":11635,"Other":11636,"RT":11637,"ael":11638,"gelÃ¶st":11639,"ral":11640,"sect":11641,"wart":11642,"rew":11643,"really":11644,"itable":11645,"Ġanhalten":11646,"aly":11647,"arra":11648,"Ġreact":11649,"Ġproxy":11650,"verb":11651,"ĠAV":11652,"Ġzun":11653,"Ġzus":11654,"ĠDate":11655,"istor":11656,"theless":11657,"Ġsucks":11658,"Ġsock":11659,"Ġmodule":11660,"Ġexerc":11661,"ĠCell":11662,"ĠCDMA":11663,"ĠMess":11664,"ĠBu":11665,"ĠBeck":11666,"Ġoutlines":11667,"ĠHistory":11668,"ĠLernen":11669,"ĠSuggested":11670,"recovery":11671,"ĠGra":11672,"ancy":11673,"Ġscores":11674,"ĠAsp":11675,"aufnahme":11676,"repanz":11677,"Ġspezifisch":11678,"ronics":11679,"ĠAngebot":11680,"Ġfunny":11681,"Ġbasics":11682,"Ġspamming":11683,"ITE":11684,"ĠOSX":11685,"Ġ2015":11686,"Ġhoffen":11687,"Ġtransit":11688,"ĠOnlineprÃ¤senz":11689,"Ã¤hn":11690,"ĠDevices":11691,"Ġconstit":11692,"Ġ192":11693,"ĠZahlungen":11694,"Ġhimself":11695,"Ġgemeldeten":11696,"Ġersch":11697,"ĠKompatibilitÃ¤tsproblemen":11698,"Ġdecides":11699,"ĠHead":11700,"Ġgestellt":11701,"ĠMarktent":11702,"Ġbeobachte":11703,"Ġstrengthening":11704,"Ġlayer":11705,"Ġchannel":11706,"Ġinterpreted":11707,"ĠKonfigurationsÃ¤nderungen":11708,"ĠgroÃŁer":11709,"Ġrepresentative":11710,"Ġdepartments":11711,"Ġeducate":11712,"ormal":11713,"Ġburninated":11714,"Ġtemplate":11715,"Ġcitiz":11716,"ĠEngineering":11717,"Ġspirit":11718,"Ġwertvol":11719,"Ġbewerten":11720,"ourneyman":11721,"ĠGenauigkeit":11722,"hinkle":11723,"Ġphilosoph":11724,".).":11725,"02":11726,"1000":11727,"</":11728,"Home":11729,"IN":11730,"Ok":11731,"ban":11732,"bases":11733,"business":11734,"ding":11735,"emp":11736,"komp":11737,"wand":11738,"wind":11739,"Ġdetr":11740,"oul":11741,"isierung":11742,"Ġanfordern":11743,"alibr":11744,"ĠSM":11745,"ĠSorge":11746,"Ġelement":11747,"ĠTotal":11748,"ĠAE":11749,"Ġhabit":11750,"ĠDu":11751,"ĠDRM":11752,"ĠstÃ¶rt":11753,"tember":11754,"Ġcanned":11755,"ĠCD":11756,"ĠKind":11757,"ĠAnzahl":11758,"Ġtrial":11759,"bert":11760,"Ġourselves":11761,"ĠRandom":11762,"ĠNon":11763,"inkompatibilit":11764,"Ġrepository":11765,"ĠVerd":11766,"Ġcommercial":11767,"enses":11768,"ÃŁen":11769,"Ġoptimale":11770,"Ġunterschied":11771,"Ġnewly":11772,"Ġduration":11773,"Ġentspr":11774,"Ġprompted":11775,"zept":11776,"Ġinsp":11777,"ĠMarketingaktivitÃ¤ten":11778,"Invest":11779,"ĠDieser":11780,"space":11781,"Ġhohe":11782,"trl":11783,"Techn":11784,"ĠGesundheit":11785,"flÃ¤che":11786,"Ġobserving":11787,"ĠPreise":11788,"altung":11789,"Ġreturned":11790,"legt":11791,"ATE":11792,"Ġumfassenden":11793,"planung":11794,"Ġbarr":11795,"Ġfamily":11796,"Ġgesetz":11797,"ĠResultate":11798,"Ġetwaiger":11799,"ameras":11800,"Ġsnipp":11801,"Ġzeitnah":11802,"Ġcommunications":11803,"Ġsimplify":11804,"ĠRabatten":11805,"ĠPDFfill":11806,"ĠNetzwerkverbindungen":11807,"enntnis":11808,"onenten":11809,"Ġlangsamen":11810,"Ġimplies":11811,"ĠErfolgsgesch":11812,"ĠberÃ¼cksichtigen":11813,"Ġincorporating":11814,"Ġroughly":11815,"Ġrendered":11816,"Ġsequence":11817,"anÃ¤le":11818,"ĠEULA":11819,"ĠTelefonanruf":11820,"ĠConstructive":11821,"ĠZurÃ¼cksetzen":11822,"Ġentspricht":11823,"ĠPDFfiller":11824,":\\":11825,"AU":11826,"DE":11827,"EF":11828,"Faced":11829,"ivery":11830,"kenn":11831,"oad":11832,"zilla":11833,"ĠÃ¤hn":11834,"Ġsys":11835,"Ġsym":11836,"Ġdu":11837,"Ġdot":11838,"edora":11839,"Ġinline":11840,"ĠbefÃ¼r":11841,"Ġgel":11842,"idung":11843,"ĠARM":11844,"ĠPowershell":11845,"Ġwhom":11846,"Ġexchanges":11847,"ĠCreate":11848,"ĠUsually":11849,"ĠMokubai":11850,"Ġerarbeiten":11851,"ĠProcess":11852,"ĠProtokollen":11853,"antwort":11854,"ĠHDMI":11855,"Ġrephr":11856,"comments":11857,"ĠStream":11858,"Ġtheming":11859,"Ġscanners":11860,"bling":11861,"Ġremapped":11862,"ĠAddress":11863,"bscr":11864,"Ġidentification":11865,"Ã¤chst":11866,"reichung":11867,"Ġoperate":11868,"Ġapache":11869,"excel":11870,"experienc":11871,"eming":11872,"Ġgrand":11873,"Ġvorher":11874,"ĠzurÃ¼ckgesetzt":11875,"Ġseemingly":11876,"Ġslower":11877,"ship":11878,"Ġlangfrist":11879,"Ġsubset":11880,"ĠHelloSign":11881,"Ġignoring":11882,"systems":11883,"ĠAnalysetools":11884,"Ġwarnings":11885,"laimer":11886,"Ġconversions":11887,"Ġfreundliche":11888,"Ġdeciding":11889,"Ġunbefugter":11890,"Ġutter":11891,"bedÃ¼rf":11892,"Ġdescribing":11893,"Although":11894,"Ġcollected":11895,"Ġerzielt":11896,"Ġclaims":11897,"Ġreibungslose":11898,"ĠGeneral":11899,"ertainly":11900,"subjective":11901,"Ġburninate":11902,"oretaq":11903,"Ġadapters":11904,"ĠverstÃ¤rkt":11905,"Ġtemplates":11906,"Ġbestanden":11907,"Ġexcessive":11908,"ightened":11909,"ĠFlash":11910,"ĠBIOS":11911,"Ġcolumn":11912,"Ġunresponsive":11913,"ĠKnowing":11914,"ertifizierungen":11915,"ĠErfolgsgeschichten":11916,"42":11917,"AA":11918,"Auf":11919,"Authentifizierung":11920,"Because":11921,"Further":11922,"Help":11923,"Id":11924,"Many":11925,"SchlÃ¼ssel":11926,"XX":11927,"ds":11928,"eing":11929,"herstellung":11930,"something":11931,"touch":11932,"ued":11933,"Ġ%":11934,"Ġdut":11935,"Ġdiver":11936,"Ġdimin":11937,"Ġcaps":11938,"chrome":11939,"anter":11940,"Ġunavailable":11941,"Ġunanswerable":11942,"ott":11943,"agon":11944,"ĠWide":11945,"ĠAC":11946,"Ġcomfortable":11947,"Ġvac":11948,"grat":11949,"Ġalter":11950,"Ġdislike":11951,"ĠMiss":11952,"ardless":11953,"ĠEthernet":11954,"ufe":11955,"Ġimpeding":11956,"Ġgegebenen":11957,"ĠLO":11958,"ĠSuite":11959,"Ġmedium":11960,"soever":11961,"ogen":11962,"Ġ[âĢ¦":11963,"Ġwhatsoever":11964,"luded":11965,"ritts":11966,"ĠUnterbrechung":11967,"ĠQot":11968,"Ġconcrete":11969,"Ġengaged":11970,"Ġ35":11971,"Ġversus":11972,"Ġtyped":11973,"ĠAls":11974,"fÃ¼hrende":11975,"Ġtooltip":11976,"ĠNeither":11977,"instit":11978,"Ġdeveloped":11979,"shirt":11980,"Ġplaying":11981,"ĠMuster":11982,"ĠRestarted":11983,"Ġincreasingly":11984,"Ġdebug":11985,"Ġexecutable":11986,"ĠVorteilen":11987,"Ġdomains":11988,"Ġcares":11989,"ĠChatBot":11990,"ĠEveryone":11991,"Ġargumentative":11992,"Ġlicenses":11993,"Ġremotely":11994,"etheless":11995,"ĠFehlerbehebungen":11996,"Aktualisierung":11997,"Ġfinanziellen":11998,"Ġnuke":11999,"Ġreconfigure":12000,"Ġpipelines":12001,"Ġfortschrittliche":12002,"ĠUnderstand":12003,"Ġnaturally":12004,"Ġadequate":12005,"Ġconvinced":12006,"ĠZielpublikum":12007,"Ġgentle":12008,"ĠMarktentwicklungen":12009,"\";":12010,">)":12011,"Br":12012,"Having":12013,"NAP":12014,"RQ":12015,"Too":12016,"Use":12017,"aa":12018,"bÃ¼":12019,"las":12020,"nu":12021,"oology":12022,"pm":12023,"ergeb":12024,"Ġdann":12025,"Ġpit":12026,"ascript":12027,"Ġyeah":12028,"ĠSal":12029,"ĠSichtbarkeit":12030,"ĠSathya":12031,"Ġep":12032,"Ġgleich":12033,"Ġgarbage":12034,"igest":12035,"igrate":12036,"Ġforb":12037,"ĠWireless":12038,"ameter":12039,"ĠDPI":12040,"Ã¶hn":12041,"Ġkick":12042,"Ġsoft":12043,"alloc":12044,"ortant":12045,"ĠCall":12046,"ĠMulti":12047,"Ġapple":12048,"ĠBar":12049,"opin":12050,"ĠHis":12051,"ĠHÃ¤uf":12052,"abel":12053,"tool":12054,"ĠDatenspe":12055,"ĠStÃ¤r":12056,"Ġconfig":12057,"Ġacting":12058,"prior":12059,"iedr":12060,"Ġarrow":12061,"Ġheading":12062,"ĠSchoology":12063,"ĠQNAP":12064,"ĠSicherheitsrichtlinien":12065,"Ġinformative":12066,"Ġownership":12067,"ĠZukunft":12068,"Ġbereitgestellten":12069,"Ġvorliegen":12070,"Ġlimiting":12071,"Ġpolite":12072,"Ġdefining":12073,"folgung":12074,"2012":12075,"trans":12076,"ĠControl":12077,"visions":12078,"Ġmission":12079,"Ġperiodically":12080,"Eng":12081,"iziente":12082,"Ġproposals":12083,"Ġenthusiast":12084,"Ġdelivering":12085,"ĠMoreover":12086,"integritÃ¤t":12087,"Ġcomplexity":12088,"DMarra":12089,"ĠCCleaner":12090,"Ġviolation":12091,"ĠEinsichten":12092,"SuperUser":12093,"ĠLinks":12094,"Ġappeal":12095,"Ġthousand":12096,"TLS":12097,"filter":12098,"Ġineffekt":12099,"Umgebungen":12100,"Ġungenaue":12101,"ĠDrittanbieter":12102,"Ġstabil":12103,"Ġstyles":12104,"Ġinnovative":12105,"ĠInfluencer":12106,"Ġchron":12107,"06":12108,"43":12109,"Go":12110,"Netzwerk":12111,"Such":12112,"copy":12113,"disk":12114,"oom":12115,"pol":12116,"pack":12117,"passw":12118,"range":12119,"wireless":12120,"onar":12121,"onder":12122,"reicher":12123,"oration":12124,"Ġpul":12125,"Ġmand":12126,"ĠIN":12127,"ĠIde":12128,"teilen":12129,"ĠSper":12130,"ĠSound":12131,"Ġniedr":12132,"ids":12133,"ichael":12134,"ĠAug":12135,"amazon":12136,"Ġconvey":12137,"ĠDen":12138,"Ġrise":12139,"Ġvertraul":12140,"ĠEC":12141,"ĠVork":12142,"ĠOR":12143,"Ġgeleg":12144,"Ġinvested":12145,"ĠProblematik":12146,"ĠGraph":12147,"ommt":12148,"Ġprices":12149,"ipe":12150,"raw":12151,"ggreg":12152,"Ġaudiences":12153,"Ġthroughout":12154,"Ã¶rte":12155,"ĠIssue":12156,"Ġhands":12157,"enzial":12158,"exper":12159,"ksam":12160,"ĠSpecific":12161,"ĠXonar":12162,"ĠTelefontermin":12163,"Ġslowly":12164,"Ġhomepage":12165,"Ġsuppl":12166,"ĠGesundheitsversorg":12167,"Ġreinstallation":12168,"administr":12169,"Ġverwendete":12170,"zÃ¶gerung":12171,"Ġsurv":12172,"Ġbehindert":12173,"Ġfilters":12174,"ynamic":12175,"Ġjudges":12176,"Ġkeyboards":12177,"Ġ2530":12178,"ĠSpeicher":12179,"ĠProgramming":12180,"Ġconcepts":12181,"ĠZugangskontrol":12182,"Ġgrammatical":12183,"Ġlaunched":12184,"Ġshutting":12185,"Ġwidth":12186,"Ġerweiterten":12187,"ĠUnderstanding":12188,"gewÃ¶hn":12189,"ĠExperten":12190,"Ġrenewal":12191,"Ġgrundlegende":12192,"schluss":12193,"Ġbehandeln":12194,"Ġdistract":12195,"Ġsurrounding":12196,"ĠVerstehe":12197,"ĠHÃ¤ufigkeit":12198,"\">":12199,"-+":12200,"DATE":12201,"Hardware":12202,"Ops":12203,"People":12204,"Second":12205,"custom":12206,"doc":12207,"het":12208,"ii":12209,"iating":12210,"migr":12211,"official":12212,"posed":12213,"passen":12214,"uet":12215,"zul":12216,"Ġ!":12217,"erfass":12218,"Ġwild":12219,"orgen":12220,"organ":12221,"Ġbans":12222,"Ġple":12223,"verbindung":12224,"ifferenzen":12225,"elcome":12226,"umm":12227,"ĠCent":12228,"indikatoren":12229,"ĠBudget":12230,"ĠOthers":12231,"ĠTheir":12232,"Ġtritt":12233,"berichten":12234,"acks":12235,"ĠLaufenden":12236,"ibilit":12237,"sehen":12238,"espread":12239,"Ġdont":12240,"Ġsitting":12241,"ularly":12242,"melder":12243,"Ġreadily":12244,"rying":12245,"ĠEnsure":12246,"ĠMarkenwahr":12247,"Ġexport":12248,"Ġpolling":12249,"Ġblogging":12250,"ĠChange":12251,"Ġdirected":12252,"ĠDatensynchronis":12253,"Ġsynchronize":12254,"valuation":12255,"Ġconfirming":12256,"ĠKontaktaufnahme":12257,"Ġdiagnos":12258,"Ġstronger":12259,"Ġbreaks":12260,"ĠFehlers":12261,"Apple":12262,"ĠNARQ":12263,"Ġdebugging":12264,"Ġspeeds":12265,"ĠBesides":12266,"modell":12267,"ĠZielgruppenans":12268,"Needs":12269,"fari":12270,"Ġintentional":12271,"nehmung":12272,"Ġqualified":12273,"ĠgroÃŁen":12274,"changed":12275,"ĠerfÃ¼llt":12276,"Konfigurationen":12277,"ĠprÃ¤zise":12278,"freund":12279,"Ġretrieval":12280,"Ġbeeinfluss":12281,"ĠLocalized":12282,"ĠSDKs":12283,"Moderators":12284,"Ġacronym":12285,"Ġmusic":12286,"Ġfoster":12287,"Drafting":12288,"Ġvertraulicher":12289,"!).":12290,"113":12291,"63":12292,"78":12293,"Disc":12294,"OK":12295,"gesehen":12296,"people":12297,"sy":12298,"sysadmin":12299,"uplo":12300,"ÃĦnderungen":12301,"Ġquest":12302,"rob":12303,"ĠnÃ¼tz":12304,"struktur":12305,"Ġgarn":12306,"iders":12307,"ĠTable":12308,"agment":12309,"ĠDBA":12310,"thusi":12311,"Ġsuite":12312,"Ġstark":12313,"Ġenergy":12314,"ĠCo":12315,"Ġschlagen":12316,"Ġschool":12317,"sem":12318,"ĠDateneing":12319,"ancen":12320,"assing":12321,"ontroll":12322,"Ġmoderate":12323,"Ġanalysiert":12324,"Ġhadn":12325,"Ġfeelings":12326,"Ġpassend":12327,"ĠSpot":12328,"Ġoriginated":12329,"Ġsimilarly":12330,"Ġexpensive":12331,"ĠDatenanalyseplattform":12332,"ienstleistungs":12333,"Ġclarifications":12334,"ĠAusfalls":12335,"âĢĿ.":12336,"Ġclicks":12337,"ĠverfÃ¼gbare":12338,"Ġtreating":12339,"ĠGranted":12340,"Ġgestalten":12341,"Ġobjectively":12342,"ĠKontodaten":12343,"Ġcraft":12344,"ĠGesprÃ¤chstermin":12345,"Ġnutzt":12346,"posted":12347,"Ġdocumenting":12348,"Ġcasting":12349,"Ġunbefugte":12350,"Ġassignment":12351,"Ġpaths":12352,"ĠStandard":12353,"Ġpictures":12354,"nerschaften":12355,"Ġcontrary":12356,"ĠAusfallzeiten":12357,"Ġformula":12358,"Ġflawed":12359,"Ġdrafting":12360,"Ġfundamentally":12361,"ĠOpera":12362,"Ġintermittently":12363,"Ġimplied":12364,"Ġworkstation":12365,"ĠChanges":12366,"ivileges":12367,"Ġsimultaneously":12368,"ĠDennoch":12369,"ĠGesundheitsw":12370,"Ġ[âĢ¦]":12371,"ĠQotW":12372,"ĠMarkenwahrnehmung":12373,"Act":12374,"Kompatibilit":12375,"Then":12376,"bte":12377,"fs":12378,"iage":12379,"lare":12380,"zentr":12381,"Ġve":12382,"Ġcreative":12383,"Ġpushing":12384,"rot":12385,"asy":12386,"Ġreass":12387,"ieben":12388,"Ġbeider":12389,"station":12390,"quote":12391,"Ġprohib":12392,"Ġgmail":12393,"ĠWH":12394,"ĠAvid":12395,"Ġkommt":12396,"adgets":12397,"Ġstruct":12398,"umble":12399,"ĠChe":12400,"ĠCavil":12401,"gegen":12402,"ĠEmail":12403,"ĠKenntnis":12404,"ĠHonestly":12405,"ĠList":12406,"ĠProblemfall":12407,"ĠGeek":12408,"Ġoptional":12409,"ĠUnanswered":12410,"Ġpron":12411,"Ġunderstands":12412,"schlag":12413,"pres":12414,"Ġpeer":12415,"Ġoffending":12416,"ontinu":12417,"ipation":12418,"Ġfindings":12419,"Ġheld":12420,"Ġmoderated":12421,"lieg":12422,"local":12423,"Ġentgegen":12424,"Ġrelevanter":12425,"Ġaccepts":12426,"Ġafterwards":12427,"ĠAllow":12428,"ĠJan":12429,"Ġrealise":12430,"Ġfactual":12431,"Ġorganize":12432,"ĠIntegrationsoptionen":12433,"Ġfeeds":12434,"Ġutilizes":12435,"Ġvideogames":12436,"Ġcollaborate":12437,"Strategien":12438,"Ġbeginners":12439,"Ġmistaken":12440,"Ġderzeitige":12441,"ĠBereichen":12442,"Ġheaders":12443,"ĠMods":12444,"command":12445,"links":12446,"Ġinterrupted":12447,"Ġstrengthened":12448,"Ġpromotional":12449,"ĠMarketingkampagne":12450,"ĠStatus":12451,"ĠDaher":12452,"chaft":12453,"ĠBasic":12454,"Ġfortzuf":12455,"Ġparagraphs":12456,"ĠFortschritte":12457,"ĠDisplay":12458,"ĠGoing":12459,"ĠDatenaufbereitungs":12460,"Ġisolate":12461,"Produkte":12462,"Schritte":12463,"Ġhanging":12464,"Ġeinzuhalten":12465,"ĠWiederherstellung":12466,"Ġadherence":12467,"Ġintensiv":12468,"xxxxxxxxxxxxxxxx":12469,"Ġmotivation":12470,"Ġannounce":12471,"Ġ###[":12472,"Account":12473,"ĠAssess":12474,"Ġansprech":12475,"Ġincentive":12476,"Ġadministering":12477,"betrieb":12478,"ĠprÃ¤diktive":12479,"mentioned":12480,"Ġbeeinflussen":12481,"97":12482,"Click":12483,"EL":12484,"Kampagne":12485,"Mo":12486,"OH":12487,"TÃ¼r":12488,"WW":12489,"beta":12490,"cate":12491,"high":12492,"lungs":12493,"note":12494,"she":12495,"vorg":12496,"Ãľ":12497,"Ġtiny":12498,"Ġcru":12499,"Ġpile":12500,"also":12501,"Ġinactive":12502,"Ġinaccess":12503,"Ġht":12504,"ari":12505,"aser":12506,"etime":12507,"unclear":12508,"Ġlau":12509,"tere":12510,"ĠWix":12511,"Ġziel":12512,"Ġmock":12513,"ĠCho":12514,"Ġ</":12515,"ĠAngaben":12516,"Ġwasted":12517,"number":12518,"aint":12519,"Ġrecalc":12520,"Ġoutlined":12521,"Ġpersisted":12522,"Ġentit":12523,"Ġnecessity":12524,"Ġweitergehende":12525,"Ġacceptance":12526,"Ġfinished":12527,"ĠProjektor":12528,"Ġexpend":12529,"ĠDatenanalysewerkzeug":12530,"ĠVersionen":12531,"ĠOSes":12532,"Ġinquiries":12533,"ĠDatensicherung":12534,"Ġcharged":12535,"ilding":12536,"Ġfluct":12537,"Ġencourages":12538,"Ã¤tsprobleme":12539,"ĠScans":12540,"Ġgathering":12541,"Ġpresentations":12542,"ĠIPv":12543,"ĠWorkar":12544,"ĠenthÃ¤lt":12545,"Ġdiscouraging":12546,"ĠfÃ¼hrte":12547,"geschritten":12548,"ĠerzÃ¤hlen":12549,"Ġcomplaint":12550,"Ġ\\\"":12551,"programming":12552,"Postill":12553,"Ġjoke":12554,"display":12555,"ĠDefault":12556,"reasonable":12557,"Ġfehlerhafte":12558,"ĠLeitfaden":12559,"Ġcapture":12560,"Ġcorrection":12561,"ĠVLQ":12562,"ĠWelche":12563,"Ġsolely":12564,"ĠÂłĠÂł":12565,"Ġblocking":12566,"Ġobservations":12567,"Ġnewbies":12568,"Ġignorance":12569,"Ġnonsense":12570,"ĠSeptember":12571,"Ġfrowned":12572,"Ġkompromittiert":12573,"Ġdahinterste":12574,"ĠRenditen":12575,"ĠVerdacht":12576,"gratulations":12577,"Ġpitfalls":12578,"uetooth":12579,"82":12580,"Ar":12581,"IC":12582,"OL":12583,"Open":12584,"Sorry":12585,"SITE":12586,"fÃ¤higkeit":12587,"gern":12588,"mind":12589,"sight":12590,"zel":12591,"Ġ____":12592,"Ġair":12593,"onts":12594,"Ġsad":12595,"Ġsell":12596,"reibt":12597,"Ġanfragen":12598,"leun":12599,"establ":12600,"ilder":12601,"Ġnom":12602,"Ġegg":12603,"Ġgist":12604,"ĠTS":12605,"usually":12606,"Ġusability":12607,"Ġram":12608,"Ġundes":12609,"sum":12610,"ĠThing":12611,"then":12612,"grading":12613,"Ġneug":12614,"Ġexceed":12615,"umen":12616,"Ġresist":12617,"ĠUpd":12618,"ĠBurn":12619,"opeless":12620,"Ġgeograph":12621,"sert":12622,"ĠHopefully":12623,"ĠLage":12624,"ĠGIM":12625,"ĠDatenaus":12626,"elles":12627,"Ġpermission":12628,"akten":12629,"pract":12630,"ĠAdvanced":12631,"Ġoverflow":12632,"Ġheight":12633,"Ġrelies":12634,"ĠSoftwareinkompatibilit":12635,"Ġtechnisches":12636,"ademy":12637,"ĠStackoverflow":12638,"Ġidentity":12639,"://$":12640,"leistungen":12641,"leistungs":12642,"aufgaben":12643,"Ġdocs":12644,"ĠErreichung":12645,"Ġsowohl":12646,"Ġdelivery":12647,"ĠEinbindung":12648,"ĠEinfÃ¼hrung":12649,"exist":12650,"Ġrealzeit":12651,"zeitig":12652,"ĠNotice":12653,"lieÃŁen":12654,"cloud":12655,"ĠAusfÃ¤llen":12656,"Ġexpects":12657,"ĠKampagnenleistung":12658,"gebung":12659,"Ġweekend":12660,"Ġchoosing":12661,"ĠgestÃ¶rt":12662,"ĠProduktintegration":12663,"useful":12664,"Ġsuspic":12665,"Ġkonfront":12666,"Ġ99":12667,"ĠZahlungsoptionen":12668,"Ġpreced":12669,"ĠConduct":12670,"Ġhervor":12671,"ĠVerbindungsproblemen":12672,"Ġverbesserten":12673,"ĠDiscussion":12674,"ĠCPUs":12675,"ĠKontos":12676,"ĠProzesse":12677,"ĠSicherheitslÃ¶sungen":12678,"Ġambigu":12679,"Ġforecasting":12680,"Ġfalsche":12681,"Ġbookmark":12682,"declined":12683,"Ġcondition":12684,"ĠExplain":12685,"ĠErkenntnisse":12686,"Ġlikes":12687,"ĠFrage":12688,"Ġagrees":12689,"Ġpremium":12690,"Ġsignifikante":12691,"Ġdatenbasierte":12692,"Ġuncertain":12693,"ĠTranslator":12694,"ĠSysAdmin":12695,"ĠIndex":12696,"Ġpublished":12697,"Ġsnarky":12698,"verwaltungs":12699,"Ġmarginal":12700,"Ġweaknesses":12701,"Ġdemographics":12702,"ĠSpotify":12703,"Ġlautet":12704,"ĠGIMP":12705,"05":12706,"Aut":12707,"CT":12708,"Fr":12709,"Num":12710,"frei":12711,"po":12712,"ux":12713,"vista":12714,"âķ":12715,"Ġ![":12716,"inct":12717,"Ġsorg":12718,"Ġpc":12719,"Ġposed":12720,"ley":12721,"ali":12722,"ĠIain":12723,"Ġhub":12724,"Ġheck":12725,"estartet":12726,"icate":12727,"ĠSite":12728,"unning":12729,"Ġunst":12730,"Ġunsupported":12731,"idence":12732,"Ġloop":12733,"Ã¤ll":12734,"ĠUPS":12735,"Ġdatabases":12736,"Ġdozen":12737,"activity":12738,"Ġgelegen":12739,"Ġtrade":12740,"plate":12741,"ĠHard":12742,"ĠNu":12743,"ĠZe":12744,"Ġreplying":12745,"ĠGive":12746,"ĠDatenÃ¼ber":12747,"dev":12748,"esponse":12749,"Ġaskers":12750,"ongs":12751,"Ġworkload":12752,"Ġinvestigated":12753,"ipod":12754,"ĠDetailed":12755,"ĠSoftwareaktualisierung":12756,"ĠReaktions":12757,"half":12758,"],<":12759,"ĠSystemscans":12760,"Ġinstruction":12761,"Ġrelevance":12762,"Ġweiterge":12763,"ĠIsn":12764,"ĠErmit":12765,"Ġlisting":12766,"ĠEnthusi":12767,"Ġmonat":12768,"ribly":12769,"gerÃ¤te":12770,"Ġmarkup":12771,"installer":12772,"Ġdescript":12773,"Ġcontinuing":12774,"âĢĿ,":12775,"show":12776,"Ġnamely":12777,"Ġglitches":12778,"Ġvalidating":12779,"Ġfilesystem":12780,"ointed":12781,"Ġlegacy":12782,"Unfortunately":12783,"Ġerfolgreicher":12784,"Ġvolunt":12785,"ĠFeuer":12786,"Ġattracted":12787,"ĠNotepad":12788,"Ġjudged":12789,"Ġarguing":12790,"ĠURLs":12791,"Ġestablishing":12792,"Ġindividuals":12793,"Ġintentions":12794,"Verbindungen":12795,"Ġcounted":12796,"Ġbalance":12797,"Ġyielding":12798,"Ġgrace":12799,"Ġsubsequently":12800,"Ġliked":12801,"balancing":12802,"Ġdumping":12803,"ĠAdministrator":12804,"Ġgezielte":12805,"Ġregistriert":12806,"Ġnatural":12807,"ĠAbrechnung":12808,"ĠGuid":12809,"Ġembedded":12810,"beschrÃ¤nkungen":12811,"Ġreconnecting":12812,"Ġdestroyed":12813,"Ġstagnant":12814,"Ġcombine":12815,"ĠjÃ¼ngsten":12816,"Ġaggressive":12817,"burg":12818,"Bereich":12819,"Ġzusenden":12820,"opinion":12821,"ibilitÃ¤t":12822,"?!":12823,"Tube":12824,"authorized":12825,"evalu":12826,"ked":12827,"native":12828,"oon":12829,"security":12830,"sql":12831,"Ġauthorized":12832,"inn":12833,"rease":12834,"Ġdosen":12835,"Ġcited":12836,"Ġcamera":12837,"Ġpicking":12838,"edul":12839,"Ġfish":12840,"Ġgesp":12841,"Ġlauf":12842,"ĠTCP":12843,"ĠWarn":12844,"amper":12845,"ĠPanel":12846,"supdates":12847,"area":12848,"ada":12849,"Ġnotifying":12850,"Ġabilities":12851,"Ġdisabling":12852,"Ġverification":12853,"ĠEm":12854,"ĠEvent":12855,"actOS":12856,"ĠgeÃ¤ndert":12857,"plit":12858,"ĠHence":12859,"ĠHeming":12860,"ĠVerluste":12861,"Ġjustification":12862,"Ġworkplace":12863,"mem":12864,"Ġgovern":12865,"Ġsuche":12866,"ĠServerkonfiguration":12867,"ĠInvestments":12868,"Ġweiterer":12869,"Ġeverywhere":12870,"ĠError":12871,"anything":12872,"Ġvorzunehmen":12873,"Ġautomating":12874,"ĠDatenanalysewerkzeuge":12875,"backs":12876,"ĠRÃ¼ckgang":12877,"Ġjeder":12878,"ĠIntegrationsrichtlinien":12879,"Ã¼rzen":12880,"ĠArten":12881,"Ġmisuse":12882,"Ġappearing":12883,"Ġhosts":12884,"Ġengineering":12885,"enterprise":12886,"ĠPrompt":12887,"teiligung":12888,"Ġkonzentr":12889,"Ġprecision":12890,"Ġgemeldete":12891,"ĠPasswords":12892,"Ġmeaningless":12893,"Ġunbefugtem":12894,"jsman":12895,"ĠDatenanalysen":12896,"ĠMarkttr":12897,"Ġinvolvement":12898,"Ġgraphic":12899,"Ġjoined":12900,"ĠAudit":12901,"Ġexpressed":12902,"Ġsuspensions":12903,"Ġrecurrence":12904,"ĠDatensperrung":12905,"Ġfortgeschritten":12906,"Synchronisations":12907,"Ġconvince":12908,"ĠTechnologie":12909,"discussion":12910,"lÃ¤sslich":12911,"ĠBounties":12912,"ĠNetzwerksicherheits":12913,"Ġwiederholt":12914,"ĠVermutlich":12915,"Ġpenalty":12916,"Ġsponsor":12917,"ĠLÃ¶sungsansatz":12918,"Ġihrer":12919,"Ġenforced":12920,"Ġpreisge":12921,"Ġscoped":12922,"ĠfrÃ¼hestmÃ¶glich":12923,"ummary":12924,"ĠGesundheitswesen":12925,"Ġneugestartet":12926,"Ġkonfrontiert":12927,"ĠHemingway":12928,"Acc":12929,"Based":12930,"Eine":12931,"Res":12932,"Related":12933,"Ther":12934,"VER":12935,"cending":12936,"eared":12937,"hound":12938,"paper":12939,"wieg":12940,"Ã§":12941,"Ġtough":12942,"esk":12943,"Ġssh":12944,"Ġdict":12945,"Ġdauer":12946,"ingt":12947,"Ġpowershell":12948,"lech":12949,"lekt":12950,"Ġfing":12951,"altet":12952,"Ġhob":12953,"ĠSim":12954,"Ġrealloc":12955,"ille":12956,"Ġbearbeitet":12957,"Ġunkon":12958,"Ġunprofessional":12959,"ĠungewÃ¶hn":12960,"essen":12961,"mental":12962,"Ġrichtigen":12963,"Ġweigh":12964,"Ġattend":12965,"Ã¤ter":12966,"Ġreserve":12967,"Ġdisp":12968,"Ġvert":12969,"ĠspÃ¤ter":12970,"ĠAnfang":12971,"Ġschwer":12972,"ernet":12973,"before":12974,"Ġmatches":12975,"aket":12976,"Ġgenommen":12977,"annel":12978,"ĠReactOS":12979,"ĠSystemfehler":12980,"ĠSystemaktualisierung":12981,"Ġenthalten":12982,"ĠYouTube":12983,"Ġdriven":12984,"ĠJourneyman":12985,"Ġincreases":12986,"ĠShort":12987,"ĠShog":12988,"ĠMarkens":12989,"Ġgewinnen":12990,"Ġgrade":12991,"Ġarrang":12992,"ĠDatenanalysewerkzeugen":12993,"Ġquicker":12994,"ĠOriginal":12995,"openid":12996,"Ġadjustment":12997,"ĠÃľberprÃ¼fungen":12998,"renaming":12999,"Ġ2018":13000,"rechte":13001,"Ġtransition":13002,"Ġsorting":13003,"Ġstoring":13004,"Ġpopup":13005,"datenanalyse":13006,"Unser":13007,"ĠTechnik":13008,"ĠConcern":13009,"ymptomen":13010,"Ġwiederkehr":13011,"Ġabsurd":13012,"Ġuploads":13013,"ĠNAA":13014,"Ġ==":13015,"ĠSSDs":13016,"Ġjeopard":13017,"Ġcloses":13018,"Ġrewritten":13019,"Ġcomplications":13020,"ĠBackup":13021,"ĠFreuen":13022,"Produkt":13023,"Produkten":13024,"Ġmisaligned":13025,"Ġverbundenen":13026,"Ġcorrel":13027,"Ġinherently":13028,"Ġrendering":13029,"ĠServerkapazitÃ¤t":13030,"Ġgeplant":13031,"ĠDropbox":13032,"erlebnis":13033,"Ġmutually":13034,"Ġspezifischere":13035,"ĠbefÃ¼rchten":13036,"ĠStÃ¤rkung":13037,"SITEURL":13038,"ĠsorgfÃ¤l":13039,"88":13040,">).":13041,"Aus":13042,"BL":13043,"David":13044,"Given":13045,"Hi":13046,"Multiple":13047,"OD":13048,"Optim":13049,"bes":13050,"band":13051,"both":13052,"col":13053,"ech":13054,"ka":13055,"oS":13056,"prom":13057,"sites":13058,"sicherheits":13059,"zielen":13060,"zburg":13061,"Ġtl":13062,"Ġaggreg":13063,"invest":13064,"infrastruktur":13065,"Ġcave":13066,"Ġanpassen":13067,"Ġinkonsist":13068,"Ġhunt":13069,"Ġreduction":13070,"qual":13071,"Ġevaluation":13072,"Ġunre":13073,"Ġuncommon":13074,"iding":13075,"Ġforms":13076,"Ġlies":13077,"ĠTaktiken":13078,"utations":13079,"Ġquestionable":13080,"ĠAF":13081,"amps":13082,"amhound":13083,"ĠPuppet":13084,"Ã¶ff":13085,"pted":13086,"oses":13087,"andal":13088,"Ġseine":13089,"perties":13090,"ĠPrognosen":13091,"Ġimplications":13092,"Ġtrain":13093,"ĠRSS":13094,"ĠNT":13095,"Ġschem":13096,"Ġeinrichten":13097,"ĠGlad":13098,"ĠDatenerfass":13099,"Ġquiet":13100,"Ġscanning":13101,"booting":13102,"Ġremark":13103,"ĠReally":13104,"ĠmÃ¶glichst":13105,"Ġdarum":13106,"Ġdrag":13107,"Ġcoher":13108,"Ġvisitor":13109,"ĠEinzel":13110,"Ã¤hrend":13111,"Mails":13112,"Ġorganizing":13113,"ompatibel":13114,"Ġ2017":13115,"Ġfestzulegen":13116,"Ġutilization":13117,"allenge":13118,"Review":13119,"ĠTrue":13120,"Ġfocuses":13121,"richtung":13122,"Ġconfirmation":13123,"Ġerfolgreichen":13124,"Ġassociations":13125,"Ġlocalised":13126,"Ġvariables":13127,"Ġtracked":13128,"ĠCompany":13129,"gehÃ¶r":13130,"Ġdisagreement":13131,"message":13132,"ĠSicherheitsverletzungen":13133,"Ġprioritizing":13134,"Ġmanuals":13135,"defined":13136,"Ġtrusted":13137,"Ġbeschreibt":13138,"Ġbeschleun":13139,"ĠAudition":13140,"Ġentsprechende":13141,"Ġviruses":13142,"Ġwarranted":13143,"Ġcalculations":13144,"ĠWerbean":13145,"Synchronisierung":13146,"ĠHTTPS":13147,"Ġvarying":13148,"Ġemphasis":13149,"âĢĭâĢĭâĢĭâĢĭ":13150,"ĠSafari":13151,"brochen":13152,"Comments":13153,"Ġprofession":13154,"Ġvirtually":13155,"Ġoffense":13156,"Ġaffiliation":13157,"chestration":13158,"Ġexercise":13159,"Ġdiagnosis":13160,"Ġweitergeleitet":13161,"Ġjederzeit":13162,"Ġkonzentrieren":13163,"$/":13164,"DIO":13165,"EM":13166,"Even":13167,"could":13168,"control":13169,"fail":13170,"gende":13171,"gige":13172,"hack":13173,"hammer":13174,"iples":13175,"pe":13176,"zur":13177,"Ġtied":13178,"Ġthin":13179,"isable":13180,"Ġhamp":13181,"Ġhoch":13182,"ĠSymptomen":13183,"iefer":13184,"omla":13185,"store":13186,"ĠAction":13187,"ĠActions":13188,"Ġconvent":13189,"ĠDOS":13190,"Ġrufe":13191,"Ġkorr":13192,"acenter":13193,"Ġenables":13194,"ĠCertainly":13195,"Ġdisks":13196,"ĠMV":13197,"ĠMaster":13198,"endo":13199,"oob":13200,"ienen":13201,"ĠKomp":13202,"Ġgebracht":13203,"Ġtrash":13204,"Ġrecreated":13205,"earing":13206,"Ġbetr":13207,"Ġinterven":13208,"ĠVerme":13209,"Ġprizes":13210,"Ġguiding":13211,"Ġuntersuche":13212,"ĠÃ¼bermitteln":13213,"blieben":13214,"ĠSchÃ¤den":13215,"Ġrelations":13216,"resse":13217,"annot":13218,"ĠRequire":13219,"Ġrot":13220,"Ġbacked":13221,"Ġdurchgehen":13222,"etzten":13223,"Ġ3000":13224,"brÃ¼":13225,"brand":13226,"whatever":13227,"Ġdarin":13228,"ĠJune":13229,"many":13230,"Another":13231,"Ġdefend":13232,"Ġretro":13233,"Ġetiquette":13234,"Ġadvoc":13235,"zufried":13236,"ĠNext":13237,"ĠPatch":13238,"Ġspammer":13239,"ĠVersions":13240,"gorithmen":13241,"Ġstatic":13242,"zugehen":13243,"ĠIntegrationsfehler":13244,"Ġyearly":13245,"Ġvalidate":13246,"Ġrejecting":13247,"Ġauthorization":13248,"Ġbroadly":13249,"ĠWebin":13250,"ĠEngagements":13251,"Ġupgraded":13252,"ĠbestÃ¤tigt":13253,"Ġfoot":13254,"Ġresponsibilities":13255,"Ã¤sent":13256,"ĠDoesn":13257,"Ġderzeitigen":13258,"completed":13259,"worte":13260,"Ġletzte":13261,"Ġlocated":13262,"Ġdownloads":13263,"ilty":13264,"Ġawait":13265,"Ġbottlen":13266,"Ġstemming":13267,"Ġexpressing":13268,"ĠDigitalstrategie":13269,"Ġviolate":13270,"Ġterminology":13271,"Ġshutdown":13272,"Ġwhitepapers":13273,"ĠOptimierungen":13274,"ĠClean":13275,"Ġstraightforward":13276,"Ġblacklisted":13277,"ĠBelow":13278,"Ġautorisierten":13279,"moderators":13280,"small":13281,"queue":13282,"Ġcircumventing":13283,"formatting":13284,"Ġforgotten":13285,"ĠCollection":13286,"ĠBenutzern":13287,"Ġartific":13288,"Ġtimestamp":13289,"amsung":13290,"ĠUPDATE":13291,"-------------+":13292,"Werbung":13293,"lossen":13294,"ĠProviding":13295,"Wasser":13296,"ĠAspekte":13297,"Ġphilosophy":13298,"AUDIO":13299,"Ġmandatory":13300,"Ãľber":13301,"Ġfluctuations":13302,"Ġambiguity":13303,"Ġschwerwieg":13304,"Ġhampers":13305,"Ġkorrig":13306,"ĠVermeidung":13307,"Close":13308,"DRA":13309,"XT":13310,"cient":13311,"fit":13312,"known":13313,"ycle":13314,"Ġ//":13315,"Ġafore":13316,"Ġthes":13317,"reject":13318,"Ġdos":13319,"Ġboss":13320,"almost":13321,"Ġinfect":13322,"ĠSay":13323,"Ġns":13324,"Ġbeachten":13325,"ĠAR":13326,"super":13327,"ecking":13328,"Ġsuck":13329,"account":13330,"allok":13331,"Ġcant":13332,"orts":13333,"ĠUl":13334,"arded":13335,"gef":13336,"actively":13337,"ĠView":13338,"ivate":13339,"ĠHR":13340,"ĠLong":13341,"Ġamazon":13342,"Ġspecs":13343,"Ġeinleiten":13344,"ĠGB":13345,"ĠDatenab":13346,"ĠVerzÃ¶gerung":13347,"bewer":13348,"Ġperceived":13349,"Ġoptimierte":13350,"praktiken":13351,"Ġbrack":13352,"stÃ¼tzungs":13353,"ĠSoftwareversion":13354,"ĠSystemver":13355,"ĠSystemaktualisierungen":13356,"Ġfolk":13357,"avascript":13358,"Ġfinish":13359,"ĠVorteil":13360,"Answers":13361,"etera":13362,"Ġpresumably":13363,"Ġ101":13364,"Ġstrive":13365,"zufragen":13366,"hafte":13367,"Ġwelcoming":13368,"Ġsupplement":13369,"ĠSicherheitsupdates":13370,"ĠRecorder":13371,"ĠBenachrichtig":13372,"prozessen":13373,"prozesses":13374,"Ġerlebte":13375,"Ġcontainers":13376,"Ġavoided":13377,"Ġwondered":13378,"Ġgathered":13379,"Ġraises":13380,"stool":13381,"Ġdrawn":13382,"Ġawarding":13383,"bindungs":13384,"Ġsporadische":13385,"Ġinsulting":13386,"complete":13387,"Ġrecognized":13388,"Ġlifted":13389,"vidia":13390,"Once":13391,"Ġswitching":13392,"Ġprecisely":13393,"Ġdiagnostizieren":13394,"Ġdupes":13395,"fahrungen":13396,"ĠHinblick":13397,"ĠUpon":13398,"ĠhÃ¤ufigen":13399,"ĠOffer":13400,"ĠDatums":13401,"Ġglauben":13402,"keyboard":13403,"Ġtreatment":13404,"ormally":13405,"Ġnominate":13406,"Ġvorgenommenen":13407,"Ġformulas":13408,"Ġflaws":13409,"Ġkonfigurieren":13410,"ublikums":13411,"Ġpremise":13412,"oberflÃ¤che":13413,"Ġprinciple":13414,"Ġprinciples":13415,"Ġfighting":13416,"ĠVLC":13417,"Geachte":13418,"Ġshortcuts":13419,"Ġkonkrete":13420,"ĠverdÃ¤chtige":13421,"Ġperipherals":13422,"ĠZugangssteuerungen":13423,"ĠÃ¤uÃŁer":13424,"Ġrevenue":13425,"Ġglatte":13426,"Investment":13427,"institut":13428,"ĠSalzburg":13429,"Ġreassess":13430,"Ġdahinterstecken":13431,"Ġnomine":13432,"Ġsuspicion":13433,"memory":13434,"ĠMarkttrends":13435,"Ġaforementioned":13436,"74":13437,"Bu":13438,"Jeff":13439,"Mehr":13440,"Network":13441,"dienste":13442,"foo":13443,"mware":13444,"nBitte":13445,"possibly":13446,"typ":13447,"Ġq":13448,"Ġtill":13449,"Ġapt":13450,"enheit":13451,"onnen":13452,"atars":13453,"remote":13454,"revisions":13455,"Ġcrow":13456,"Ġcetera":13457,"Ġbinding":13458,"Ġmere":13459,"Ġmice":13460,"Ġfals":13461,"Ġintel":13462,"icode":13463,"ĠSus":13464,"Ġnudge":13465,"Ġegreg":13466,"Ġunpatched":13467,"again":13468,"ĠWSL":13469,"ĠAN":13470,"ĠPublikum":13471,"ĠDouble":13472,"ersch":13473,"Ġvict":13474,"izind":13475,"Ġreserved":13476,"ĠMarch":13477,"ĠMax":13478,"Ġdisclose":13479,"ĠProtect":13480,"ĠAnforderung":13481,"Ġimplicit":13482,
[...]
